<unk>	0
<s>	0
</s>	0
,	-2.7302
。	-2.84002
▁	-3.74173
的	-3.75008
和	-4.62068
"	-4.84209
在	-4.94525
是	-5.35508
年	-5.51404
了	-5.75503
对	-5.79649
为	-5.86114
有	-5.94551
及	-5.94897
与	-5.97373
中	-6.0226
人	-6.09851
将	-6.11414
(	-6.11576
月	-6.14878
)	-6.22665
我们	-6.31968
以	-6.32033
政府	-6.33358
或	-6.34429
也	-6.35588
日	-6.37581
▁在	-6.37692
时	-6.397
不	-6.4186
问题	-6.46574
就	-6.47389
而	-6.48672
并	-6.50436
上	-6.50552
会	-6.55473
一	-6.55664
已	-6.56091
他	-6.58354
于	-6.59604
后	-6.62802
我	-6.63616
说	-6.64052
进行	-6.64129
地	-6.66845
被	-6.69985
向	-6.70577
没有	-6.71433
其	-6.72302
到	-6.73964
他们	-6.75619
国家	-6.77414
工作	-6.78163
这些	-6.78725
:	-6.83138
有关	-6.83505
香港	-6.83879
提供	-6.84112
所	-6.84419
要	-6.88506
大	-6.89431
发展	-6.89871
但	-6.90492
由	-6.92148
都	-6.93187
从	-6.9324
方面	-6.95692
▁我们	-6.95768
联合国	-6.96245
来	-6.9669
应	-6.97072
包括	-6.97247
可	-6.99194
已经	-7.02104
还	-7.04222
。"	-7.04858
需要	-7.05176
委员会	-7.05376
这	-7.06125
以及	-7.07552
可以	-7.08376
必须	-7.09114
一个	-7.09887
▁因此	-7.10932
内	-7.12746
1	-7.14653
▁"	-7.15389
个	-7.1578
者	-7.16527
3	-7.16628
下	-7.16676
第	-7.17657
活动	-7.17927
名	-7.18201
新	-7.18594
至	-7.20282
服务	-7.2111
性	-7.2148
▁此外	-7.22194
继续	-7.22745
可能	-7.23145
该	-7.24065
使	-7.24207
表示	-7.24887
前	-7.25038
认为	-7.25605
计划	-7.25942
5	-7.26081
这个	-7.26085
经济	-7.27064
代表	-7.27136
三	-7.27218
要求	-7.27752
多	-7.27851
国际	-7.27968
10	-7.28989
所有	-7.29046
通过	-7.29242
更	-7.29465
等	-7.29712
支持	-7.31668
中国	-7.32172
6	-7.3465
二	-7.34727
一些	-7.35459
▁我	-7.36689
亦	-7.36783
把	-7.37434
:"	-7.37855
4	-7.37855
能	-7.38061
同	-7.40346
2	-7.41406
增加	-7.42709
执行	-7.4366
会议	-7.44073
建议	-7.44616
用	-7.44703
公司	-7.44884
社会	-7.45179
美国	-7.45366
国	-7.45615
使用	-7.47119
这种	-7.47613
提出	-7.47752
方案	-7.47764
7	-7.50193
则	-7.51455
最	-7.52149
它	-7.52453
▁这	-7.54409
行动	-7.54509
▁他	-7.54788
各	-7.55393
报告	-7.55666
合作	-7.55807
无	-7.55973
目前	-7.56297
过	-7.56409
妇女	-7.5651
关于	-7.56603
处理	-7.567
9	-7.56729
特别	-7.5697
地区	-7.57301
这一	-7.57473
▁这些	-7.58075
之	-7.58634
高	-7.58945
开始	-7.59266
机构	-7.59557
决定	-7.60496
组织	-7.60822
外	-7.61248
解决	-7.61587
;	-7.61854
任何	-7.62165
参与	-7.62275
希望	-7.62753
主席	-7.63124
里	-7.63284
8	-7.63621
其他	-7.63901
指出	-7.6426
给	-7.65126
作为	-7.65175
法	-7.65743
▁但是	-7.65814
情况	-7.66289
比	-7.6635
条	-7.66381
教毓	-7.66642
项目	-7.67047
12	-7.67542
主要	-7.68592
约	-7.68613
受到	-7.6865
▁然而	-7.69279
政策	-7.69347
成为	-7.6942
又	-7.69508
出	-7.69518
人员	-7.69609
水	-7.70151
因为	-7.70173
世界	-7.70488
得到	-7.70624
四	-7.71641
措施	-7.71733
自	-7.71907
的问题	-7.72274
家	-7.72323
万	-7.72407
能够	-7.72457
▁但	-7.72473
不能	-7.7248
作出	-7.72644
11	-7.72666
努力	-7.72816
▁由于	-7.731
法律	-7.734
分	-7.7348
管理	-7.73842
五	-7.74272
期间	-7.74866
市场	-7.75014
着	-7.7505
人民	-7.7505
正在	-7.75084
安全	-7.7537
应该	-7.75966
中心	-7.7625
本	-7.76329
影响	-7.76439
参加	-7.76704
讨论	-7.76938
政治	-7.7731
得	-7.77612
研究	-7.78263
加强	-7.78535
如	-7.78804
正	-7.79455
就是	-7.79673
根据	-7.80003
小	-7.80471
时间	-7.8058
现在	-7.80777
去	-7.80824
因	-7.8116
先生	-7.81224
获得	-7.81641
环境	-7.81778
之后	-7.83112
建立	-7.83462
点	-7.83578
进一步	-7.83633
起	-7.84201
天	-7.84247
举行	-7.84438
区	-7.84944
▁如果	-7.85387
再	-7.85653
改善	-7.85945
让	-7.86312
你	-7.86454
受	-7.86478
发生	-7.86628
儿童	-7.86677
却	-7.8707
长	-7.87074
作	-7.87121
规定	-7.87174
▁他们	-7.87319
接受	-7.87383
减少	-7.87798
自己	-7.87836
许多	-7.87933
的人	-7.88941
制度	-7.89693
调查	-7.89976
只	-7.91027
即	-7.9106
20	-7.91461
2000	-7.91647
由于	-7.92516
子	-7.92687
造成	-7.92765
她	-7.92963
非	-7.93111
)。	-7.93139
的工作	-7.93836
▁不过	-7.94819
技术	-7.95246
考虑	-7.95331
很	-7.95519
负责	-7.95614
成员	-7.95666
实施	-7.96271
完成	-7.96446
实现	-7.96491
资源	-7.96693
系统	-7.97308
大会	-7.97739
美元	-7.98091
头	-7.98446
-	-7.98547
代表团	-7.98782
处	-7.98857
其中	-7.99002
议员	-7.99017
道	-7.9915
协助	-7.99207
曾	-7.99215
投资	-8.00365
部门	-8.00717
好	-8.00832
仍然	-8.01037
促进	-8.01285
八	-8.0143
保护	-8.01893
利用	-8.02105
两	-8.02309
全球	-8.02577
未	-8.02634
而且	-8.02841
和平	-8.03439
出现	-8.0369
达	-8.039
部	-8.04057
六	-8.04086
安排	-8.04214
因此	-8.04531
强调	-8.04579
当局	-8.04644
特别是	-8.0466
非常	-8.05018
确保	-8.05471
▁该	-8.05554
秘书长	-8.05555
均	-8.05562
较	-8.05598
手	-8.06063
权	-8.06421
严重	-8.06534
无法	-8.06869
公约	-8.07148
之间	-8.07705
德	-8.07752
发现	-8.0799
台湾	-8.08218
心	-8.08293
市民	-8.08375
拉	-8.08614
资料	-8.08872
成	-8.09254
目标	-8.09414
▁根据	-8.10174
15	-8.10198
人士	-8.10207
部分	-8.10386
是否	-8.10528
程序	-8.10844
须	-8.10871
今日	-8.10969
七	-8.11022
新的	-8.11581
家庭	-8.11866
生	-8.12077
/	-8.12373
如果	-8.12396
涉及	-8.12634
事件	-8.12858
▁委员会	-8.12981
想	-8.13391
之一	-8.13816
经	-8.1384
不是	-8.13982
非洲	-8.14093
共	-8.14277
上述	-8.14794
便	-8.14824
一直	-8.14996
▁政府	-8.15198
采取	-8.15208
选举	-8.15339
区域	-8.15431
进入	-8.16021
人口	-8.16524
伊拉克	-8.16567
人权	-8.16594
30	-8.16633
发言	-8.16831
具有	-8.16975
民主	-8.17442
自由	-8.17547
冲突	-8.17796
▁目前	-8.18138
不同	-8.18278
都是	-8.18343
文	-8.18369
警察	-8.18371
做	-8.18693
企业	-8.18716
看	-8.18947
今天	-8.18971
才	-8.1909
仍	-8.19724
化	-8.20124
它们	-8.20141
能力	-8.20329
提高	-8.20367
对于	-8.20402
日本	-8.20509
间	-8.20518
领域	-8.20687
科	-8.20822
2001	-8.20874
令	-8.20947
以色列	-8.21452
也是	-8.21731
加	-8.21952
开	-8.22095
欢迎	-8.22127
当	-8.22134
个人	-8.22172
请	-8.22258
审查	-8.22474
行	-8.22881
同意	-8.22901
银行	-8.22999
金	-8.23047
改革	-8.23068
很多	-8.2312
斯	-8.23133
宣布	-8.23325
费用	-8.2348
岁	-8.23773
元	-8.24021
一项	-8.24065
以来	-8.24163
学校	-8.24192
积极	-8.24263
安理会	-8.24388
全面	-8.25088
确定	-8.25201
文化	-8.25279
十分	-8.25296
发	-8.25427
不会	-8.25604
完全	-8.2564
马	-8.26009
全	-8.26075
尔	-8.26083
海	-8.26361
次	-8.26394
特	-8.26478
关系	-8.26733
只有	-8.26751
率	-8.26893
来自	-8.26998
增长	-8.27312
选择	-8.27347
审议	-8.27753
贸易	-8.27867
生活	-8.2802
九	-8.28088
入	-8.28143
结果	-8.28194
方式	-8.28368
▁(	-8.28449
十	-8.2857
重	-8.28755
安全理事会	-8.28807
帮助	-8.28958
法院	-8.2906
取得	-8.29204
车	-8.29277
呢	-8.29527
打	-8.29701
数	-8.29918
号	-8.30044
局	-8.30082
占	-8.30246
的国家	-8.3028
山	-8.30353
共同	-8.30355
・	-8.30958
应当	-8.30974
恢复	-8.31045
费	-8.31049
工程	-8.3105
这是	-8.31199
明	-8.31306
超过	-8.31394
申请	-8.31471
此	-8.31821
最近	-8.31889
成功	-8.31987
总	-8.32288
将会	-8.3229
学	-8.32302
控制	-8.32394
之前	-8.32979
人们	-8.33396
国际社会	-8.33397
力	-8.33454
的情况	-8.33471
条件	-8.33752
不断	-8.33963
工业	-8.34227
美	-8.3457
经常	-8.34609
生产	-8.34612
量	-8.34615
援助	-8.34764
期	-8.3527
机	-8.35317
按	-8.35325
位	-8.35616
▁它	-8.35941
▁同时	-8.36162
一样	-8.36206
方	-8.36686
段	-8.36896
权利	-8.36968
设立	-8.37018
情湟	-8.37124
比较	-8.37224
承认	-8.37353
将于	-8.37445
总统	-8.37525
长期	-8.3753
大学	-8.37612
利	-8.37807
标准	-8.37888
事	-8.37969
项	-8.38408
一名	-8.38456
学生	-8.38544
导致	-8.3868
▁而	-8.38775
面	-8.38938
各种	-8.39045
限制	-8.39058
并不	-8.39132
部队	-8.3919
难民	-8.39425
亿美元	-8.395
1999	-8.3951
表明	-8.39523
收入	-8.39527
行为	-8.39561
说明	-8.39801
最后	-8.39955
来说	-8.39963
如何	-8.39965
2002	-8.40035
一般	-8.40063
出口	-8.40156
台	-8.4022
协定	-8.40437
每	-8.40466
呼吁	-8.4056
近	-8.40788
反对	-8.40813
文件	-8.40917
省	-8.41073
原则	-8.41259
路	-8.41483
▁关于	-8.41556
地方	-8.41629
提交	-8.41634
过去	-8.41868
米	-8.41899
并且	-8.4217
谈判	-8.42204
保证	-8.42431
小组	-8.42508
那	-8.42535
重新	-8.42594
18	-8.4267
直接	-8.43336
居民	-8.43472
同时	-8.43553
发展中国家	-8.43574
城市	-8.43927
成立	-8.4411
低	-8.44314
意见	-8.44325
秘书处	-8.44419
1998	-8.44554
老	-8.45164
协调	-8.45235
缔约国	-8.45368
西	-8.45504
保持	-8.45548
维持	-8.45685
甚至	-8.45928
国内	-8.46159
持续	-8.46181
机会	-8.46189
了解	-8.46247
结束	-8.46281
设施	-8.46511
责任	-8.46721
▁至于	-8.47004
基金	-8.47013
双方	-8.47287
困难	-8.47295
还是	-8.47321
访问	-8.47777
称	-8.47925
阶段	-8.4795
达到	-8.482
拥有	-8.48289
回	-8.48549
评估	-8.4859
的是	-8.48794
但是	-8.49008
重要	-8.49212
鼓励	-8.49223
再次	-8.49293
事务	-8.49322
关注	-8.49393
各国	-8.49425
款	-8.49699
承诺	-8.49733
那些	-8.4998
这项	-8.5014
见	-8.50158
准备	-8.5018
▁这是	-8.50314
知道	-8.50436
获	-8.50458
以便	-8.50507
女	-8.50558
14	-8.50683
警方	-8.50772
实际	-8.5078
局势	-8.51222
1997	-8.51223
风	-8.51422
战争	-8.51496
方法	-8.5164
看到	-8.51645
线	-8.51719
今年	-8.51761
这样	-8.51798
书	-8.51821
只是	-8.52295
巴	-8.52297
推动	-8.52483
克	-8.52518
稳定	-8.52589
转	-8.52621
▁联合国	-8.53025
19	-8.53062
万美元	-8.53126
大家	-8.53134
法庭	-8.53309
有效	-8.53665
扩大	-8.53742
办法	-8.53771
及其	-8.53955
▁最后	-8.54207
卡	-8.54228
▁他说	-8.54247
每年	-8.5432
工作组	-8.54348
机制	-8.54433
队	-8.55056
更加	-8.55165
充分	-8.55183
当地	-8.55215
公	-8.55322
缺乏	-8.55698
条例	-8.55711
公开	-8.55715
社区	-8.55761
大约	-8.5592
法官	-8.55941
估计	-8.56203
表	-8.56206
普遍	-8.56259
林	-8.56496
资金	-8.56704
武器	-8.57184
有些	-8.57188
给予	-8.57213
信息	-8.5726
13	-8.57289
两个	-8.5738
本身	-8.57471
市	-8.57491
一种	-8.57493
现时	-8.5758
.	-8.57776
作用	-8.57816
加入	-8.5782
分析	-8.579
业务	-8.57924
改变	-8.5806
人类	-8.58118
单位	-8.5823
战略	-8.58384
?	-8.5839
军事	-8.5843
如此	-8.58509
正式	-8.58951
的发展	-8.58978
运动	-8.59035
数据	-8.5906
欧洲	-8.59064
员	-8.59354
批准	-8.5989
军	-8.59985
▁虽然	-8.60014
▁现在	-8.60068
走	-8.60104
培训	-8.60127
支助	-8.60151
张	-8.60247
似乎	-8.60278
公布	-8.60281
土地	-8.60334
50	-8.60588
的主要	-8.6062
专家	-8.60632
商	-8.60748
一年	-8.60752
修订	-8.60803
本港	-8.60807
预算	-8.60992
组	-8.60994
上升	-8.61006
光	-8.61016
度	-8.6102
人数	-8.61051
相	-8.61365
还有	-8.61471
一次	-8.61597
协议	-8.61621
注意	-8.61754
显示	-8.61798
支付	-8.61805
任务	-8.61954
和其他	-8.62074
工作人员	-8.62087
业	-8.62096
展开	-8.6216
团体	-8.62331
办事处	-8.62468
存在	-8.62785
反	-8.62856
的影响	-8.62964
▁另外	-8.63168
保障	-8.63185
整个	-8.63218
场	-8.63231
内容	-8.63317
▁例如	-8.63435
首	-8.63546
花	-8.63602
独立	-8.64099
先	-8.64123
实行	-8.64159
华	-8.64296
进行了	-8.64418
立法	-8.6447
▁从	-8.64555
▁主席	-8.6479
17	-8.64892
因素	-8.64945
亿	-8.6524
非法	-8.65521
16	-8.65734
是一个	-8.65758
用于	-8.65762
中的	-8.65775
安	-8.65785
虽然	-8.66006
下降	-8.66042
例如	-8.66048
南	-8.66296
打击	-8.66363
我国	-8.66456
条约	-8.66499
基本	-8.66611
行政	-8.66887
训练	-8.66983
水平	-8.67046
前往	-8.67321
禁止	-8.67359
所以	-8.67534
某些	-8.67804
东	-8.67824
产生	-8.68174
▁香港	-8.6838
破坏	-8.6848
罗	-8.68508
制	-8.68652
精神	-8.68989
产品	-8.69043
我们的	-8.69067
之间的	-8.69218
宗	-8.69346
会员国	-8.69572
健康	-8.69663
工人	-8.69704
▁为了	-8.69758
案件	-8.69769
节	-8.69993
医院	-8.70022
未来	-8.70199
问	-8.70273
具体	-8.7037
电	-8.70401
以后	-8.70484
核	-8.70654
种	-8.70973
们	-8.7099
全国	-8.71094
通知	-8.71095
▁她	-8.71405
口	-8.71496
商业	-8.71553
律师	-8.71591
门	-8.71647
死亡	-8.71742
同样	-8.71828
价值	-8.71964
解释	-8.71984
亿元	-8.71984
宪法	-8.72415
信	-8.72444
以上	-8.72621
21	-8.72648
担任	-8.72654
公民	-8.72741
重申	-8.72745
尤其是	-8.72782
连	-8.73052
尊重	-8.73339
体	-8.73376
制定	-8.73418
份	-8.73439
▁所以	-8.73508
公务员	-8.73553
属于	-8.73559
历史	-8.73628
危机	-8.73826
符合	-8.73958
收	-8.74296
有关的	-8.74341
官员	-8.74462
大量	-8.74467
站	-8.74477
提到	-8.74494
推行	-8.74533
平	-8.74835
病	-8.74979
英国	-8.75032
并没有	-8.75037
的一个	-8.75122
自己的	-8.75241
需求	-8.75319
带来	-8.75366
调整	-8.75447
极	-8.75533
经验	-8.75671
现	-8.75674
恐怖主义	-8.75922
设备	-8.75963
1996	-8.76074
按照	-8.76221
自然	-8.76305
进程	-8.76326
迅速	-8.76383
平均	-8.76513
半	-8.76589
立即	-8.76702
阿富汗	-8.76795
的建议	-8.7683
制订	-8.76896
▁这种	-8.76939
爱	-8.76963
当时	-8.76964
▁尽管	-8.76965
而言	-8.77005
团	-8.7705
民	-8.7718
价格	-8.77428
气	-8.77606
挑战	-8.77606
暴力	-8.77782
的时候	-8.7782
才能	-8.77968
就业	-8.77992
开展	-8.78005
司法	-8.7821
派	-8.78329
加以	-8.78332
威胁	-8.78364
▁当然	-8.78389
范围	-8.78503
广泛	-8.7855
25	-8.78582
公众	-8.78678
运输	-8.78695
登记	-8.78863
证明	-8.78907
钱	-8.78922
公共	-8.78981
将在	-8.79021
周	-8.79033
共和国	-8.79053
战	-8.79142
为了	-8.79216
出席	-8.79299
开放	-8.79539
定	-8.79597
印度	-8.79675
▁事实上	-8.79834
议会	-8.79924
相当	-8.7995
界	-8.80421
相信	-8.80585
宗教	-8.80662
内地	-8.80865
东帝汶	-8.80868
流	-8.80914
本地	-8.80946
▁*	-8.81196
规则	-8.81304
个月	-8.81483
的话	-8.8153
最终	-8.81531
联	-8.8166
大部分	-8.81671
返回	-8.81702
全部	-8.81712
原	-8.81926
交	-8.81949
报	-8.82107
集团	-8.82308
非政府组织	-8.82344
声	-8.82372
港	-8.82425
网络	-8.8264
24	-8.82658
从事	-8.8279
不应	-8.82807
司	-8.83099
一起	-8.83195
他们的	-8.83461
预计	-8.83494
街	-8.83788
供	-8.83822
感到	-8.83836
投票	-8.83984
通	-8.83989
交通	-8.84055
的权利	-8.8411
犯罪	-8.8412
方面的	-8.84253
课程	-8.84259
监测	-8.8445
任	-8.84457
当然	-8.8452
针对	-8.84573
联合	-8.84616
带	-8.84713
白	-8.84936
阿	-8.85031
损失	-8.85031
▁对于	-8.85054
需	-8.85125
预防	-8.85137
1995	-8.85143
的意见	-8.85268
预期	-8.85344
管制	-8.85397
地位	-8.85635
亚洲	-8.85646
感谢	-8.8578
尚未	-8.85784
听	-8.85878
未能	-8.85879
亚	-8.85989
案	-8.8604
教	-8.86511
原因	-8.8653
强	-8.86565
他的	-8.86604
农业	-8.86639
的报告	-8.86696
引起	-8.86773
▁在这方面	-8.86949
数字	-8.8704
讲	-8.87212
共有	-8.87287
▁美国	-8.87543
医疗	-8.87684
享有	-8.88078
难	-8.88103
清	-8.88191
重大	-8.88298
啊	-8.88425
新闻	-8.88439
分别	-8.88502
):	-8.88599
提供了	-8.88624
竞争	-8.8867
透过	-8.88884
1994	-8.89072
令人	-8.89096
面对	-8.89214
▁中国	-8.89255
愿意	-8.89273
有人	-8.89384
深	-8.89467
进	-8.89501
设计	-8.89567
国际法	-8.89577
车辆	-8.89583
青年	-8.8969
注意到	-8.8975
情	-8.89772
40	-8.8982
油	-8.89876
▁其中	-8.89884
并非	-8.89937
论坛	-8.89954
状况	-8.90003
理事会	-8.90105
▁对	-8.90141
罪行	-8.90188
▁今天	-8.90202
科技	-8.90323
咨询	-8.90438
领导人	-8.90497
火	-8.90506
联系	-8.90529
动	-8.9069
进展	-8.90715
电子	-8.90837
○○	-8.90912
临时	-8.91042
经过	-8.91096
少	-8.91203
办公室	-8.91276
内部	-8.91276
防止	-8.91409
检讨	-8.91451
明确	-8.91478
不足	-8.91513
意	-8.91878
主	-8.91943
协会	-8.92075
举行的	-8.9221
遵守	-8.92613
资助	-8.92631
一切	-8.92665
伊	-8.92807
这样做	-8.92816
交易	-8.92893
供应	-8.92997
贷款	-8.93051
的活动	-8.93096
落	-8.93116
取	-8.93169
▁警方	-8.93278
放	-8.9339
身	-8.93391
监督	-8.93675
人道主义	-8.9368
这类	-8.93728
特派团	-8.93756
万元	-8.93829
计算	-8.93837
关	-8.93965
大多数	-8.93994
陈	-8.94014
的作用	-8.94032
宣传	-8.94054
草案	-8.94122
零	-8.94207
金融	-8.94227
对话	-8.9429
什么	-8.94291
提出的	-8.94353
尼	-8.94459
党	-8.94462
空	-8.94487
传统	-8.94552
收到	-8.94595
保留	-8.94616
这次	-8.94641
死	-8.94757
贫穷	-8.94777
图	-8.94799
往往	-8.95082
介绍	-8.95111
部署	-8.95181
建设	-8.95192
--	-8.95199
第一	-8.95205
离开	-8.95208
专业	-8.95232
大陆	-8.95417
加拿大	-8.95438
检查	-8.9551
进口	-8.95533
首次	-8.9559
采用	-8.95596
若干	-8.956
布	-8.95619
事实	-8.95712
协商	-8.95712
像	-8.95845
王	-8.96048
过程	-8.96067
物	-8.96165
拒绝	-8.96225
遭到	-8.9627
巴勒斯坦	-8.9629
医生	-8.96553
香港的	-8.96667
楼	-8.96697
违反	-8.96723
选	-8.96734
画	-8.96829
消除	-8.9689
言	-8.96911
孩子	-8.96951
一点	-8.97214
日益	-8.97273
评价	-8.97454
语	-8.97483
平民	-8.97618
运作	-8.97785
难以	-8.97797
怀疑	-8.97841
视	-8.97976
太	-8.98185
疾病	-8.98365
有助于	-8.98438
合同	-8.98464
变化	-8.98569
开发	-8.98576
网	-8.98596
飞机	-8.98605
外国	-8.98729
受害者	-8.98762
尽管	-8.98794
额	-8.99037
发出	-8.99307
更多	-8.99379
也有	-8.99463
几乎	-8.99529
是在	-8.99579
远	-8.99615
除	-8.9962
▁据	-8.99623
往	-8.99709
工	-8.99837
空间	-8.99865
单	-8.99898
石	-8.99905
年的	-8.99968
争取	-9.00218
纳	-9.00265
法国	-9.00383
签署	-9.00386
在香港	-9.0043
该国	-9.00473
旅游	-9.00503
结构	-9.00573
停止	-9.0068
明显	-9.00706
数目	-9.00721
反映	-9.00764
跟	-9.00772
卫生	-9.0088
几	-9.00886
年代	-9.00888
▁自	-9.01009
不少	-9.01056
贫困	-9.01065
适当	-9.01184
通常	-9.01222
邀请	-9.01278
属	-9.01284
基本法	-9.01353
危险	-9.01537
其实	-9.01589
科索沃	-9.0163
民族	-9.01649
运	-9.01667
感	-9.01792
李	-9.0182
实	-9.01865
没	-9.0188
地点	-9.01905
31	-9.02065
指	-9.02065
改进	-9.02108
显然	-9.02222
领土	-9.02233
仅	-9.02265
男子	-9.02408
辟免	-9.02607
的经济	-9.02675
不得	-9.02817
票	-9.02966
的资料	-9.03004
私人	-9.03108
常	-9.03183
法例	-9.03231
船	-9.03278
古	-9.03314
产	-9.03512
班	-9.03533
开支	-9.03557
28	-9.03567
合	-9.03579
详细	-9.03619
北	-9.03726
城	-9.03757
成本	-9.03771
保健	-9.03911
只能	-9.03929
领导	-9.03961
统计	-9.04036
的努力	-9.04175
谈	-9.04302
建筑	-9.044
类	-9.04488
满足	-9.04509
住房	-9.04519
中央	-9.04597
的结果	-9.04672
▁我们认为	-9.04796
管	-9.04867
现象	-9.05086
建	-9.05351
学习	-9.05413
记录	-9.05456
制裁	-9.05512
岛	-9.05546
22	-9.05587
顾问	-9.05685
第二	-9.05726
改	-9.05772
亦会	-9.05819
23	-9.05852
具	-9.05951
女性	-9.06002
媒体	-9.06004
程度	-9.06176
治疗	-9.06192
现有	-9.06283
表现	-9.06404
何	-9.06521
利益	-9.0653
器	-9.06643
格	-9.06703
话	-9.06763
100	-9.06844
已有	-9.06946
发表	-9.06947
尽快	-9.0697
重建	-9.06981
去年	-9.07009
觉得	-9.07067
品	-9.07205
当中	-9.0722
不要	-9.07319
吃	-9.07365
之外	-9.07497
那么	-9.07514
起来	-9.07537
电话	-9.07569
成员国	-9.07868
河	-9.07879
副	-9.0789
位于	-9.07932
形式	-9.08174
定期	-9.08285
北京	-9.08303
代	-9.08401
总部	-9.08401
青少年	-9.0847
全球化	-9.08501
经费	-9.08512
式	-9.08546
的新	-9.08598
60	-9.08641
寻求	-9.08729
教师	-9.08748
确认	-9.08777
目的	-9.08933
的重要	-9.08958
万人	-9.09157
辩论	-9.09179
人的	-9.09308
有权	-9.09345
俄罗斯	-9.09464
以前	-9.09498
经营	-9.09629
至少	-9.09688
落实	-9.09803
的方式	-9.09838
创造	-9.09843
的能力	-9.09899
资产	-9.09905
平等	-9.09916
调	-9.09999
理	-9.1005
住	-9.10223
构成	-9.1029
举办	-9.10355
艾滋病	-9.10391
首先	-9.10454
越	-9.1057
今后	-9.10629
道路	-9.10693
一致	-9.10695
制造	-9.10704
写	-9.1088
时期	-9.10925
的目标	-9.10979
规划	-9.11064
组成	-9.11117
的时间	-9.11183
真正	-9.11395
▁当	-9.11405
紧急	-9.11451
上的	-9.11519
记者	-9.1152
第一次	-9.1154
相互	-9.11654
权力	-9.11674
▁今年	-9.11739
和平进程	-9.11853
肯定	-9.11872
审判	-9.12058
干	-9.12079
的重要性	-9.12131
税	-9.12184
理由	-9.12341
增加了	-9.12585
攻击	-9.12602
鱼	-9.12714
分配	-9.12841
机场	-9.12961
快	-9.13086
外交	-9.13216
重视	-9.13312
罪	-9.1336
驻	-9.13426
承担	-9.1347
汽车	-9.13536
予以	-9.1359
履行	-9.13641
基	-9.13661
除了	-9.13672
联盟	-9.137
提	-9.13705
十二	-9.13897
州	-9.13936
早	-9.1401
26	-9.14077
萨	-9.14098
发生的	-9.14106
基础	-9.14158
的所有	-9.14162
电视	-9.14388
乐	-9.1443
证	-9.14471
伊朗	-9.14506
不仅	-9.14591
总理	-9.14644
装	-9.14645
提及	-9.14665
下跌	-9.14718
列入	-9.14755
遭受	-9.14819
卢旺达	-9.14861
字	-9.14868
接触	-9.15028
▁这一	-9.15113
▁这个	-9.15131
条例草案	-9.15216
理解	-9.15342
报道	-9.15367
手段	-9.1538
股	-9.15543
地雷	-9.15818
行业	-9.15841
任命	-9.16073
1990	-9.16098
袭击	-9.16204
将继续	-9.16281
部长	-9.16295
而不是	-9.16304
眼	-9.16421
红	-9.16601
然后	-9.16613
立	-9.16671
能源	-9.16751
成果	-9.16812
索赔	-9.16893
这个问题	-9.16974
值	-9.16998
变	-9.1703
层	-9.1706
财政	-9.1745
注册	-9.17467
委员	-9.17532
▁除了	-9.17584
其它	-9.17619
哈	-9.17631
数量	-9.17733
越来越	-9.17768
奖	-9.17771
我想	-9.1781
局长	-9.17828
决议	-9.17865
边	-9.17887
象	-9.17949
电脑	-9.17992
你们	-9.17998
赔偿	-9.18092
不到	-9.18174
的做法	-9.18206
院	-9.18277
推广	-9.18328
修改	-9.18334
最大的	-9.18388
都有	-9.185
至今	-9.18586
优先	-9.18686
件	-9.18748
个国家	-9.18767
每个	-9.1889
▁第二	-9.18911
统一	-9.19223
接	-9.19245
级	-9.1925
特别报告员	-9.19522
片	-9.19546
逐渐	-9.19563
致力于	-9.19609
买	-9.19611
房	-9.1967
男女	-9.19757
提议	-9.19919
将来	-9.20031
小时	-9.20132
村	-9.20326
专	-9.2033
生效	-9.20331
▁如	-9.2038
财产	-9.20419
▁秘书长	-9.20593
塞拉利昂	-9.20654
允许	-9.20742
曾经	-9.20762
体制	-9.2081
各项	-9.20854
各方	-9.2086
的机会	-9.20923
发挥	-9.2094
意义	-9.20968
职	-9.21006
现场	-9.21041
处于	-9.21045
▁有关	-9.2112
受伤	-9.21123
有必要	-9.21129
29	-9.21134
的原则	-9.21141
若	-9.21327
200	-9.21352
中东	-9.21374
兰	-9.21513
▁其实	-9.21637
▁特别报告员	-9.21772
购买	-9.21843
到了	-9.21861
防	-9.21873
最高	-9.21894
取消	-9.21916
价	-9.21977
章	-9.21986
第三	-9.2203
毒品	-9.22049
托	-9.2212
真	-9.22245
有可能	-9.22353
校	-9.22385
交流	-9.22432
▁我认为	-9.22506
的责任	-9.22599
官	-9.22665
大使	-9.22689
色	-9.22817
送	-9.22869
▁主席先生	-9.22915
应用	-9.22943
附近	-9.22972
收费	-9.23289
左右	-9.23319
伤	-9.23485
千	-9.23528
日至	-9.2356
予	-9.23562
很难	-9.23627
传播	-9.23629
确实	-9.23718
一份	-9.23744
▁首先	-9.23783
减	-9.23853
爆炸	-9.23912
的情湟	-9.23919
黄	-9.23937
坚持	-9.2395
移民	-9.24023
现实	-9.24035
证实	-9.24112
三个	-9.24139
可能会	-9.24324
担心	-9.24344
结	-9.24557
看来	-9.24573
维护	-9.24609
巴基斯坦	-9.24657
指标	-9.24688
劳工	-9.24705
意外	-9.24732
国家的	-9.24804
法治	-9.24841
查	-9.24907
27	-9.2495
署	-9.24968
个案	-9.24982
父母	-9.25029
的一些	-9.25154
的原因	-9.25202
差	-9.25226
的政策	-9.25257
球	-9.2529
值得	-9.25371
保	-9.25517
或者	-9.25521
提出了	-9.25534
▁另一方面	-9.25589
英	-9.25665
厂	-9.2567
照顾	-9.25858
清楚	-9.25943
边界	-9.25965
土	-9.2604
龙	-9.26067
留	-9.26097
三年	-9.26131
▁鉴于	-9.26134
高级	-9.26177
下午	-9.26415
▁同样	-9.26418
适当的	-9.26423
编制	-9.26437
公平	-9.26521
艺术	-9.26542
朋友	-9.26612
专门	-9.26634
义务	-9.26665
做法	-9.2671
语言	-9.26743
另外	-9.26743
座	-9.26858
境内	-9.26885
恶化	-9.26916
联邦	-9.26935
致力	-9.26945
五十	-9.26951
男	-9.26959
神	-9.26989
办	-9.26999
预测	-9.27041
个别	-9.27055
尤其	-9.27186
科威特	-9.27234
尽	-9.27265
联络	-9.27365
用户	-9.27439
倒	-9.27588
科学	-9.27599
在这方面	-9.27666
监狱	-9.2767
的支持	-9.27692
夫	-9.27712
失	-9.27824
短	-9.27825
年龄	-9.27936
污染	-9.27993
僱主	-9.27998
雷	-9.28021
旨在	-9.28039
有限	-9.28074
儿	-9.28134
侵犯	-9.28181
的任务	-9.28297
传	-9.28471
良好	-9.28508
也不	-9.28516
指导	-9.28605
卫星	-9.28624
每天	-9.28819
世	-9.28831
的规定	-9.28848
海关	-9.28994
对此	-9.29005
二十	-9.29033
员工	-9.29101
房屋	-9.29164
朝	-9.29183
面临	-9.29254
十一	-9.2929
货物	-9.29465
行政长官	-9.29466
▁这样	-9.29477
不可能	-9.295
方便	-9.29584
军队	-9.29655
岐视	-9.29768
主席先生	-9.29796
有所	-9.30066
决心	-9.30094
这一点	-9.30132
福	-9.30144
晚	-9.30296
关切	-9.30347
▁第	-9.30612
採取	-9.3074
力量	-9.30752
压力	-9.30753
概念	-9.30897
核武器	-9.31032
这样的	-9.31127
▁2001	-9.31132
波	-9.31143
整体	-9.31154
居	-9.31158
投入	-9.31172
进行的	-9.31228
三十	-9.3126
子女	-9.31288
求	-9.31328
解	-9.31333
分钟	-9.31355
热	-9.31523
行使	-9.31544
多数	-9.31553
不同的	-9.31642
一位	-9.31713
会谈	-9.31816
展	-9.31889
声明	-9.32073
损害	-9.32368
室	-9.32437
1993	-9.32455
主任	-9.32482
瓦	-9.32489
候选人	-9.32526
批评	-9.3256
因而	-9.32698
并无	-9.32839
请求	-9.32841
月底	-9.32875
期望	-9.32891
▁因为	-9.33012
节目	-9.33041
食物	-9.33109
那个	-9.33112
沙	-9.33118
出版	-9.33256
算	-9.33301
一定	-9.33407
声称	-9.33576
民众	-9.33578
全世界	-9.33581
框架	-9.33583
其后	-9.33652
回答	-9.3366
显着	-9.33817
普	-9.33856
黑	-9.33866
比赛	-9.33901
倡议	-9.3391
世纪	-9.33988
过程中	-9.34007
条款	-9.34086
海外	-9.34092
僱员	-9.34197
70	-9.34198
谁	-9.34227
都会	-9.34266
拨款	-9.34278
地区的	-9.3428
号决议	-9.3428
准则	-9.34358
然	-9.34375
粮食	-9.34375
从而	-9.34414
泰国	-9.34437
客	-9.34475
考虑到	-9.34629
务	-9.34725
容易	-9.34764
▁本	-9.34812
富	-9.34839
香港人	-9.34921
▁最近	-9.3495
没有任何	-9.34991
库	-9.35004
苏丹	-9.35007
风险	-9.35025
七月	-9.35115
年度	-9.35136
货币	-9.35215
应付	-9.35242
逐步	-9.35277
债务	-9.35326
石油	-9.35328
月份	-9.35444
实际上	-9.35485
绝对	-9.35493
正常	-9.35536
拟订	-9.35602
计	-9.35653
世界上	-9.3569
复杂	-9.3575
女子	-9.35787
失业	-9.3587
商品	-9.35876
主要是	-9.35885
综合	-9.35924
的安全	-9.35984
重点	-9.36073
资本	-9.36233
户	-9.36238
相关	-9.36245
工具	-9.36281
推出	-9.36329
维	-9.36479
也没有	-9.36563
问题的	-9.36664
出来	-9.36679
通讯	-9.36735
监察	-9.36913
性的	-9.36944
1992	-9.36988
也会	-9.36993
情报	-9.37196
的地方	-9.372
观察	-9.37247
两名	-9.37281
举行了	-9.37354
墨西哥	-9.3736
师	-9.37421
木	-9.37454
铁路	-9.37585
礼	-9.376
深入	-9.37885
▁截至	-9.37959
飞	-9.37963
底	-9.3802
澳大利亚	-9.38055
轮	-9.38062
类似	-9.38063
占领	-9.38073
的行为	-9.38116
根本	-9.38284
上海	-9.38287
编	-9.38468
以下	-9.38507
草	-9.38531
系	-9.38573
观察员	-9.38619
养	-9.38636
微	-9.38657
福利	-9.38762
▁随着	-9.38788
古巴	-9.38874
材料	-9.38969
接近	-9.39065
现正	-9.39258
销售	-9.39293
降低	-9.39308
决议草案	-9.39389
纽约	-9.39452
载	-9.39454
的代表	-9.39479
谴责	-9.39529
职业	-9.39719
效率	-9.39743
用途	-9.39768
的法律	-9.39874
事情	-9.39933
反应	-9.40002
进步	-9.40011
存	-9.4002
百	-9.40048
收集	-9.40059
星期五	-9.40076
证据	-9.40179
不可	-9.40187
欧洲联盟	-9.40194
德国	-9.40226
高度	-9.40319
配合	-9.4034
补充	-9.40377
提醒	-9.40409
趋势	-9.40413
树	-9.40419
赞成	-9.40489
▁为	-9.40571
两年	-9.40682
的社会	-9.407
形成	-9.40726
叫	-9.40845
多个	-9.40885
不过	-9.40962
▁现时	-9.41075
找到	-9.41088
▁所有	-9.4118
家长	-9.41276
消费	-9.4131
事项	-9.41315
支出	-9.41494
届会议	-9.415
老人	-9.415
关心	-9.41509
教授	-9.41585
仍然是	-9.41722
生命	-9.41722
升	-9.41815
知识	-9.41869
伙伴	-9.41887
愿	-9.41888
姆	-9.41905
布隆迪	-9.41906
监管	-9.4191
既	-9.41915
士	-9.41922
发生了	-9.4197
认识到	-9.42054
被捕	-9.42067
我认为	-9.42106
修	-9.4217
错	-9.42259
达成	-9.42262
莫	-9.42267
感染	-9.4227
套	-9.4228
她们	-9.42285
满	-9.42293
投	-9.42307
我觉得	-9.4236
宣言	-9.42459
即使	-9.42481
几个	-9.42482
刑事	-9.4251
物质	-9.42518
▁第一	-9.42612
塔	-9.42668
排	-9.42774
犯	-9.42829
游	-9.42841
的人士	-9.42848
立法会	-9.4288
待	-9.4303
授权	-9.43032
国民	-9.43036
奥	-9.43314
两国	-9.43392
更为	-9.43396
▁1999	-9.43402
2003	-9.43471
特殊	-9.43554
三月	-9.43657
编写	-9.43756
来源	-9.43922
决策	-9.44177
小学	-9.44294
的方法	-9.44314
血	-9.44353
纳入	-9.44371
星	-9.44423
津贴	-9.44442
适用	-9.44532
居住	-9.44641
实在	-9.4475
索马里	-9.4482
遭	-9.44834
采购	-9.44852
事故	-9.44863
日在	-9.44927
▁我们希望	-9.4494
司机	-9.44974
的政治	-9.44995
方向	-9.45031
在其	-9.45036
的决定	-9.4507
随着	-9.45078
日期	-9.45081
模式	-9.45158
▁许多	-9.45166
学院	-9.45234
武装	-9.45292
别	-9.45434
种族	-9.45489
0	-9.45522
年来	-9.4554
尚	-9.45542
主持	-9.45665
被告	-9.45714
亲	-9.45825
巩固	-9.45869
厅	-9.45883
吨	-9.46054
不得不	-9.46073
领	-9.46216
药	-9.46284
的基础	-9.46286
适用于	-9.46326
县	-9.46376
的合作	-9.46378
尽量	-9.46392
病人	-9.46402
食	-9.46523
工资	-9.46535
资格	-9.4655
▁它们	-9.46554
营	-9.46642
性别	-9.46664
乘客	-9.46762
的要求	-9.46798
天气	-9.46855
牌	-9.46877
巴西	-9.46877
增	-9.4691
300	-9.47088
五年	-9.47123
利比里亚	-9.47141
职员	-9.47249
名单	-9.47308
贡献	-9.4736
云	-9.47456
我们必须	-9.47482
新加坡	-9.47489
只要	-9.47496
赞扬	-9.47527
干预	-9.47533
加上	-9.47617
很大	-9.47717
非洲国家	-9.47733
社	-9.47786
有时	-9.47804
苏	-9.4788
年以来	-9.47891
货	-9.47941
▁而且	-9.4796
]	-9.48081
十月	-9.48093
即将	-9.48095
在此	-9.48119
重要的	-9.48182
500	-9.48216
旧	-9.48223
九月	-9.48237
查询	-9.48278
迪	-9.48285
胡	-9.48295
及时	-9.48334
政	-9.48417
词	-9.48501
中学	-9.48526
直	-9.48566
兵	-9.48657
夜	-9.48659
极为	-9.48673
现代	-9.48674
足	-9.48678
赛	-9.48759
▁第三	-9.48801
议程	-9.48805
乡	-9.48844
裁军	-9.48848
武装冲突	-9.48906
现已	-9.49026
范围内	-9.49035
板	-9.49054
采取行动	-9.49098
设	-9.49106
特定	-9.4914
▁去年	-9.49215
士兵	-9.49425
互联网	-9.49468
假	-9.49546
的基本	-9.49557
▁有	-9.4958
展览	-9.4992
态度	-9.49947
▁必须	-9.49958
广	-9.49973
工作的	-9.50027
试验	-9.50165
盖	-9.50256
刚果民主共和国	-9.50319
之中	-9.50354
电影	-9.50382
相比	-9.5045
密切	-9.50555
屋	-9.50572
鼓劢	-9.50585
届	-9.50599
列	-9.50621
──	-9.50658
农	-9.50671
呃	-9.50674
职位	-9.50733
人才	-9.50745
而是	-9.50782
一下	-9.50872
澄清	-9.51056
群体	-9.51056
流动	-9.51151
八月	-9.51155
障碍	-9.51243
常常	-9.51261
就会	-9.51336
纪念	-9.51347
总额	-9.51375
奇	-9.51467
并未	-9.51527
食品	-9.51529
族	-9.5156
包	-9.51592
事业	-9.51595
的行动	-9.5165
有机会	-9.51697
南非	-9.51703
年底	-9.51742
拘留	-9.51762
明白	-9.51814
集体	-9.51869
是由	-9.51918
▁1998	-9.51923
负担	-9.51982
35	-9.51995
的关系	-9.51995
的立场	-9.52164
各个	-9.52169
二百	-9.52186
老师	-9.5223
迨捕	-9.52236
义	-9.52255
检察官	-9.52277
政权	-9.52303
的费用	-9.52318
延长	-9.52456
照	-9.52563
制作	-9.52591
田	-9.52632
勒	-9.52658
紧张	-9.5266
保险	-9.52677
知	-9.52759
的国际	-9.52783
失去	-9.52843
晚上	-9.52859
星期一	-9.52914
这么	-9.53013
选民	-9.53081
强烈	-9.53119
复	-9.53138
1991	-9.53144
余	-9.53148
参加了	-9.53169
十三	-9.53211
规模	-9.53239
的经验	-9.53312
其中包括	-9.53341
审计	-9.53388
数额	-9.5345
很少	-9.53462
活	-9.53509
母亲	-9.53527
根	-9.5376
便是	-9.53779
索	-9.53804
停	-9.53872
性质	-9.53877
回应	-9.53904
样	-9.53921
初	-9.53939
所谓	-9.54049
财务	-9.54187
不再	-9.54211
指控	-9.54228
打算	-9.54265
3.	-9.54397
自愿	-9.54402
发言人	-9.54455
设有	-9.54515
必要	-9.54579
各位	-9.54685
立场	-9.5469
广播	-9.54702
主管	-9.54705
测试	-9.54717
下来	-9.54741
▁一些	-9.54743
是为了	-9.54761
新西兰	-9.54815
刚才	-9.54825
关键	-9.54847
十五	-9.54889
5.	-9.54895
公正	-9.54917
生物	-9.54951
药物	-9.55106
菲律宾	-9.55129
採用	-9.55135
▁人们	-9.55183
五月	-9.55244
作了	-9.55308
六月	-9.55443
依然	-9.5546
租	-9.55477
靠	-9.55482
告	-9.55499
初步	-9.55509
灯	-9.55519
楼宇	-9.55533
恩	-9.55537
吧	-9.5554
▁安理会	-9.55587
击	-9.55639
一条	-9.55675
引	-9.55681
跟进	-9.5575
大大	-9.55771
型	-9.55913
的需求	-9.55933
▁我希望	-9.55946
官方	-9.55976
来看	-9.56013
后来	-9.56019
多次	-9.56114
换	-9.56134
吸引	-9.56151
拘捕	-9.56285
死刑	-9.5632
4.	-9.56368
现金	-9.56368
在于	-9.56552
源	-9.56608
还要	-9.56629
基于	-9.56665
不知道	-9.56717
旅客	-9.56811
现行	-9.56932
并不是	-9.56949
公里	-9.57011
的利益	-9.57031
埃及	-9.57152
的任何	-9.57222
兴建	-9.57238
持	-9.57239
开发计划署	-9.57309
全体	-9.57338
指定	-9.57377
还没有	-9.57388
双	-9.57529
90	-9.5753
随后	-9.57541
是因为	-9.57612
塞	-9.57615
企图	-9.57659
邻国	-9.57682
明年	-9.57729
最大	-9.57732
▁据说	-9.57789
也许	-9.57789
志	-9.57813
设法	-9.57932
稍后	-9.57941
的成员	-9.57943
轻	-9.57983
黎巴嫩	-9.58018
双边	-9.58032
有一个	-9.58177
盛	-9.58289
80	-9.58323
表决	-9.58333
政府的	-9.58432
离	-9.58458
掌握	-9.5847
吉	-9.58471
步	-9.58474
时代	-9.58627
研讨会	-9.58732
短期	-9.58778
圣	-9.58783
订	-9.58869
繁荣	-9.58914
哥伦比亚	-9.58924
试图	-9.58955
韩国	-9.58983
判决	-9.59011
印	-9.59076
约为	-9.59163
比例	-9.59341
暂停	-9.59368
首都	-9.59416
迂到	-9.59429
得以	-9.59552
土耳其	-9.59602
活动的	-9.59724
身体	-9.59958
正是	-9.59979
相同	-9.60007
读	-9.60039
的情况下	-9.60086
合理	-9.60117
评论	-9.60123
简单	-9.60132
该地区	-9.60161
▁那么	-9.60215
诺	-9.60228
机关	-9.6023
博	-9.60238
脚	-9.60244
台北	-9.60246
彻底	-9.60248
研究所	-9.60251
工会	-9.60259
▁其他	-9.60262
▁过去	-9.60266
暂时	-9.60305
经济发展	-9.6036
无论	-9.60406
答复	-9.6045
平衡	-9.60454
造成的	-9.60501
荷兰	-9.6051
巨大	-9.60635
曼	-9.6066
50%	-9.60695
的需要	-9.60698
提交人	-9.60719
始终	-9.60752
付	-9.60756
退	-9.60758
条文	-9.60809
2.	-9.60989
断	-9.6103
一向	-9.6112
案文	-9.61133
森林	-9.61141
▁2000	-9.61143
动议	-9.61344
一家	-9.61362
投诉	-9.61433
警	-9.61523
▁会议	-9.61541
真的	-9.61565
本组织	-9.61567
观众	-9.61573
劳动	-9.61612
会议上	-9.61727
望	-9.61804
欧盟	-9.61864
甚	-9.61898
安哥拉	-9.619
▁作为	-9.61916
▁我们还	-9.61962
仪式	-9.62014
私营部门	-9.62015
更多的	-9.62024
顺利	-9.62071
○	-9.62096
区内	-9.62127
同事	-9.62229
关闭	-9.62232
服	-9.6229
享受	-9.62356
告诉	-9.62369
步骤	-9.62376
农村	-9.62391
可能是	-9.62454
低于	-9.62498
▁我相信	-9.62578
十年	-9.62632
卖	-9.62653
核心	-9.62673
期待	-9.62685
▁大会	-9.62723
质量	-9.62762
被迫	-9.62774
不但	-9.62879
汉	-9.6289
消费者	-9.62915
飞行	-9.62943
员额	-9.62993
大型	-9.63162
联合国系统	-9.63173
店	-9.63217
网站	-9.63235
一旦	-9.6326
据	-9.6329
上诉	-9.63304
岁男子	-9.63325
政党	-9.63328
减轻	-9.63404
普通	-9.63529
拿	-9.63551
相对	-9.63556
的一部分	-9.63579
老年人	-9.63583
星期三	-9.63623
▁当时	-9.63696
星期四	-9.63705
一系列	-9.6371
枪	-9.63748
以外	-9.63762
以往	-9.63773
指示	-9.63819
▁1997	-9.63826
审	-9.63831
苦	-9.63849
指数	-9.63856
其余	-9.63946
最好	-9.6403
集中	-9.64105
备	-9.64182
观	-9.64217
▁就	-9.6423
叶	-9.64261
探讨	-9.64267
许	-9.64271
主张	-9.64304
爆发	-9.64311
其他国家	-9.64379
出生	-9.64413
连续	-9.64425
领袖	-9.64427
独	-9.64566
成绩	-9.64569
的人数	-9.64775
季	-9.6479
发达国家	-9.6483
本人	-9.64836
物品	-9.64867
印度尼西亚	-9.64869
坐	-9.64911
意味着	-9.64919
刚	-9.64923
大规模	-9.64946
依赖	-9.65185
表演	-9.65198
一贯	-9.65215
越南	-9.65241
体毓	-9.65295
基础设施	-9.65327
别人	-9.65396
资讯科技	-9.65458
六十	-9.65471
将由	-9.65549
堂	-9.65593
五百	-9.65657
长远	-9.65663
主办	-9.65663
目	-9.6569
表达	-9.65712
使得	-9.65734
的看法	-9.65768
记	-9.65854
此种	-9.65857
版	-9.65899
雨	-9.65927
取决于	-9.65948
胜	-9.65972
国籍	-9.66066
本国	-9.66097
否认	-9.66106
雇员	-9.66107
举	-9.66167
提名	-9.66287
发行	-9.66329
的生活	-9.6636
▁欧洲联盟	-9.66401
废物	-9.66542
宝	-9.6655
找	-9.66571
约有	-9.66673
将是	-9.66803
铁	-9.669
我们认为	-9.66925
委任	-9.66953
三百	-9.67
的态度	-9.67008
笑	-9.67017
菜	-9.67038
45	-9.6704
并在	-9.67047
加快	-9.67084
出售	-9.67096
参观	-9.67106
起诉	-9.67112
消息	-9.67462
文书	-9.67465
环保	-9.67484
创新	-9.67488
额外	-9.67504
您	-9.67507
导弹	-9.67512
▁为此	-9.67527
年前	-9.67531
分发	-9.67531
当选	-9.67808
不论	-9.6781
海洋	-9.67841
600	-9.67944
十一月	-9.68142
问题上	-9.68271
▁结果	-9.68283
身份	-9.6829
▁以色列	-9.6839
召开	-9.68395
英语	-9.6842
致辞	-9.68423
齐	-9.68453
瑞士	-9.68457
条第	-9.6846
致	-9.68679
完	-9.68732
报导	-9.68752
试	-9.68813
问题是	-9.69061
免费	-9.69092
主义	-9.69095
人受伤	-9.69103
莱	-9.69106
少数	-9.69119
错误	-9.69253
后果	-9.69278
团结	-9.69325
洛	-9.69383
标	-9.69384
1000	-9.69401
鲁	-9.69407
梅	-9.69407
日后	-9.69468
教学	-9.69475
有利于	-9.69524
业界	-9.69569
在这里	-9.69609
善	-9.6965
依据	-9.69746
紧	-9.69753
我相信	-9.69772
戏	-9.69871
抵达	-9.6991
上午	-9.69938
青	-9.69969
登	-9.6999
巴勒斯坦人	-9.70062
整	-9.70076
岁的	-9.70085
西班牙	-9.70109
已成为	-9.70317
语文	-9.70342
批	-9.70346
群	-9.70412
商定	-9.70416
发布	-9.70426
客户	-9.70441
充满	-9.70449
会在	-9.70458
农民	-9.70474
依	-9.70477
女士	-9.70499
▁-	-9.70501
音乐	-9.70692
总是	-9.70732
的局势	-9.7074
随	-9.70749
造	-9.70775
命	-9.70825
九龙	-9.70976
俄罗斯联邦	-9.71072
作出了	-9.71112
架	-9.71114
十四	-9.71155
维修	-9.71162
▁我想	-9.71206
事实上	-9.71329
永远	-9.71329
▁这项	-9.71391
掉	-9.71514
集	-9.71517
克罗地亚	-9.71532
盘	-9.71633
4%	-9.7177
有效的	-9.71778
的措施	-9.71785
刚果	-9.71786
的资源	-9.71814
法案	-9.71859
四月	-9.7186
小型	-9.71877
▁除	-9.71899
阿拉伯	-9.71917
的事	-9.71942
星期二	-9.71948
产业	-9.71955
与会者	-9.71964
一天	-9.71973
归	-9.71984
便会	-9.72007
易	-9.72028
良	-9.7204
变成	-9.72105
四个	-9.72185
6.	-9.72195
倍	-9.72229
入境	-9.72246
资讯	-9.72317
软件	-9.72334
安盟	-9.72335
终于	-9.72362
有助	-9.72381
长者	-9.72391
来港	-9.7256
目前的	-9.72561
▁工作组	-9.72578
人死亡	-9.72639
结论	-9.72649
巴士	-9.72668
馆	-9.72701
成就	-9.7282
阻止	-9.72825
广告	-9.72832
海地	-9.7293
的承诺	-9.72972
转让	-9.72984
此类	-9.72985
次会议	-9.73073
对其	-9.73101
回到	-9.73109
敦促	-9.73183
绝	-9.73203
过渡	-9.73289
互相	-9.73292
提供的	-9.73298
议定书	-9.73313
牛	-9.73313
杀	-9.73327
十八	-9.73335
治安	-9.73337
一百	-9.73356
治	-9.73365
利率	-9.73419
转变	-9.73484
据说	-9.73507
内的	-9.73561
这些国家	-9.73606
论	-9.73629
音	-9.73711
影	-9.73766
谈到	-9.73782
航空	-9.73794
尽可能	-9.73794
一场	-9.73812
抗议	-9.73813
一套	-9.73837
现有的	-9.73854
年初	-9.73927
乌克兰	-9.73949
主题	-9.73966
男性	-9.73982
毒	-9.73994
的关键	-9.74017
至关重要	-9.74134
射	-9.74136
对付	-9.74195
得到了	-9.74202
薪	-9.74205
年期间	-9.7424
获悉	-9.74303
玩	-9.74308
实体	-9.74356
▁与此同时	-9.74375
喜欢	-9.74388
且	-9.74502
的地区	-9.74506
▁若	-9.74554
资	-9.74707
伙伴关系	-9.74708
严格	-9.74804
杜	-9.74821
▁有人	-9.74895
景	-9.74971
马来西亚	-9.74974
推	-9.75044
7.	-9.75047
七十	-9.75087
各自	-9.75125
藏	-9.75152
核准	-9.75171
▁我们必须	-9.75242
艾滋病毒	-9.7533
燃料	-9.75337
分享	-9.75346
园	-9.7537
职务	-9.75475
泰	-9.75482
意大利	-9.75497
新界	-9.75509
这方面的	-9.75735
考	-9.75768
习惯	-9.75795
江	-9.75798
课	-9.75815
甚么	-9.75885
400	-9.75968
更新	-9.7602
咨询委员会	-9.76022
一段	-9.76063
导	-9.7613
▁安全理事会	-9.76165
的范围	-9.76186
果	-9.76194
造成了	-9.76209
惩罚	-9.76311
谢	-9.7632
永	-9.76341
超	-9.76366
药品	-9.76373
中文	-9.7645
多边	-9.76481
磋商	-9.76564
拖延	-9.76654
的办法	-9.76655
形势	-9.76687
特别是在	-9.76718
笔	-9.76722
寻找	-9.76766
的内容	-9.76785
所需	-9.76828
毛	-9.76845
玉	-9.76851
乌干达	-9.76874
自动	-9.76939
等待	-9.76972
认识	-9.76989
在过去	-9.77052
今	-9.77056
听到	-9.77091
星期六	-9.77099
放弃	-9.77118
那样	-9.77149
发射	-9.77242
急	-9.77253
势	-9.77286
的增长	-9.7735
诉讼	-9.77359
腐败	-9.7737
警员	-9.77413
克服	-9.77415
命令	-9.77435
仍有	-9.7754
▁有些	-9.77558
我要	-9.77596
北部	-9.77602
四十	-9.77608
载有	-9.77636
基地	-9.77643
认真	-9.77646
建造	-9.77689
切	-9.77703
是一种	-9.77738
一级	-9.7775
女孩	-9.77856
弹	-9.77885
失业率	-9.77902
一道	-9.77994
000	-9.78067
的项目	-9.78094
南部	-9.78117
否则	-9.78164
纸	-9.78229
修正案	-9.78418
皮	-9.78431
囚犯	-9.78438
剧	-9.78443
▁日本	-9.78448
当前	-9.78503
一半	-9.78519
形	-9.78614
▁按照	-9.78709
业主	-9.78709
主权	-9.78725
外地	-9.78781
有很多	-9.78855
大厦	-9.78868
地球	-9.7888
秩序	-9.78944
滥用	-9.78957
优惠	-9.78965
父亲	-9.78966
制止	-9.78977
立法局	-9.79023
首脑会议	-9.79071
的妇女	-9.7909
总督	-9.79096
访	-9.79167
国际合作	-9.79184
执法	-9.7922
8%	-9.79252
购	-9.79393
湾	-9.7943
财富	-9.79496
捐款	-9.7956
十七	-9.79569
▁[	-9.7967
净	-9.79689
▁可是	-9.79699
劳	-9.79759
层面	-9.7977
▁1996	-9.79783
主动	-9.7983
侵略	-9.79923
威	-9.79931
镇	-9.7998
报告中	-9.80077
再度	-9.80156
演	-9.80221
实质性	-9.80255
酒	-9.80322
高达	-9.80325
的其他	-9.80359
穿	-9.80489
▁要	-9.80522
的人口	-9.80546
酷刑	-9.80555
修正	-9.80559
架构	-9.8056
圆	-9.80611
▁那	-9.80631
女童	-9.80817
支	-9.80937
足够	-9.8102
祝贺	-9.81025
的危险	-9.81039
出现了	-9.81068
差距	-9.8108
状态	-9.81086
及其他	-9.81087
怎么	-9.81089
另	-9.81097
做出	-9.8124
角	-9.8126
多名	-9.81277
精	-9.81282
的目的	-9.81311
下去	-9.81373
已在	-9.81398
四年	-9.81476
年中	-9.81513
最多	-9.81546
弱	-9.81551
和发展	-9.81557
封	-9.81578
有效地	-9.81583
雅	-9.81635
博士	-9.81644
委	-9.81917
世界银行	-9.81997
喜	-9.82159
还将	-9.82176
回顾	-9.82181
事宜	-9.82228
民主党	-9.82236
严重的	-9.82338
的环境	-9.82358
路线	-9.82365
了一个	-9.82437
特区政府	-9.82498
亦可	-9.82636
许多国家	-9.8266
荣	-9.82685
公路	-9.8269
端	-9.827
▁国际社会	-9.82704
冲	-9.82711
叙利亚	-9.82727
钻石	-9.82729
签证	-9.8273
我们会	-9.82871
管理局	-9.82872
东西	-9.82888
这些问题	-9.82901
各级	-9.82927
以为	-9.82937
的精神	-9.83002
免	-9.83029
例子	-9.83083
证人	-9.83088
金额	-9.83222
贝	-9.83226
各国政府	-9.83238
每一	-9.83249
伯	-9.83274
赞同	-9.83275
穆斯林	-9.83275
削减	-9.8328
装置	-9.83283
退休	-9.83405
罚款	-9.83421
坏	-9.83596
所需的	-9.83625
庆祝	-9.83698
原来	-9.83709
多年来	-9.83806
录得	-9.83843
补偿	-9.83854
十九	-9.83989
销	-9.84006
促请	-9.84022
散	-9.84154
▁1994	-9.84215
职能	-9.84275
的条件	-9.8434
页	-9.84371
监禁	-9.84381
讲习班	-9.84384
妨碍	-9.8441
文明	-9.8448
速度	-9.84528
思想	-9.84554
残疾人	-9.84573
本局	-9.84655
目前正在	-9.84686
他在	-9.84714
受影响	-9.84734
支援	-9.84802
英文	-9.84804
示威	-9.84857
武	-9.84888
迄今	-9.84899
旅游业	-9.84902
的观点	-9.84958
温	-9.84978
了一些	-9.85035
索赔人	-9.85071
外交部长	-9.85096
二千	-9.85156
▁还	-9.85177
取代	-9.85192
观点	-9.85206
讲话	-9.85319
在这个	-9.85377
虐待	-9.85385
味	-9.85405
一月	-9.85469
多年	-9.85484
茶	-9.85497
最不发达国家	-9.85505
争议	-9.85506
具备	-9.85572
合约	-9.85685
我的	-9.85738
所述	-9.85778
捐助	-9.85851
▁新	-9.8586
钟	-9.85871
香	-9.85922
广泛的	-9.85964
▁即使	-9.85976
的事件	-9.85977
破	-9.85978
的方案	-9.85991
拨	-9.85993
▁市民	-9.86049
丧失	-9.86074
理想	-9.86105
一九九八年	-9.86163
逃	-9.86174
中有	-9.86246
视为	-9.86326
临	-9.86351
异	-9.86401
自我	-9.86453
百分之	-9.8648
宪章	-9.86531
吴	-9.8654
的士	-9.86541
二年	-9.86625
就此	-9.86654
变动	-9.86678
年轻	-9.86687
提升	-9.86692
最初	-9.86735
3%	-9.86792
将其	-9.86797
第四	-9.86828
制造业	-9.86839
一九九九年	-9.86852
不满	-9.86858
也在	-9.86878
思	-9.86928
基本上	-9.86956
家人	-9.87006
为期	-9.87014
不久	-9.87015
必要的	-9.87018
应在	-9.8708
最低	-9.87095
痛	-9.87132
它的	-9.87145
朝鲜	-9.87191
柬埔寨	-9.87209
料	-9.87217
为止	-9.87223
四百	-9.87254
失败	-9.87393
合法	-9.87395
不稳定	-9.87417
鸡	-9.87426
顺	-9.87679
情况下	-9.87697
种种	-9.87701
中国人	-9.87703
儿童基金会	-9.87728
可持续发展	-9.87746
梁	-9.8778
专题	-9.87786
专员	-9.87872
▁1995	-9.87927
36	-9.87941
外部	-9.87945
会继续	-9.88095
赶	-9.88124
选出	-9.88176
顿	-9.8822
运用	-9.88234
的发言	-9.88265
适合	-9.88291
一千	-9.88388
储存	-9.88389
指引	-9.88389
适应	-9.88398
领域的	-9.88431
遣返	-9.88451
负	-9.88454
看法	-9.88463
查明	-9.885
禁	-9.88526
安装	-9.88543
另一	-9.88562
透明度	-9.88582
促使	-9.88594
当天	-9.88621
亦有	-9.88637
会晤	-9.88648
是我们	-9.88661
程	-9.887
住宅	-9.8871
使我们	-9.8876
贵	-9.88848
国会	-9.88868
地面	-9.88869
学者	-9.88872
的世界	-9.88924
虽	-9.88934
32	-9.88944
怎样	-9.88944
看看	-9.88954
装备	-9.88958
在内的	-9.88991
自行	-9.8901
工厂	-9.89096
法定	-9.89118
战斗	-9.89124
道德	-9.89155
有责任	-9.89159
正确	-9.89188
9%	-9.89201
早上	-9.89275
这点	-9.893
的理由	-9.89385
艺	-9.89416
公司的	-9.89422
申请人	-9.89482
撰文人	-9.89528
尽早	-9.89578
▁国际	-9.89622
身上	-9.89645
牌照	-9.8967
有利	-9.89798
增至	-9.89827
则是	-9.89839
署长	-9.89886
放在	-9.89901
配	-9.89905
以确保	-9.89911
改为	-9.90005
的概念	-9.90089
折	-9.90094
付款	-9.90112
雪	-9.90114
贸发会议	-9.90116
革命	-9.90118
少数民族	-9.90131
不够	-9.90134
投资者	-9.90176
在联合国	-9.90231
救	-9.90298
释放	-9.90309
之下	-9.90344
▁实际上	-9.90462
大批	-9.90498
以上的	-9.90542
细	-9.90588
扬	-9.90645
▁发言人说	-9.90682
边境	-9.90696
融资	-9.90708
联合王国	-9.90711
6%	-9.90725
旅行	-9.90742
增强	-9.9079
息	-9.90805
近年来	-9.90808
▁国家	-9.90856
也可以	-9.90928
心理	-9.9102
对香港	-9.91029
拟	-9.91152
所作的	-9.91187
几天	-9.91192
兼	-9.91273
陈水扁	-9.91303
沟通	-9.91305
的成功	-9.91316
副主席	-9.91374
行动计划	-9.91488
对这些	-9.91568
质	-9.91662
警队	-9.91697
衣	-9.91766
母	-9.91773
不利	-9.91835
寄	-9.91844
发展中国家的	-9.91856
▁2002	-9.91888
距离	-9.91892
......	-9.91902
认可	-9.91939
阵	-9.9198
的标准	-9.91981
人权委员会	-9.91997
经济增长	-9.92007
的可能性	-9.92083
▁显然	-9.92092
审理	-9.92135
洗	-9.92157
时候	-9.92164
会面	-9.92226
▁我国	-9.92252
史	-9.92254
我希望	-9.9228
不受	-9.92288
租金	-9.92405
围	-9.92419
公顷	-9.92467
刀	-9.92477
丽	-9.92478
的冲突	-9.92485
郑	-9.92504
恐怕	-9.92506
清洁	-9.92508
参考	-9.9251
兴	-9.92537
学员	-9.92596
历史上	-9.92608
策略	-9.92716
预	-9.92719
产量	-9.92771
埃	-9.92822
进行调查	-9.92873
伤害	-9.92883
民警	-9.92953
48	-9.92954
视察	-9.93078
替代	-9.93118
游戏	-9.93119
规范	-9.93144
容忍	-9.93146
埃塞俄比亚	-9.93159
社会发展	-9.93266
准	-9.93277
发言者	-9.93326
航	-9.93344
体系	-9.93543
会有	-9.93546
拉丁美洲	-9.93557
压	-9.93586
汇率	-9.93728
短缺	-9.93729
在美国	-9.93729
人物	-9.9373
极端	-9.93732
正义	-9.93783
创	-9.93788
这里	-9.93842
划	-9.9386
各方面	-9.9389
纪录	-9.93961
两次	-9.93979
委员会的	-9.93995
华人	-9.94006
参	-9.94056
十六	-9.94077
和解	-9.94098
从未	-9.94109
的地位	-9.94145
友	-9.94191
久	-9.94224
仍未	-9.94232
前景	-9.94274
丰富	-9.94291
有需要	-9.94315
阶层	-9.94334
隧道	-9.94335
▁然后	-9.94358
该项	-9.94503
该区域	-9.94551
自治	-9.94599
第二次	-9.94615
的儿童	-9.9466
动物	-9.94664
未来的	-9.94725
全港	-9.94725
委员会成员	-9.94796
警告	-9.94815
34	-9.94874
止	-9.94883
跳	-9.94947
操作	-9.94972
美利坚合众国	-9.95154
是要	-9.95179
申诉	-9.95191
也将	-9.95288
大众	-9.9529
炸弹	-9.95325
一九九七年	-9.95353
作业	-9.95358
实地	-9.95362
各地	-9.95378
银	-9.9543
箱	-9.95535
森	-9.95551
伟	-9.95554
为什么	-9.95574
的确	-9.95628
有限公司	-9.95708
这一问题	-9.95725
维持和平	-9.95827
的讨论	-9.95889
蒂	-9.95907
第一个	-9.95962
继	-9.96002
作出决定	-9.96037
灾难	-9.96048
患	-9.96057
定义	-9.96086
通过了	-9.96135
希	-9.9615
同一	-9.96151
松	-9.96167
怀	-9.96171
烧	-9.96191
沙特阿拉伯	-9.96198
信贷	-9.96201
公园	-9.96206
多项	-9.96211
起草	-9.96286
迟	-9.96299
守	-9.96301
些	-9.96318
▁应	-9.96349
38	-9.9635
受害人	-9.96362
这种情况	-9.96365
切实	-9.96416
恶	-9.96444
部份	-9.96478
佛	-9.96566
小组委员会	-9.96648
缔约方	-9.96754
冷	-9.96785
他说	-9.96801
有了	-9.96803
肉	-9.96804
依照	-9.96835
效	-9.9684
较为	-9.96857
多少	-9.96881
的文件	-9.96897
生活在	-9.96922
相应	-9.971
游客	-9.97113
与其他	-9.97123
波斯尼亚	-9.97188
▁它还	-9.97214
询问	-9.97254
十二月	-9.97267
听取	-9.97315
密	-9.9732
▁正如	-9.97354
的挑战	-9.97397
面积	-9.97425
严峻	-9.97459
每次	-9.97462
55	-9.97464
诸如	-9.97478
略	-9.97533
杨	-9.9755
5000	-9.97552
的服务	-9.97621
民间	-9.97623
录	-9.97633
▁只有	-9.97646
到达	-9.97649
她的	-9.97692
历	-9.97842
利润	-9.9785
目的是	-9.97886
筹备	-9.97947
此事	-9.98036
人手	-9.98077
附件	-9.9808
矛盾	-9.98096
乌	-9.98096
许可证	-9.98104
近期	-9.98118
款项	-9.98133
更是	-9.98158
发放	-9.9817
成功地	-9.98202
为此	-9.98215
77	-9.98244
塔利班	-9.98266
加剧	-9.98323
直至	-9.98333
所说的	-9.98418
无须	-9.98594
服务业	-9.98642
▁预计	-9.98672
外交部	-9.98701
陆	-9.98702
▁相反	-9.98736
愈	-9.98736
偿还	-9.98769
有着	-9.98885
用品	-9.98886
医	-9.99042
涉嫌	-9.99082
建立了	-9.99099
发生在	-9.99107
检控	-9.99137
巡逻	-9.992
39	-9.99314
邦	-9.99352
基层	-9.99406
依靠	-9.99427
重复	-9.99438
流行	-9.99453
生存	-9.99466
功能	-9.99696
故	-9.99729
▁2	-9.99735
补	-9.99766
的核心	-9.99767
扩散	-9.9984
素	-9.99846
每月	-9.99943
很快	-10
工作队	-10.0002
准确	-10.0002
伊朗伊斯兰共和国	-10.0003
的数目	-10.0006
所有国家	-10.0006
透露	-10.0007
委员会主席	-10.0011
必	-10.0016
2004	-10.0017
作品	-10.002
春	-10.0021
▁到	-10.0029
还在	-10.003
是个	-10.003
大楼	-10.0034
许多人	-10.0048
籍	-10.0056
存在着	-10.0059
杰	-10.0062
智	-10.0062
者的	-10.0064
持久	-10.0069
40%	-10.007
东南亚	-10.007
但却	-10.0073
武装部队	-10.0074
灵	-10.0078
狗	-10.008
的案件	-10.0081
联合国宪章	-10.0081
暴	-10.0082
一间	-10.0084
速	-10.009
的历史	-10.0091
的人员	-10.0091
原则上	-10.0104
静	-10.0113
缺	-10.0115
二十一	-10.0119
二十八	-10.0121
翻	-10.0133
左	-10.0134
井	-10.0134
分岐	-10.0135
","	-10.0136
阻碍	-10.0136
技能	-10.0138
发动	-10.0142
随时	-10.0143
讨论会	-10.0145
的变化	-10.0151
土着人民	-10.0154
有关部门	-10.0155
抗	-10.0156
核裁军	-10.0157
面前	-10.0164
接着	-10.0165
容	-10.0165
所得	-10.0171
就有	-10.0173
▁我国代表团	-10.0176
用作	-10.0184
网页	-10.0195
症	-10.0197
次会议上	-10.0197
含	-10.02
认同	-10.0204
剂	-10.0204
本报告	-10.0209
征	-10.0211
的一项	-10.0213
分子	-10.0226
译文	-10.0227
歌	-10.0234
下列	-10.0238
信任	-10.0239
功	-10.0247
可在	-10.0253
的现象	-10.0257
必须在	-10.0263
反而	-10.0265
培养	-10.0267
交换	-10.0268
这些人	-10.0268
移动	-10.0268
英语发言	-10.0271
的实际	-10.0272
清单	-10.0277
分类	-10.0288
仍在	-10.0288
刘	-10.029
生意	-10.029
▁行政长官	-10.029
书面	-10.0307
对抗	-10.0308
伊斯兰	-10.0315
▁通过	-10.0317
康	-10.032
我国代表团	-10.0323
争端	-10.0325
不幸	-10.0331
贴	-10.0332
谷	-10.0332
的例子	-10.0333
鸟	-10.0333
担保	-10.0334
帐户	-10.0335
固定	-10.0339
演出	-10.0341
节省	-10.0342
▁非洲	-10.0345
五个	-10.0346
有一些	-10.0346
▁上述	-10.0351
体现	-10.0356
○○○	-10.0357
计算机	-10.0357
数据库	-10.0371
人口的	-10.0373
施	-10.0383
赞赏	-10.0386
便利	-10.0387
雄	-10.0395
扎	-10.04
死者	-10.04
赋予	-10.0402
公斤	-10.0402
通信	-10.0409
比率	-10.0409
任期	-10.041
条规定	-10.0412
一词	-10.0413
信心	-10.0415
类别	-10.0428
环	-10.0433
接纳	-10.0433
周年	-10.0444
的各种	-10.0448
原子能机构	-10.0457
脆弱	-10.0458
这方面	-10.0462
突出	-10.0463
答覆	-10.0463
沉	-10.0466
爱尔兰	-10.0469
亮	-10.047
兹	-10.047
孙	-10.047
规例	-10.047
规约	-10.0472
贩运	-10.0473
赫	-10.0478
的程序	-10.0485
恐怖	-10.0486
▁还有	-10.0489
的速度	-10.0491
港元	-10.0507
收益	-10.0507
▁伊拉克	-10.0507
杀害	-10.0512
快速	-10.052
争	-10.0522
绝大多数	-10.0523
国际组织	-10.0523
今次	-10.0525
竞争力	-10.0526
主席女士	-10.0528
谋	-10.0533
生态	-10.0534
刚刚	-10.0535
戴	-10.0537
范畴	-10.0538
贾	-10.0538
判断	-10.0539
考试	-10.0539
单独	-10.0541
私	-10.0543
中小型企业	-10.0543
顶	-10.0544
谨	-10.0545
伤亡	-10.0555
二月	-10.0555
都在	-10.0563
解决办法	-10.0563
▁据称	-10.0566
百分之十	-10.0575
▁自从	-10.058
年至	-10.0584
五千	-10.0588
只会	-10.0596
念	-10.06
终	-10.0603
婚	-10.0605
饭	-10.0606
拍	-10.0606
尾	-10.0606
传媒	-10.0608
突然	-10.0608
80%	-10.0608
邮票	-10.0608
积极参与	-10.0609
席位	-10.0609
0.	-10.061
惊	-10.0613
港口	-10.0615
采取了	-10.0619
出任	-10.0624
的目的是	-10.0627
民兵	-10.0628
良好的	-10.0631
的威胁	-10.0639
定于	-10.064
中国的	-10.0642
保安	-10.0646
阿根廷	-10.0647
香港市民	-10.0651
用来	-10.0655
很好	-10.0657
相当于	-10.0658
称为	-10.0661
大幅	-10.0663
众	-10.0663
宽	-10.0672
舞	-10.0673
豁免	-10.0674
日第	-10.0674
成了	-10.0675
特征	-10.0675
建立一个	-10.0675
商界	-10.0676
能否	-10.0678
的会议	-10.0678
设想	-10.0685
野	-10.069
那里	-10.0699
转移	-10.0701
潜力	-10.0705
特别代表	-10.0706
33	-10.0712
检	-10.0721
日常	-10.0726
汇	-10.0729
桥	-10.0731
让我	-10.0731
有任何	-10.0742
实质	-10.0742
两岸	-10.0746
网址	-10.0746
厄立特里亚	-10.0747
病毒	-10.0748
电力	-10.0748
核查	-10.0749
的进展	-10.0751
祖国	-10.0751
供应商	-10.0754
足以	-10.0758
昨日	-10.0763
建筑物	-10.0775
组织的	-10.0779
的信息	-10.0783
宜	-10.0787
留在	-10.079
副秘书长	-10.0796
的投资	-10.0809
证券	-10.0811
跑	-10.0813
帕	-10.0817
金管局	-10.0817
澳洲	-10.0817
彼此	-10.0818
顾客	-10.0818
结合	-10.0819
日前	-10.082
保存	-10.0824
最重要的	-10.0825
来文	-10.0827
冲突的	-10.0827
减少了	-10.0828
界定	-10.0839
更大	-10.0848
人生	-10.0852
领取	-10.0856
三名	-10.0862
经历	-10.0867
严	-10.0873
另一个	-10.0873
相关的	-10.0874
抵	-10.088
44	-10.0882
状	-10.0885
曲	-10.0885
的唯一	-10.0886
横	-10.0888
格鲁吉亚	-10.0888
涵盖	-10.0888
规管	-10.0889
房委会	-10.0889
结婚	-10.0889
已于	-10.0891
难民署	-10.0893
▁你	-10.0895
这两个	-10.0907
总数	-10.0908
答	-10.091
计划的	-10.0916
▁发言人	-10.0918
据称	-10.0924
建设性	-10.093
是由于	-10.0937
开会	-10.0944
证书	-10.0947
优势	-10.0948
欧	-10.0948
▁请	-10.0949
▁由	-10.0949
着手	-10.0949
坚决	-10.0951
交给	-10.0954
人力资源	-10.0955
储备	-10.0957
电讯	-10.0957
开幕	-10.0957
希腊	-10.096
终止	-10.096
维持和平行动	-10.096
加速	-10.0962
1%	-10.0963
1980	-10.0966
现代化	-10.0967
三千	-10.0975
意识	-10.0979
刑	-10.098
助	-10.098
▁小组	-10.0981
死亡率	-10.0984
不应该	-10.0985
借	-10.0989
年轻人	-10.099
矿	-10.0992
东部	-10.0994
的各项	-10.1003
这场	-10.1007
缅甸	-10.1008
凡	-10.1009
多人	-10.101
的程度	-10.1019
社会的	-10.1019
有点	-10.1027
▁呃	-10.1028
拜	-10.103
图书馆	-10.103
伦	-10.103
社会福利	-10.1031
帮	-10.1031
颁布	-10.1032
▁1993	-10.1032
大力	-10.1036
和谐	-10.1038
高于	-10.1038
▁只要	-10.1039
仲裁	-10.1039
包含	-10.104
协调员	-10.1044
同期	-10.1046
▁报告	-10.1051
人在	-10.1054
延	-10.1056
蒙	-10.1065
二十七	-10.107
船只	-10.1074
设立了	-10.1074
变得	-10.1081
我们要	-10.1084
地震	-10.1087
颁发	-10.1097
的研究	-10.1101
救济	-10.1103
途径	-10.1104
阐述	-10.1104
公屋	-10.1107
伦敦	-10.1108
财政司	-10.1115
出了	-10.1115
的运作	-10.1123
民间社会	-10.1125
治理	-10.1136
降	-10.1139
月初	-10.1141
没有人	-10.1142
能力建设	-10.1143
发展的	-10.1145
政府官员	-10.1146
▁这次	-10.1148
载于	-10.1152
讨论了	-10.1152
斗争	-10.1153
在一起	-10.1154
机构的	-10.1158
所谓的	-10.1173
和美国	-10.1174
毫无	-10.1175
的具体	-10.1175
廾	-10.1177
斯里兰卡	-10.1177
东道国	-10.1177
贪污	-10.1177
哪些	-10.1177
70%	-10.1177
陷入	-10.1178
位置	-10.1182
动员	-10.1184
最新	-10.1191
继续努力	-10.1197
害	-10.1199
让人	-10.1206
觉	-10.1208
世界经济	-10.1212
六百	-10.1218
期限	-10.1219
有意	-10.1228
的数据	-10.1228
▁据报	-10.1228
本来	-10.123
回收	-10.1235
护	-10.1239
绿	-10.1247
唱	-10.1248
使其	-10.1248
10%	-10.1252
一宗	-10.1253
30%	-10.1254
判	-10.1255
句	-10.1256
收回	-10.1257
自杀	-10.126
的贡献	-10.1264
产生了	-10.1265
港人	-10.1267
辆	-10.1269
有许多	-10.1271
在中国	-10.1276
就可以	-10.1279
非洲的	-10.1281
▁董建华	-10.1282
健	-10.1284
我们也	-10.1289
庆	-10.129
等等	-10.1291
联合国的	-10.1296
两地	-10.13
施政报告	-10.1304
和社会	-10.1305
特别委员会	-10.1308
昨天	-10.1309
成长	-10.131
招	-10.1311
在本	-10.1312
追	-10.1316
▁没有	-10.1316
洋	-10.1316
互	-10.1318
南亚	-10.1319
议案	-10.132
报告说	-10.1321
幕	-10.1322
出现的	-10.1324
喝	-10.1324
牺牲	-10.1324
危地马拉	-10.1324
休息	-10.1325
业绩	-10.1325
妇女的	-10.1326
▁缔约国	-10.1328
▁李	-10.1333
第五	-10.1335
规定的	-10.1344
巴勒斯坦人民	-10.1348
太多	-10.1355
联合国秘书长	-10.1355
行动中	-10.1358
的同时	-10.1359
设置	-10.1361
文学	-10.1378
拖	-10.1379
该公司	-10.1382
我会	-10.1384
跌	-10.139
邮	-10.1391
对待	-10.1393
总共	-10.1393
二十六	-10.1395
47	-10.1397
餐	-10.1397
辩护	-10.1397
冰	-10.1398
负责人	-10.1398
泽	-10.1399
皆	-10.1399
确立	-10.1401
1989	-10.1402
指南	-10.1407
自由党	-10.1409
售	-10.141
见到	-10.1425
的收入	-10.1426
最严重的	-10.1428
外国人	-10.1435
取得了	-10.1435
八十	-10.1436
本港的	-10.1437
不好	-10.1438
回家	-10.145
香港经济	-10.1463
政府对	-10.1465
危害	-10.1474
引致	-10.1475
辞职	-10.1476
合并	-10.1477
电视台	-10.1477
获取	-10.1481
刑法	-10.1483
随即	-10.1486
明天	-10.1487
2%	-10.1492
委会	-10.151
续	-10.1512
核可	-10.1516
湖	-10.1521
▁双方	-10.1524
推迟	-10.1528
已被	-10.1528
效果	-10.1529
失踪	-10.1532
普及	-10.1533
依法	-10.1535
永久	-10.1537
提供援助	-10.1539
二十三	-10.1545
指挥	-10.1546
▁经过	-10.1548
也要	-10.1549
菲	-10.155
墙	-10.155
约旦	-10.1552
在非洲	-10.1553
缺少	-10.1554
技术合作	-10.1554
二十五	-10.1555
种族主义	-10.1556
解放	-10.1558
无疑	-10.1564
幅	-10.1565
直到	-10.1572
▁大家	-10.1574
▁后来	-10.1574
块	-10.1576
政府部门	-10.1583
之内	-10.1589
43	-10.1593
地带	-10.1593
巨大的	-10.1594
剥夺	-10.1594
乱	-10.1594
于是	-10.16
各位议员	-10.16
引发	-10.16
简	-10.1603
扩展	-10.1606
勤	-10.1609
认	-10.161
忽视	-10.1611
统治	-10.1616
电台	-10.1618
里面	-10.1619
两年期	-10.162
呼	-10.1626
封闭	-10.1626
袋	-10.1626
小心	-10.1626
迷	-10.1626
90%	-10.1627
限	-10.1627
强迫	-10.1627
反对派	-10.1631
每日	-10.1632
▁秘书处	-10.1636
解除	-10.1642
表示关注	-10.1647
自然资源	-10.1653
细节	-10.1655
沿	-10.1657
的家庭	-10.1671
他们在	-10.1672
采	-10.1678
欲	-10.168
气氛	-10.1686
可行	-10.1686
他人	-10.1692
影响到	-10.1697
的安排	-10.1697
这份	-10.1699
事件中	-10.1699
例	-10.1702
婴儿	-10.1703
在该	-10.1704
康复	-10.1705
为香港	-10.1705
浪费	-10.1705
▁近年来	-10.1706
西方	-10.1706
解决问题	-10.1707
达成协议	-10.1707
聘用	-10.1708
档案	-10.1709
迂	-10.1716
指称	-10.1717
得不到	-10.1717
文本	-10.1719
的大	-10.1719
会员	-10.1721
据报	-10.1722
减低	-10.1725
护照	-10.1726
市区	-10.1726
穷人	-10.1729
助理	-10.1735
渠道	-10.1738
人民的	-10.1739
分区	-10.175
700	-10.1751
两项	-10.1761
而非	-10.1771
经济和社会	-10.1775
夏	-10.1776
厚	-10.1779
股票	-10.1779
唐	-10.178
七百	-10.1781
首席	-10.1781
丁	-10.1781
卢	-10.1781
塞尔维亚	-10.1781
中期	-10.1783
推进	-10.1783
洲	-10.1785
派遣	-10.1786
即时	-10.1787
一些国家	-10.1787
撤出	-10.1789
是对	-10.1792
月至	-10.1793
特区	-10.1805
多种	-10.1809
皇	-10.1815
席	-10.1819
的手段	-10.1831
民事	-10.1843
42	-10.1844
痛苦	-10.1848
一再	-10.1849
待迂	-10.1854
而不	-10.1854
新闻部	-10.1855
停火	-10.1855
没收	-10.1856
好的	-10.1856
罪犯	-10.1857
决	-10.1857
布什	-10.1857
阿塞拜疆	-10.1859
洗钱	-10.1861
丹麦	-10.1861
智利	-10.1862
升级	-10.1862
总值	-10.1864
交通意外	-10.1865
中间	-10.1866
才会	-10.1866
国家安全	-10.1867
教毓署	-10.1868
黄金	-10.1868
客观	-10.187
大致	-10.1875
星期日	-10.1878
活跃	-10.188
记得	-10.1887
九十	-10.189
院长	-10.1895
是指	-10.1901
我就	-10.1913
所有人	-10.1919
的比例	-10.1922
)(	-10.1926
档	-10.1932
某	-10.1934
甲	-10.1936
谋求	-10.1939
怕	-10.194
气象	-10.1942
游行	-10.1943
前面	-10.1946
相反	-10.1946
是以	-10.1946
的平均	-10.1948
促成	-10.1949
一直在	-10.1951
容许	-10.1952
▁其	-10.1954
印尼	-10.196
是中国	-10.196
▁她说	-10.1966
的成果	-10.1967
被视为	-10.197
脱	-10.1979
所在	-10.1986
差异	-10.1986
广东	-10.1988
存款	-10.1988
日起	-10.1992
的共同	-10.1994
庭	-10.1996
创作	-10.1997
政府在	-10.2001
等于	-10.2006
不知	-10.2006
旗	-10.2011
▁印度	-10.2014
彩	-10.2015
$	-10.2017
忧虑	-10.2017
朱	-10.2017
婚姻	-10.2017
怀孕	-10.2017
!	-10.2017
实践	-10.2017
假设	-10.202
不想	-10.202
采取措施	-10.2023
情绪	-10.2025
唯一	-10.2027
对联合国	-10.2031
华盛顿	-10.2033
家属	-10.2036
还需要	-10.2036
2005	-10.2036
筹资	-10.2036
议题	-10.2036
末	-10.2038
消	-10.204
劳工处	-10.204
举行会议	-10.2042
▁应该	-10.2058
得多	-10.2064
展示	-10.2066
秘书	-10.2067
调解	-10.2073
49	-10.2076
承	-10.2077
共识	-10.2078
夫人	-10.2078
乃	-10.208
介绍了	-10.208
在那里	-10.2082
表示欢迎	-10.2084
的道路	-10.2085
当年	-10.2096
亚美尼亚	-10.2097
描述	-10.2097
纷纷	-10.2097
杂志	-10.2098
敏感	-10.2098
删除	-10.2099
乐观	-10.2099
订立	-10.2099
我们希望	-10.2101
审讯	-10.2103
出于	-10.2104
的许多	-10.2105
阿尔巴尼亚	-10.2106
的表现	-10.2107
截至	-10.2108
谋杀	-10.2109
两位	-10.2111
的计划	-10.2111
应该是	-10.2117
提案	-10.2118
的土地	-10.212
会议的	-10.2123
群众	-10.2127
二十四	-10.214
任职	-10.2143
▁他还	-10.2146
▁他表示	-10.2147
质素	-10.2147
少年	-10.215
20%	-10.2152
37	-10.2158
一直是	-10.2162
▁理事会	-10.2166
逐	-10.2166
留下	-10.2167
对象	-10.2168
理论	-10.2169
不敢	-10.2173
的消息	-10.2173
质疑	-10.2173
葡萄牙	-10.2176
竟	-10.2177
佩	-10.2178
大韩民国	-10.2178
当事方	-10.2178
仁	-10.2178
搜查	-10.2178
专家组	-10.2179
追求	-10.2179
服务的	-10.2182
种植	-10.2194
捐助者	-10.2194
看见	-10.2207
我们在	-10.2207
此项	-10.2208
信息技术	-10.2221
发表的	-10.2228
缴	-10.223
各类	-10.2231
应由	-10.2233
欠	-10.2234
▁我们相信	-10.2234
▁我觉得	-10.2237
很高	-10.2239
▁咨询委员会	-10.2242
不大	-10.2244
削弱	-10.2246
灵活	-10.2249
很大的	-10.2249
▁他指出	-10.2252
候	-10.2252
失望	-10.2252
阳	-10.2256
塞浦路斯	-10.2259
桌	-10.2259
殴打	-10.2259
人力	-10.2261
基金会	-10.2266
价值观	-10.2266
的权力	-10.2279
部门的	-10.2284
职责	-10.2288
7%	-10.2293
控	-10.2295
然而	-10.2301
适	-10.2313
南方	-10.2313
二零零一年	-10.2315
美洲	-10.2315
共同努力	-10.2316
大多	-10.2317
并将	-10.2319
的趋势	-10.2328
惯例	-10.233
市长	-10.2335
后者	-10.2336
右	-10.2337
梦	-10.2338
西部	-10.2339
许可	-10.234
▁委员会还	-10.234
骨	-10.2341
移徙	-10.2341
卖淫	-10.2341
酌情	-10.2341
差不多	-10.2342
必然	-10.2342
雇用	-10.2342
渔业	-10.2343
优先事项	-10.2343
出色	-10.2344
仅仅	-10.2345
国际法院	-10.2348
抱	-10.2348
幅度	-10.2349
的性质	-10.235
二八	-10.2351
每一个	-10.2355
背后	-10.2356
工作方案	-10.2357
是很	-10.2358
枚	-10.2367
5%	-10.237
真正的	-10.2373
合格	-10.2376
任何人	-10.2377
九七年	-10.2377
很可能	-10.2378
的说法	-10.2383
移	-10.2391
大概	-10.2391
颇	-10.2394
人均	-10.2396
真是	-10.2399
的困难	-10.24
的水平	-10.2404
偏	-10.2408
的反应	-10.241
▁我们也	-10.2413
观念	-10.2414
替	-10.242
慢	-10.242
被发现	-10.2422
的自由	-10.2423
内战	-10.2423
尼日利亚	-10.2424
▁换言之	-10.2424
撤离	-10.2424
纠正	-10.2424
护理	-10.2425
管辖权	-10.2425
一辆	-10.2425
的事情	-10.2429
守则	-10.243
机器	-10.2433
54	-10.2434
瑞典	-10.2434
流入	-10.2434
学会	-10.2438
国外	-10.2446
有关国家	-10.2446
有兴趣	-10.2446
非常重要	-10.2452
它是	-10.2459
发起	-10.2462
付出	-10.2464
现任	-10.2464
▁一	-10.2464
中心的	-10.2465
而已	-10.2467
毓	-10.2471
佳	-10.2479
日内瓦	-10.2482
统筹	-10.2483
▁在此	-10.2484
并于	-10.2486
表现出	-10.2496
取得进展	-10.2497
家中	-10.2501
惠	-10.2502
抽	-10.2502
远远	-10.2503
辞	-10.2504
私家车	-10.2506
吁请	-10.2507
有待	-10.2507
对他们	-10.2508
出版物	-10.251
管辖	-10.2512
我们对	-10.2512
的关注	-10.2514
就必须	-10.2518
我是	-10.2519
美军	-10.2519
就业机会	-10.2521
表格	-10.2521
民国	-10.2525
很重要	-10.2526
背景	-10.2528
同样的	-10.2528
敌	-10.253
某一	-10.2531
早日	-10.2539
也不能	-10.2541
的角色	-10.2545
毕业	-10.2546
残疾	-10.2558
接获	-10.2559
做到	-10.2563
未经	-10.2565
反映了	-10.2566
二零零零年	-10.2567
的数字	-10.2569
背	-10.2571
香港特别行政区	-10.2571
对我们	-10.2573
两人	-10.2573
名为	-10.2574
可见	-10.2575
的执行	-10.258
讯	-10.2583
假期	-10.2584
患者	-10.2584
戈	-10.2585
凭	-10.2587
软	-10.2589
冒	-10.259
裁谈会	-10.2591
荃湾	-10.2591
正面	-10.2591
摄影	-10.2592
消失	-10.2592
我们将	-10.2593
选票	-10.2594
队伍	-10.2595
是根据	-10.2595
总体	-10.26
答案	-10.2603
刊	-10.2603
众多	-10.2606
挪威	-10.2607
的因素	-10.2612
的资金	-10.2617
流离失所	-10.262
二十九	-10.2623
设立一个	-10.2629
回来	-10.263
接受了	-10.263
列出	-10.2633
美国的	-10.2633
才是	-10.2637
受理	-10.2645
哪	-10.2649
可持续	-10.2651
详情	-10.2652
的形式	-10.2653
▁当局	-10.2654
收取	-10.2655
美国政府	-10.2659
责	-10.2665
点六	-10.2667
说过	-10.267
蓝	-10.2673
▁卫生署	-10.2674
不需要	-10.2675
挂	-10.2676
南斯拉夫联盟共和国	-10.2676
圈	-10.2676
诗	-10.2676
债券	-10.2676
强奸	-10.2676
启动	-10.2677
述	-10.2681
东亚	-10.2683
150	-10.2683
的受害者	-10.2692
议程项目	-10.2696
签署了	-10.2699
卫生署	-10.2706
休	-10.2707
的后果	-10.2711
为何	-10.2716
忠	-10.2717
获准	-10.272
事务部	-10.2723
供水	-10.2733
动用	-10.2733
聚	-10.2734
是香港	-10.274
人道主义援助	-10.2743
空中	-10.2745
迈	-10.2748
无辜	-10.2751
驾驶	-10.2756
割	-10.2757
搞	-10.2758
都没有	-10.276
无核武器区	-10.276
秋	-10.2761
欣赏	-10.2761
签订	-10.2762
买卖	-10.2763
手续	-10.2769
订正	-10.2769
捐助国	-10.277
大家都	-10.2776
独立的	-10.2777
的义务	-10.2778
仍是	-10.278
不太	-10.278
董建华	-10.2781
学术	-10.2789
鉴于	-10.2791
二十一世纪	-10.2792
高级别	-10.2793
刻	-10.2793
迫使	-10.2794
排除	-10.2801
的未来	-10.2801
警察部队	-10.2814
较低	-10.2816
执行局	-10.2819
不愿	-10.2822
还包括	-10.2824
元朗	-10.2827
中国政府	-10.283
响	-10.2834
53	-10.2836
所涉	-10.2841
炮	-10.2841
耶路撒冷	-10.2846
丈夫	-10.2848
检验	-10.2848
增幅	-10.2848
销毁	-10.2849
册	-10.2855
前南斯拉夫	-10.2856
尤	-10.2857
电信	-10.2863
的技术	-10.2868
调查结果	-10.2869
▁一个	-10.2869
也不会	-10.2873
特别注意	-10.2873
置	-10.2874
1.	-10.288
的东西	-10.2883
一方	-10.2885
途	-10.2887
故事	-10.2889
偷	-10.289
将近	-10.289
安理会成员	-10.289
是不	-10.2893
工作小组	-10.2896
的谈判	-10.2896
行事	-10.2897
尽力	-10.2899
私营	-10.29
的限制	-10.2902
此次	-10.2902
或许	-10.2904
除非	-10.2907
的调查	-10.291
过境	-10.2911
中共	-10.2922
主席团	-10.2922
▁希望	-10.2927
承受	-10.2929
鞋	-10.2931
隆	-10.2931
可以在	-10.2932
破产	-10.2932
八百	-10.2933
邨	-10.2934
萨达姆	-10.2934
兄弟	-10.2934
混乱	-10.2935
变革	-10.2935
一九九五年	-10.2935
继承	-10.2935
巴黎	-10.2936
形容	-10.2936
妻子	-10.2936
悲剧	-10.2951
谈谈	-10.2952
年内	-10.2954
在世界	-10.2969
以期	-10.297
800	-10.297
65	-10.2971
非正式	-10.2973
脑	-10.2974
女儿	-10.2982
分为	-10.2991
举办了	-10.2992
它们的	-10.2993
丧生	-10.2993
优	-10.3009
透明	-10.301
使用的	-10.3015
空气	-10.3017
移交	-10.3017
完善	-10.3019
逾	-10.3019
也可	-10.302
中华人民共和国	-10.3022
工发组织	-10.3022
尼加拉瓜	-10.3022
尼泊尔	-10.3022
立刻	-10.3023
未有	-10.3027
是一项	-10.3029
不错	-10.3036
的认识	-10.3037
场所	-10.305
屯门	-10.305
的小	-10.305
之一是	-10.3052
▁特别代表	-10.306
是有	-10.3064
在今年	-10.3064
如今	-10.3067
长时间	-10.3071
的重点	-10.3082
过于	-10.3092
注	-10.3095
练	-10.3097
意图	-10.3098
还可以	-10.3099
南斯拉夫	-10.3102
稿	-10.3105
太平洋	-10.3109
氏	-10.311
安置	-10.311
旋	-10.311
挺	-10.3111
肯尼亚	-10.3111
投标	-10.3112
波兰	-10.3113
火警	-10.3113
注重	-10.3114
祖	-10.3115
政府已	-10.3116
不必	-10.3124
专家小组	-10.3124
较高	-10.3127
完成了	-10.3128
有能力	-10.3131
贩毒	-10.3133
在未来	-10.3135
住户	-10.3137
卫	-10.3139
摩洛哥	-10.3139
酒店	-10.314
消灭	-10.3143
好像	-10.3145
旅	-10.315
世界各地	-10.3151
军人	-10.3169
一体化	-10.3174
900	-10.3175
法规	-10.3176
最佳	-10.3177
薪金	-10.3179
所列	-10.3183
▁各	-10.3184
的压力	-10.3186
回皈	-10.3187
似	-10.3193
敬	-10.3198
绝不	-10.3201
物资	-10.3202
行动纲领	-10.3202
入境处	-10.3205
将有	-10.3206
致命	-10.3206
特点	-10.3207
跨	-10.3212
要素	-10.3214
亦是	-10.3216
一日	-10.3219
街头	-10.3224
来到	-10.323
有时候	-10.3231
增长率	-10.3231
一定要	-10.3233
中断	-10.3242
高层	-10.325
▁此	-10.3255
报告书	-10.3262
区的	-10.3263
的进程	-10.3266
高等教毓	-10.3267
冷战	-10.3267
宁	-10.327
局面	-10.3272
分别为	-10.3277
青年人	-10.3277
正当	-10.3281
耶	-10.3289
加勒比	-10.329
凯	-10.329
一国两制	-10.329
救援	-10.329
紧迫	-10.329
41	-10.3291
某种	-10.3292
内阁	-10.3293
潮	-10.3293
不符合	-10.3301
处长	-10.3306
住在	-10.331
说话	-10.3312
与发展	-10.3313
提请	-10.3314
货车	-10.3325
侵犯人权	-10.3331
方案的	-10.3336
满意	-10.3341
我谨	-10.3342
和非	-10.335
最近的	-10.3358
的情湟下	-10.3362
先后	-10.3363
般	-10.3363
零售	-10.3365
增加到	-10.3368
的长期	-10.337
的选举	-10.3371
连接	-10.3373
台湾的	-10.3375
成效	-10.3379
缘	-10.338
丰	-10.338
空缺	-10.338
竹	-10.3381
三分之一	-10.3381
冻结	-10.3381
补贴	-10.3381
陈述	-10.3382
男童	-10.3382
气候	-10.3383
1988	-10.3384
传统的	-10.3386
股市	-10.3387
组合	-10.3388
开办	-10.3389
集中在	-10.3389
3000	-10.3392
参加者	-10.3393
着重	-10.3395
主导	-10.3399
的第	-10.34
的定义	-10.3401
疑问	-10.3407
表示支持	-10.3408
工程处	-10.3414
报名	-10.3416
会计	-10.3421
两者	-10.3423
化学	-10.3423
童	-10.3425
国际关系	-10.3426
很多人	-10.3426
六年	-10.3429
区议会	-10.3434
面临的	-10.3434
▁妇女	-10.3438
脸	-10.3445
形象	-10.3445
强制	-10.3451
广大	-10.3454
外来	-10.3455
他是	-10.3457
题为	-10.3459
十分重要	-10.3463
发达	-10.3467
乘	-10.3469
坚	-10.3469
就要	-10.347
欢	-10.3471
检获	-10.3471
博物馆	-10.3473
赴	-10.3473
多样化	-10.3473
突尼斯	-10.3473
缔结	-10.3473
辅导	-10.3473
雇主	-10.3473
妥善	-10.3473
采访	-10.3473
走私	-10.3475
航天	-10.3477
势力	-10.3477
都必须	-10.3479
几个月	-10.3479
例外	-10.3484
幼	-10.3484
抢劫	-10.3486
过往	-10.3493
百分之二十	-10.3496
政策和	-10.3498
越来越多的	-10.3502
行人	-10.3503
人事	-10.3508
热线	-10.351
的那样	-10.3522
代价	-10.3524
习	-10.3524
港岛	-10.3536
对外	-10.3536
▁3	-10.354
足够的	-10.354
动力	-10.354
有些人	-10.3541
社会上	-10.3543
床	-10.3546
一般性	-10.3547
援	-10.3559
或其他	-10.356
皈	-10.3563
嘉	-10.3564
敏	-10.3564
辛	-10.3564
莫斯科	-10.3565
蒙古	-10.3567
在这	-10.3567
征收	-10.3568
摊款	-10.3569
的学生	-10.357
带来了	-10.357
的效率	-10.3582
标志	-10.3584
三日	-10.3586
最少	-10.3588
时间表	-10.3588
的状况	-10.3595
说明了	-10.3595
进出口	-10.36
当日	-10.3601
产出	-10.3605
和联合国	-10.3611
难民营	-10.3612
扣	-10.362
该等	-10.3621
都要	-10.3621
大会第	-10.3623
禁毒	-10.3629
但我们	-10.3633
该名	-10.3639
无人	-10.364
百分之五	-10.3644
市场的	-10.365
法令	-10.3651
通胀	-10.3654
宫	-10.3657
瑞	-10.3658
营运	-10.3658
耳	-10.3659
突破	-10.3659
提供服务	-10.3659
视乎	-10.3659
放缓	-10.366
60%	-10.366
手册	-10.3662
签发	-10.3664
友好	-10.3665
男人	-10.3665
国民党	-10.3673
的必要	-10.3673
99	-10.3675
的机构	-10.3678
案例	-10.3682
没有得到	-10.3688
附	-10.369
协	-10.3691
好处	-10.3692
表示关切	-10.3694
15%	-10.3699
不安	-10.3699
债	-10.3706
近年	-10.3712
热烈	-10.3713
民意	-10.3713
时限	-10.3715
性和	-10.3717
交由	-10.372
回国	-10.3723
最为	-10.3723
丹	-10.3729
无意	-10.373
于二	-10.3731
激烈	-10.3732
旁	-10.3733
▁法国	-10.3737
巨	-10.3742
▁在过去	-10.3743
▁教毓署	-10.3746
持有	-10.3746
排雷	-10.3747
测	-10.3747
探	-10.3748
知识产权	-10.3748
估计为	-10.3749
杂	-10.3749
粉	-10.3751
抓	-10.3752
壮	-10.3753
介入	-10.3754
附表	-10.3755
冲击	-10.3755
沙田	-10.3755
这项工作	-10.3757
评	-10.3757
受惠	-10.3758
土着	-10.3758
跨国公司	-10.3759
56	-10.3761
恐怖分子	-10.3761
手术	-10.377
级别	-10.377
所说	-10.3779
存在的	-10.3781
犯下	-10.3793
场地	-10.3793
技术援助	-10.3794
受害	-10.3796
小孩	-10.3799
未必	-10.3801
诚	-10.3802
示	-10.3811
的日子	-10.3811
维也纳	-10.3816
缩短	-10.3816
52	-10.3818
罪案	-10.3822
▁我谨	-10.3823
乡村	-10.3823
无线电	-10.3824
都能	-10.3825
更大的	-10.3827
意识到	-10.3828
较大	-10.383
铺	-10.3831
营业	-10.3837
的领导	-10.3843
撞	-10.3847
被判	-10.3848
兆	-10.3848
逻辑	-10.3848
大使馆	-10.3855
作出贡献	-10.3859
之间的关系	-10.387
都知道	-10.3871
得知	-10.3872
隔	-10.3872
却是	-10.3876
搜集	-10.388
接受治疗	-10.3882
▁安理会成员	-10.3883
等问题	-10.3884
运送	-10.3893
轻微	-10.3894
区分	-10.3894
暴力行为	-10.3895
该组织	-10.3902
返	-10.3905
抢	-10.3911
犯人	-10.3912
的申请	-10.3914
通报	-10.3919
会见	-10.392
结束后	-10.3922
始	-10.3924
坚定	-10.3927
一步	-10.3927
的过程	-10.3929
物业	-10.3932
的事实	-10.3938
桑	-10.3943
灭	-10.3943
这笔	-10.3944
朝鲜民主主义人民共和国	-10.3944
纠纷	-10.3944
妈妈	-10.3944
尝试	-10.3945
因特网	-10.3945
防治	-10.3946
索取	-10.3948
升幅	-10.3948
留意	-10.3948
这两	-10.395
的整体	-10.3951
加沙	-10.3952
平静	-10.3955
协作	-10.3967
在北京	-10.3974
▁4	-10.3976
口头	-10.398
▁5	-10.3982
密切合作	-10.3988
俄	-10.3993
代表团认为	-10.3994
转口	-10.4003
特色	-10.401
的文化	-10.4015
对方	-10.4016
呼吁市民	-10.4019
系统的	-10.4019
▁1992	-10.4021
意思	-10.4025
渔	-10.4032
迁	-10.4032
洪	-10.4036
▁二	-10.4039
打开	-10.404
庇护	-10.404
垄断	-10.4041
承建商	-10.4042
秘鲁	-10.4042
输入	-10.4043
指责	-10.4043
种类	-10.4044
干事	-10.4046
广场	-10.4046
言论	-10.4048
这些建议	-10.4052
金属	-10.4052
▁我们会	-10.4059
地铁	-10.4061
印发	-10.4064
舍	-10.4064
早已	-10.4065
核试验	-10.4069
村庄	-10.407
▁同	-10.4075
后的	-10.4077
使他们	-10.4086
的公司	-10.4087
九七	-10.4089
三分之二	-10.4091
居住在	-10.4094
角色	-10.4096
之处	-10.4097
深圳	-10.4105
75	-10.4106
四千	-10.4113
校长	-10.4114
预算案	-10.4114
高兴	-10.412
单一	-10.4121
庞大	-10.4124
不时	-10.4125
议	-10.4125
在场	-10.4125
巴格达	-10.4131
热情	-10.4132
第七	-10.4134
国际会议	-10.4134
险	-10.4134
46	-10.4136
仪	-10.4137
武力	-10.4137
的第一	-10.4139
哥斯达黎加	-10.414
韦	-10.414
蔡	-10.414
封锁	-10.414
癌症	-10.414
查阅	-10.414
天然气	-10.414
否决权	-10.4141
人民币	-10.4142
▁他认为	-10.4142
深感	-10.4144
携带	-10.4144
调动	-10.4145
但在	-10.4148
骗	-10.415
政府和	-10.4158
▁1	-10.4159
衡量	-10.4159
和平与安全	-10.4159
▁经	-10.416
社会经济	-10.4162
贩卖	-10.4166
想象	-10.4171
深刻	-10.4175
台北市	-10.4177
的总	-10.4178
的辩论	-10.4184
感觉	-10.4184
的主题	-10.4189
一九九六年	-10.4192
的和平	-10.4193
弄	-10.4194
三个月	-10.4197
还会	-10.4204
的生命	-10.4204
集会	-10.4205
两种	-10.4209
一批	-10.4212
强制性	-10.4219
当今	-10.4224
朗	-10.4232
覆盖	-10.4233
上学	-10.4234
牙	-10.4235
埋	-10.4236
摄	-10.4237
癌	-10.4238
猪	-10.4238
庄	-10.4238
睡	-10.4238
▁运输署	-10.4238
奥地利	-10.4239
比利时	-10.4239
技巧	-10.4239
预料	-10.4239
艰难	-10.4239
还应	-10.424
将有助于	-10.424
六千	-10.4241
城镇	-10.4241
照片	-10.4241
总干事	-10.4242
简化	-10.4242
清理	-10.4244
外汇	-10.4245
副主席先生	-10.4249
过分	-10.4249
选手	-10.4252
的武器	-10.4253
点九	-10.4258
的力量	-10.4259
组成的	-10.4259
万名	-10.426
▁一名	-10.4262
可致电	-10.4286
有害	-10.429
我们应该	-10.429
的最	-10.4292
设在	-10.4294
七年	-10.4296
藉	-10.4301
经济体系	-10.4302
上市	-10.4302
地说	-10.432
成立了	-10.432
安全和	-10.4323
也就是	-10.4325
点三	-10.4325
二零零二年	-10.4336
卷	-10.4336
▁台湾	-10.4336
禽流感	-10.4338
艾	-10.4339
恶劣	-10.4339
违背	-10.4339
缴付	-10.4339
澳门	-10.434
东京	-10.434
营养	-10.4341
聘请	-10.4341
社会服务	-10.4341
百分之四	-10.4341
六个月	-10.4346
▁啊	-10.4349
继续进行	-10.435
全力	-10.4352
董事会	-10.4352
在纽约	-10.4356
给我	-10.4357
在国际	-10.4358
次数	-10.436
第六	-10.4361
开设	-10.4362
事主	-10.4369
的基础上	-10.439
单方面	-10.4391
显得	-10.4397
货品	-10.4399
其他人	-10.44
地下	-10.4405
[	-10.4406
事先	-10.4407
25%	-10.4412
二十日	-10.4418
营地	-10.4419
全球性	-10.4419
国际贸易	-10.4421
之上	-10.4422
轨道	-10.4422
毁	-10.4423
启	-10.4424
的工作人员	-10.443
融入	-10.4432
办公	-10.4435
竞选	-10.4436
纯	-10.4437
斗	-10.4437
秀	-10.4439
纪律	-10.444
印刷	-10.444
招聘	-10.444
排放	-10.444
技术和	-10.4441
主要的	-10.4442
表示感谢	-10.4443
施加	-10.4443
举报	-10.4443
儿子	-10.4445
列为	-10.4447
显	-10.4447
伊拉克政府	-10.4447
增进	-10.4449
灾害	-10.4451
最高法院	-10.4452
塞族	-10.4462
发言人表示	-10.4466
自卫	-10.4468
至于	-10.4468
和政治	-10.4481
可以说	-10.4483
海上	-10.449
赖	-10.4494
都市	-10.4495
不足以	-10.4496
不存在	-10.4498
全面的	-10.4501
点四	-10.4502
第二季	-10.4503
人口基金	-10.4504
早期	-10.4504
下降了	-10.4505
有关各方	-10.4505
赤字	-10.4509
已开始	-10.4517
作为一个	-10.4518
在这一	-10.452
固	-10.4528
麻	-10.4529
将为	-10.4534
机构间	-10.4537
示范	-10.4537
祝	-10.4539
烟	-10.454
饰	-10.454
的价值	-10.4541
难民专员办事处	-10.4542
平方米	-10.4542
娱乐	-10.4542
撤销	-10.4542
我也	-10.4543
警务人员	-10.4544
世界卫生组织	-10.4549
准许	-10.4552
利息	-10.4554
人权问题	-10.4559
▁本港	-10.4561
执行主任	-10.4562
那时	-10.4562
出来的	-10.4565
帐	-10.4567
的一种	-10.4568
的最后	-10.4573
质询	-10.4574
妇女和儿童	-10.4575
和非政府组织	-10.4579
废除	-10.4582
入口	-10.4592
概算	-10.4595
还必须	-10.4599
房屋署	-10.46
统	-10.4602
一件	-10.4603
对他	-10.4604
和管理	-10.4611
岸	-10.4616
第一季	-10.4617
之时	-10.4617
积	-10.4618
政府应	-10.4619
与其	-10.462
违反了	-10.4621
警官	-10.4622
曾在	-10.4625
▁按	-10.4627
的决议	-10.463
解决冲突	-10.4636
地理	-10.4637
急剧	-10.4638
俗	-10.464
涌	-10.464
毕业生	-10.4642
缓慢	-10.4643
呀	-10.4643
累	-10.4643
鼓	-10.4644
振	-10.4644
甘	-10.4645
穆	-10.4645
舞蹈	-10.4645
颗	-10.4645
严厉	-10.4645
迎接	-10.4645
招标	-10.4646
保密	-10.4646
便可	-10.4649
的这个	-10.4652
极大	-10.4653
中国内地	-10.4654
引进	-10.4654
杰出	-10.4655
多了	-10.4656
▁特别是	-10.4661
59	-10.4663
给我们	-10.4666
中美洲	-10.4677
做了	-10.4678
与联合国	-10.4679
道理	-10.4683
外债	-10.4687
另有	-10.4689
中国大陆	-10.4689
湾仔	-10.4693
网上	-10.4694
极其	-10.4699
其工作	-10.4702
过去几年	-10.4703
▁假如	-10.4706
行政当局	-10.4707
这次会议	-10.471
让我们	-10.4713
行径	-10.472
都不	-10.4722
妇女在	-10.4723
该报告	-10.4726
类似的	-10.4729
董事	-10.4729
一支	-10.473
的名字	-10.4733
联合会	-10.4733
植物	-10.4734
告知	-10.4735
筹备委员会	-10.4739
定居	-10.4739
引起了	-10.474
因为他们	-10.4741
辖下	-10.4743
浪	-10.4744
倾向	-10.4745
汇报	-10.4748
▁俄罗斯	-10.4748
医管局	-10.4749
审慎	-10.4749
海岸	-10.4749
减薪	-10.4751
联阵	-10.4751
自然灾害	-10.4752
和平协定	-10.4753
结束时	-10.4755
下的	-10.4756
全年	-10.4757
拟定	-10.4757
军事行动	-10.4767
成人	-10.4767
工商	-10.4776
新闻界	-10.4776
族裔	-10.4777
不平等	-10.4778
不如	-10.4779
的根源	-10.478
派出	-10.4783
很容易	-10.4786
▁委员会认为	-10.4788
关税	-10.4788
龄	-10.4789
一万	-10.4791
民主化	-10.4791
的最大	-10.4791
联合国在	-10.4794
十六日	-10.4799
你的	-10.48
▁一九九八年	-10.4815
▁在这	-10.4816
商人	-10.4816
跨国	-10.4818
仔细	-10.4819
运行	-10.4821
该项目	-10.4827
周期	-10.4828
事务委员会	-10.483
尤其是在	-10.4832
裁定	-10.4837
己	-10.4847
律政司	-10.4854
委内瑞拉	-10.4854
个百分点	-10.4854
披露	-10.4854
谅解	-10.4854
累积	-10.4854
入侵	-10.4855
复兴	-10.4855
大规模的	-10.4858
▁财政司司长	-10.4859
基建	-10.486
强劲	-10.486
信仰	-10.486
约束	-10.4861
全力支持	-10.4861
水准	-10.4862
之际	-10.4869
金钱	-10.4869
稍	-10.487
被认为是	-10.487
航空公司	-10.4871
代表说	-10.4874
前进	-10.4877
其他地方	-10.4879
的预算	-10.4891
国际社会的	-10.4893
遗	-10.4893
一些人	-10.4893
新机场	-10.4906
诊所	-10.4907
北方	-10.4908
载列	-10.4912
七日	-10.4918
办事	-10.4921
▁嗯	-10.4922
的管理	-10.4924
香港政府	-10.4924
▁如今	-10.4929
的财政	-10.4933
身份证	-10.4935
不愿意	-10.4943
辟	-10.4945
直升机	-10.4947
技	-10.4948
的损失	-10.495
▁其次	-10.4951
硬	-10.4952
多万	-10.4955
忙	-10.4956
豪	-10.4956
年间	-10.4956
代表性	-10.4957
霍	-10.496
糖	-10.496
辉	-10.496
利比亚	-10.496
哈萨克斯坦	-10.496
凌晨	-10.496
耀	-10.4961
裁军谈判会议	-10.4961
排斥	-10.4961
从来没有	-10.4962
的城市	-10.4963
自决	-10.4965
东盟	-10.4966
院校	-10.4967
间接	-10.4969
成熟	-10.497
正如	-10.4972
儿童的	-10.4972
管理和	-10.4975
区别	-10.4977
▁本人	-10.4978
的援助	-10.4979
总结	-10.498
效应	-10.4982
目标是	-10.4982
有义务	-10.4987
的传统	-10.499
原本	-10.499
非洲大陆	-10.499
地盘	-10.4991
明日	-10.4991
大国	-10.4991
限于	-10.4995
发给	-10.4996
▁他强调	-10.4999
的指控	-10.4999
几次	-10.5001
反映出	-10.5009
的改革	-10.501
家园	-10.5012
徒	-10.5014
被送往	-10.5016
消防	-10.502
址	-10.5024
的出口	-10.5029
八千	-10.5035
鲜	-10.5035
缓	-10.5035
发了言	-10.5041
▁与会者	-10.5041
获释	-10.5043
担忧	-10.5043
▁今日	-10.5045
泥	-10.5053
释	-10.5059
不确定	-10.506
哥	-10.5061
6000	-10.5062
困	-10.5064
虫	-10.5068
尖沙嘴	-10.5068
究竟	-10.5068
嘉宾	-10.5068
摆脱	-10.5068
商讨	-10.5069
思考	-10.5069
?"	-10.5072
57	-10.5073
零点	-10.5074
98	-10.5075
启用	-10.5076
一群	-10.5083
68	-10.5084
冠	-10.5085
中非共和国	-10.5086
第二个	-10.5087
司法机构	-10.5089
报纸	-10.5089
递交	-10.509
此外	-10.5091
成功的	-10.5093
了许多	-10.5097
▁我要	-10.5102
核武器国家	-10.5109
输	-10.5109
参与者	-10.5117
码头	-10.5119
同学	-10.5122
会见了	-10.5124
的价格	-10.5135
百分之三十	-10.5139
不用	-10.5141
的军事	-10.5143
盟	-10.5148
先进	-10.5154
捕	-10.5156
更有	-10.5157
闻	-10.5158
▁届时	-10.5159
弗	-10.5162
外资	-10.5164
聘	-10.5166
东北	-10.5171
阻	-10.5171
冬	-10.5172
面向	-10.5174
─	-10.5176
寒	-10.5176
庙	-10.5177
辱	-10.5177
孔	-10.5177
赞比亚	-10.5177
清晰	-10.5177
宋	-10.5177
恐吓	-10.5177
西岸	-10.5179
办理	-10.5181
评审	-10.5181
紧密	-10.5181
活力	-10.5183
75%	-10.5183
名额	-10.5188
司法部	-10.5189
为其	-10.5192
时刻	-10.52
2006	-10.5201
提供给	-10.5202
▁估计	-10.5204
▁警方今日	-10.5206
让他们	-10.5207
租用	-10.5207
这些活动	-10.5212
的目标是	-10.5212
可供	-10.5213
主流	-10.5213
权益	-10.5216
马里	-10.5217
▁1990	-10.5218
不一定	-10.5219
自从	-10.5222
▁任何	-10.5223
百分之三	-10.5231
五十周年	-10.5239
读者	-10.524
如下	-10.5247
的意愿	-10.5248
财	-10.525
这问题	-10.5251
▁刚才	-10.5256
▁大多数	-10.5267
着名	-10.5267
该计划	-10.5268
人员的	-10.5271
苏联	-10.5271
呈	-10.5272
通货膨胀	-10.5275
富有	-10.5275
水质	-10.5275
复苏	-10.5276
内政部	-10.5277
其实是	-10.5278
何时	-10.5279
败	-10.5282
蓄	-10.5285
签字	-10.5285
醒	-10.5286
几年	-10.5286
和技术	-10.5286
波多黎各	-10.5287
舆论	-10.5287
的健康	-10.5287
引渡	-10.5287
不妨	-10.5287
麦	-10.5291
开采	-10.5291
作物	-10.5294
不当	-10.5295
日趋	-10.5298
2%。	-10.5298
农村地区	-10.53
带着	-10.5305
品牌	-10.5306
经济活动	-10.5306
教毓和	-10.5306
的最新	-10.5315
▁应当	-10.5316
误	-10.5323
不良	-10.5323
的使用	-10.5325
因应	-10.5326
中华	-10.5327
同等	-10.5328
大选	-10.5329
重要的是	-10.5331
增多	-10.5337
▁面对	-10.5338
露	-10.5338
中英	-10.5344
马上	-10.5348
和环境	-10.5349
97	-10.5351
至少有	-10.5351
和国际	-10.5358
都可以	-10.5361
日开始	-10.5363
遗憾	-10.5365
通过的	-10.5366
这条	-10.5367
社会人士	-10.5368
在国内	-10.5372
裁决	-10.5373
灾	-10.5373
▁随后	-10.5373
走向	-10.5374
现行的	-10.5378
因为它	-10.5379
特别会议	-10.5386
分裂	-10.539
劳动力	-10.5394
遍	-10.5396
一个人	-10.5396
尸体	-10.5397
伏	-10.5397
嘛	-10.5398
延续	-10.5398
超越	-10.54
服装	-10.54
多元化	-10.54
谈论	-10.5401
保养	-10.5401
观察团	-10.5403
势头	-10.5405
罚	-10.5405
作出的	-10.5408
阅读	-10.5408
的报道	-10.5416
部落	-10.5417
必需	-10.5419
同情	-10.5422
后面	-10.5442
▁世界	-10.5443
文字	-10.5449
也必须	-10.5452
月二十五日	-10.5452
这些措施	-10.5453
委员会的工作	-10.5456
成为一个	-10.5457
一部分	-10.5458
想要	-10.5459
衣服	-10.5459
反恐	-10.5463
在内	-10.5463
改组	-10.5475
拖欠	-10.5476
世界各国	-10.5481
就在	-10.5483
才可	-10.5484
两天	-10.549
66	-10.5492
受益	-10.5492
预定	-10.5493
这么多	-10.5494
地产	-10.55
阁下	-10.5502
监	-10.5503
逢	-10.5505
损	-10.5507
宾	-10.5509
粗	-10.5509
在全国	-10.551
锡	-10.551
厄瓜多尔	-10.551
扎伊尔	-10.551
几内亚	-10.551
炉	-10.551
蔓延	-10.551
赞助	-10.551
勇气	-10.5511
传染病	-10.5511
▁其后	-10.5513
审核	-10.5514
但它	-10.5515
送交	-10.5516
愿望	-10.5516
中央政府	-10.5516
的车辆	-10.5517
民生	-10.552
样本	-10.552
疫苗	-10.5522
大会堂	-10.5527
我们已	-10.5529
损坏	-10.553
▁第四	-10.5531
严重影响	-10.5536
生产力	-10.5537
复杂的	-10.554
面临着	-10.5542
是非常	-10.5545
该国政府	-10.5546
大小	-10.5558
域	-10.5561
进一步加强	-10.5581
找出	-10.5582
是没有	-10.5582
结果是	-10.5583
一句	-10.5583
引起的	-10.5586
▁巴基斯坦	-10.5587
英国政府	-10.559
今晚	-10.5592
超出	-10.5597
▁张	-10.5597
获得了	-10.5601
通道	-10.5602
寻	-10.5603
的罪行	-10.5606
上面	-10.5608
的联系	-10.561
侧	-10.561
迫	-10.561
剥削	-10.5611
死于	-10.5615
我们亦	-10.5616
掌	-10.5617
将以	-10.562
截止	-10.5623
炎	-10.5624
邓	-10.5624
秒	-10.5624
爸爸	-10.5624
纳米比亚	-10.5624
典礼	-10.5624
填补	-10.5624
营养不良	-10.5624
扭转	-10.5624
聚集	-10.5625
停车场	-10.5625
北约	-10.5626
收容	-10.5626
摘要	-10.5628
人为	-10.5629
的机制	-10.563
接收	-10.563
使命	-10.5631
示威者	-10.5641
的一切	-10.5646
▁这就是	-10.5647
各界	-10.5649
调查显示	-10.5652
代表发了言	-10.5653
▁我现在	-10.5655
初期	-10.5656
致电	-10.5657
▁这将	-10.5666
各会员国	-10.5666
感兴趣	-10.567
不管	-10.5672
开枪	-10.5674
法律规定	-10.5676
当作	-10.5678
有一	-10.5679
不允许	-10.5691
他对	-10.5691
全球经济	-10.5694
只有在	-10.5694
处罚	-10.5696
四日	-10.5702
的存在	-10.5709
▁所有这些	-10.5709
位议员	-10.5711
干涉	-10.5716
海关人员	-10.5722
五日	-10.5724
生毓	-10.5729
▁该名	-10.5731
在伊拉克	-10.5732
京	-10.5732
合理的	-10.5732
账	-10.5734
的前景	-10.5734
虎	-10.5736
柜	-10.5738
今早	-10.5738
蛋	-10.5739
圆桌会议	-10.5739
演奏	-10.5739
数码	-10.5739
动荡	-10.5739
柴油	-10.5739
包装	-10.5742
用以	-10.5743
伤者	-10.5743
▁答	-10.5746
引入	-10.5746
就像	-10.5748
版本	-10.5752
巴林	-10.5754
使人	-10.5755
代理	-10.5755
层次	-10.5756
更换	-10.5757
就能	-10.5771
百分之一	-10.5773
▁我们对	-10.5781
78	-10.5787
先前	-10.5788
1%。	-10.579
▁委员会建议	-10.579
深信	-10.5793
象征	-10.5794
一段时间	-10.5794
恰	-10.5797
忘记	-10.5813
4000	-10.5814
诉	-10.5817
的生产	-10.5819
基础上	-10.5819
指挥官	-10.5828
会使	-10.5831
绑架	-10.5832
尼亚	-10.5833
的选择	-10.5834
含有	-10.5835
识	-10.5838
国内流离失所者	-10.5843
可靠	-10.5843
范	-10.5844
▁众所周知	-10.5848
男孩	-10.5849
市民的	-10.585
残	-10.585
财政司司长	-10.5851
岛屿	-10.5851
孟加拉国	-10.5852
!"	-10.5855
堡	-10.5855
雾	-10.5855
匈牙利	-10.5855
鬼	-10.5855
羊	-10.5855
困扰	-10.5855
征聘	-10.5855
月中旬	-10.5856
逃离	-10.5856
基准	-10.5857
确	-10.5858
残疾人士	-10.5861
科索沃特派团	-10.5861
快乐	-10.5863
经理	-10.5864
唯一的	-10.5864
一事	-10.5866
提醒市民	-10.5872
也应	-10.5873
宝贵的	-10.5875
的理想	-10.5879
分摊	-10.5881
的修正案	-10.5886
那种	-10.5887
本届会议	-10.5896
方针	-10.59
的人权	-10.5906
将与	-10.5907
也不是	-10.5922
上涨	-10.5922
实力	-10.5924
的风险	-10.5924
搬	-10.5925
站在	-10.5925
的改变	-10.5928
人是	-10.593
并会	-10.5933
▁曾荫权	-10.5937
定为	-10.5937
▁本报告	-10.594
其中一个	-10.5941
专业人员	-10.5943
以免	-10.5944
将对	-10.5948
公安	-10.5953
政府当局	-10.5954
分布	-10.5955
幼儿	-10.5957
的经费	-10.5957
的非	-10.5957
了很多	-10.5959
杯	-10.5962
▁(2)	-10.5962
的成就	-10.5968
并对	-10.5968
翻译	-10.5969
使用者	-10.5972
信托基金	-10.5973
汤	-10.5973
朝鲜半岛	-10.5973
考验	-10.5973
荣誉	-10.5973
私有化	-10.5974
转交	-10.5975
将于明日	-10.5975
军火	-10.5976
发售	-10.5977
日本政府	-10.5978
可望	-10.598
权威	-10.5981
军事观察员	-10.5981
军方	-10.5982
51	-10.5985
和文化	-10.5986
无关	-10.5988
此一	-10.5993
结果显示	-10.5997
各部门	-10.6
过来	-10.6
率为	-10.6001
我们可以	-10.6001
安全问题	-10.6001
培训班	-10.6003
少于	-10.6003
工作者	-10.6007
发言人今日	-10.601
暂	-10.6011
中亚	-10.6012
废	-10.6012
在第	-10.6014
一定会	-10.6019
和平解决	-10.6019
不清楚	-10.6026
现状	-10.6029
则为	-10.603
国防	-10.6034
常设	-10.6037
政府会	-10.6039
更改	-10.604
大量的	-10.604
形式的	-10.6041
初级	-10.6042
有不少	-10.6044
被拘留	-10.6044
各代表团	-10.6048
的职责	-10.6049
播	-10.6052
后续	-10.6052
可是	-10.6058
加工	-10.606
已经在	-10.6067
差别	-10.6071
将成为	-10.6071
亲自	-10.6073
的个人	-10.6073
正好	-10.6075
震	-10.6077
见附件	-10.6078
驶	-10.608
施政	-10.6083
▁据报道	-10.6084
的专业	-10.6084
储	-10.6084
较少	-10.6088
派发	-10.6088
禁运	-10.6088
怪	-10.6089
积极的	-10.6091
逊	-10.6092
锋	-10.6092
拯救	-10.6092
萨尔瓦多	-10.6092
综援	-10.6092
谢谢	-10.6093
陆续	-10.6097
1985	-10.6097
债权人	-10.6098
流通	-10.61
财政预算案	-10.6101
被拘留者	-10.6102
近日	-10.6103
香港邮政	-10.6103
展出	-10.6104
西非	-10.6104
百分之二	-10.6104
可疑	-10.6105
心里	-10.6106
▁9	-10.6106
住所	-10.6106
争论	-10.6107
孩子们	-10.6107
跌幅	-10.611
市场经济	-10.611
制度的	-10.6111
转型	-10.6113
吸收	-10.6114
亚太区	-10.612
达致	-10.6124
民主和	-10.6126
说服	-10.613
强调了	-10.6135
加强了	-10.614
医学	-10.6141
高中	-10.6143
该处	-10.6144
我对	-10.6144
当然是	-10.6147
过去的	-10.6147
一带	-10.6148
▁我们欢迎	-10.6151
二十二	-10.6153
维和行动	-10.6154
召开的	-10.6155
的个案	-10.6155
联合国会员国	-10.6164
中方	-10.617
里的	-10.6175
的市民	-10.6176
三十分	-10.6181
段中	-10.6182
月以来	-10.6183
所造成的	-10.6185
在大会	-10.6187
一片	-10.6187
其他地区	-10.6187
万吨	-10.6187
原因是	-10.6191
宝贵	-10.6192
尊严	-10.6197
秘书长报告	-10.6199
滑	-10.6204
与合作	-10.6209
刑罚	-10.621
货柜	-10.621
什	-10.6211
多谢	-10.6211
祥	-10.6211
非统组织	-10.6212
恐惧	-10.6212
非自治领土	-10.6212
爱滋病	-10.6212
忽略	-10.6212
妥协	-10.6212
智慧	-10.6212
官方发展援助	-10.6212
授予	-10.6213
机械	-10.6213
品质	-10.6214
和支持	-10.6214
是可以	-10.6217
领先	-10.6218
上了	-10.6218
61	-10.6218
疑	-10.6221
公报	-10.6224
订定	-10.6224
也能	-10.6225
很有	-10.6227
盈余	-10.6228
的请求	-10.6231
阿尔	-10.6233
不同意	-10.6233
以至	-10.6237
波动	-10.6238
头部	-10.6245
上次	-10.6245
的斗争	-10.6246
可于	-10.6247
卫生部	-10.625
过度	-10.6252
其中一些	-10.6253
任何国家	-10.6255
房地产	-10.6264
该部	-10.6266
薪酬	-10.6268
做好	-10.6269
大幅度	-10.627
已经成为	-10.6273
大约有	-10.6274
的居民	-10.6277
我不	-10.6277
的全面	-10.6281
第一阶段	-10.6282
与中国	-10.629
法制	-10.6293
与美国	-10.63
以致	-10.6301
规定了	-10.6302
运输署	-10.6305
动机	-10.6309
最重要	-10.631
▁于是	-10.6315
夺	-10.6315
人质	-10.6318
欧元	-10.6321
1970	-10.6322
的工具	-10.6328
前途	-10.633
牧	-10.6332
巧	-10.6332
锦	-10.6333
壁	-10.6334
骂	-10.6334
借此机会	-10.6334
吊	-10.6334
阿拉伯叙利亚共和国	-10.6334
驱逐	-10.6334
秘密	-10.6334
僵局	-10.6334
编辑	-10.6334
课题	-10.6335
售卖	-10.6335
化验	-10.6335
成本效益	-10.6336
求助	-10.6336
宣称	-10.6336
探员	-10.6336
群岛	-10.634
建造业	-10.6345
输往	-10.6345
流离失所者	-10.6346
白俄罗斯	-10.6348
历来	-10.6353
开罗	-10.6353
的想法	-10.6354
多达	-10.6355
向委员会	-10.6356
均衡	-10.636
个星期	-10.6361
但我	-10.6363
附近的	-10.6364
每人	-10.6365
的任期	-10.6366
贸易和	-10.6367
经由	-10.6367
的感觉	-10.6367
熟悉	-10.6368
消防处	-10.6368
▁据报告	-10.6378
▁陈	-10.638
一百五十	-10.6387
的战略	-10.6389
具体的	-10.639
发展权	-10.639
五名	-10.6394
在本港	-10.6396
在这些	-10.6398
▁让我们	-10.6399
▁19	-10.64
▁否则	-10.64
违法	-10.6401
▁毫无疑问	-10.6402
制定的	-10.6405
对伊拉克	-10.6406
的声音	-10.6411
纪	-10.6412
▁(1)	-10.6413
的局面	-10.6418
某个	-10.6418
下令	-10.6422
对所有	-10.6425
最新的	-10.6426
可用	-10.6428
已经开始	-10.6437
120	-10.6443
顾及	-10.6445
低收入	-10.6445
▁8	-10.6445
这种做法	-10.645
教训	-10.645
的立法	-10.6451
应对	-10.6452
兴趣	-10.6454
轨	-10.6454
组织和	-10.6454
篇	-10.6456
经贸	-10.6456
荷	-10.6456
洞	-10.6456
奶	-10.6457
吹	-10.6457
狂	-10.6457
提倡	-10.6458
泳滩	-10.6458
特遣队	-10.6458
缺陷	-10.6458
杀伤地雷	-10.6458
教材	-10.6459
登记册	-10.6459
保守	-10.6459
参选	-10.646
1987	-10.6461
根据第	-10.6462
姓名	-10.6464
制定了	-10.6465
报告的	-10.6467
商务	-10.6467
九八年	-10.6471
犯罪行为	-10.6471
反恐怖主义	-10.6472
南北	-10.6472
两千	-10.6472
毁坏	-10.6472
在今后	-10.6477
的证据	-10.6481
的答复	-10.6482
▁预期	-10.6482
和国家	-10.6486
商会	-10.6487
安全理事会的	-10.6488
不等	-10.6489
缓解	-10.6491
有力	-10.6493
▁调查	-10.6495
是联合国	-10.6497
个小时	-10.6502
谈及	-10.651
接到	-10.6514
污水	-10.6514
手法	-10.6517
的痛苦	-10.6521
时代的	-10.6528
重大的	-10.6528
也就	-10.653
▁德国	-10.6531
父	-10.6533
的数量	-10.6542
履行其	-10.6543
一度	-10.655
劫	-10.6556
年年底	-10.6556
被人	-10.6557
今天的	-10.6557
▁据估计	-10.6562
64	-10.6563
表面	-10.6568
知名	-10.6568
顾	-10.657
人选	-10.657
不容易	-10.6572
一开始	-10.6573
八日	-10.6575
赢	-10.6578
的愿望	-10.6578
丧	-10.6579
和安全	-10.6581
已将	-10.6581
鸿	-10.6582
酸	-10.6583
保加利亚	-10.6583
证监会	-10.6583
部队派遣国	-10.6583
辅助	-10.6583
外国直接投资	-10.6583
电子商务	-10.6584
讲述	-10.6585
借口	-10.6585
亿港元	-10.6586
亲属	-10.6587
既定	-10.6588
对妇女	-10.6588
份额	-10.6591
这件事	-10.6592
在二	-10.6592
我国政府	-10.6592
百分之六	-10.6593
提出建议	-10.6598
厂商	-10.6598
至二	-10.6601
越来越多	-10.6603
审议了	-10.6606
医疗服务	-10.6607
星期	-10.6614
正在进行	-10.6618
▁好	-10.6629
很高兴	-10.6632
的组织	-10.6633
出席了	-10.6636
由政府	-10.6637
对该	-10.6639
在所有	-10.6648
业者	-10.6651
▁如果我们	-10.6659
业的	-10.6659
研究报告	-10.6663
十日	-10.6664
北美	-10.6668
沉重	-10.6668
产生的	-10.6672
政策的	-10.668
效力	-10.6686
弃	-10.6687
警察局	-10.6695
共和国总统	-10.6696
盗	-10.6699
力求	-10.67
可向	-10.6702
稳	-10.6704
黎	-10.6707
珍	-10.6707
侨	-10.6707
玛	-10.6709
辈	-10.6709
啦	-10.6709
大规模毁灭性武器	-10.6709
鸭	-10.6709
刺激	-10.6709
的人民	-10.6709
谨慎	-10.6709
仓库	-10.671
竟然	-10.6711
弹药	-10.6711
这一切	-10.6712
预先	-10.6713
协商一致	-10.6713
的一个重要	-10.6716
使用武力	-10.6717
打破	-10.6719
此案	-10.6726
流量	-10.6727
我们不能	-10.673
所有这些	-10.673
生活的	-10.673
弹性	-10.6731
▁王	-10.6732
国集团	-10.6737
发表了	-10.6738
的暴力	-10.6739
长期以来	-10.6743
约占	-10.6743
和平与	-10.6744
必定	-10.6744
的最佳	-10.6749
▁欧盟	-10.6753
学位	-10.6753
起了	-10.6754
所做的	-10.6754
不准	-10.6761
地方当局	-10.6761
从此	-10.6764
所带来的	-10.6766
角度	-10.6768
的战争	-10.6774
幸	-10.6778
一边	-10.6783
舞台	-10.6794
▁相信	-10.6795
裔	-10.6799
合作伙伴	-10.6801
摆	-10.6803
紧急情况	-10.6804
坦	-10.6806
不对	-10.6809
负有	-10.6811
经济体	-10.6815
第三个	-10.6818
和平与发展	-10.6827
贫	-10.6828
的全球	-10.6828
改造	-10.6829
计划在	-10.6829
病例	-10.683
▁的确	-10.6832
炸	-10.6833
落后	-10.6834
混	-10.6835
扫	-10.6836
栏	-10.6837
刺	-10.6837
劝	-10.6837
养恤金	-10.6837
彭	-10.6837
辐射	-10.6837
幼稚园	-10.6837
隔离	-10.6837
吸毒	-10.6838
经济及社会理事会	-10.6838
奇怪	-10.6838
祝愿	-10.6838
播放	-10.6839
参照	-10.6839
坚信	-10.684
互动	-10.684
航班	-10.684
历史性	-10.684
气温	-10.6841
新技术	-10.6842
环节	-10.6842
标志着	-10.6843
大埔	-10.6844
提问	-10.6844
渔船	-10.6845
并向	-10.6845
问题时	-10.6847
是从	-10.685
迫切需要	-10.685
系列	-10.6854
也可能	-10.6854
非常重视	-10.6856
缩小	-10.6856
老人家	-10.6856
有关资料	-10.6857
挑选	-10.6861
我们都	-10.6862
已向	-10.6864
▁每	-10.6867
税收	-10.6869
▁一旦	-10.6872
在全球	-10.6872
退出	-10.6874
集中于	-10.6876
▁委员会对	-10.6879
遭迂	-10.688
打击恐怖主义	-10.6881
是否有	-10.6889
的部分	-10.689
境内的	-10.6891
的设计	-10.6893
企业家	-10.6894
的市场	-10.6897
该署	-10.69
所提出的	-10.69
我们欢迎	-10.6904
题	-10.6909
社会和	-10.6912
届时	-10.6913
是这样	-10.6915
管理人员	-10.6917
延误	-10.6919
的审议	-10.6929
看待	-10.693
特性	-10.6947
进行研究	-10.6949
毫不	-10.695
屠杀	-10.6955
惊人	-10.6955
请秘书长	-10.6957
伍	-10.6958
这一进程	-10.696
加大	-10.6961
隐	-10.6964
燃	-10.6965
役	-10.6965
实验	-10.6967
奖学金	-10.6967
枝	-10.6967
拥挤	-10.6967
弥补	-10.6967
富裕	-10.6968
制衡	-10.6968
观测	-10.6968
中小企业	-10.6968
色彩	-10.6969
代替	-10.6969
居留权	-10.6969
到目前为止	-10.697
份子	-10.697
玩具	-10.697
海牙	-10.6971
广州	-10.6971
收购	-10.6972
花园	-10.6972
副总理	-10.6973
经常预算	-10.6973
紧张局势	-10.6974
一般人	-10.6975
是最	-10.6976
的企业	-10.6977
和执行	-10.6979
等候	-10.698
分散	-10.698
中立	-10.698
代表在	-10.6981
胜利	-10.6984
基因	-10.6987
能够在	-10.6988
所致	-10.699
执政	-10.699
曾荫权	-10.6991
罪名	-10.6991
月十五日	-10.6992
研	-10.6992
有所增加	-10.6995
上升至	-10.6997
▁很多	-10.7002
今天上午	-10.7006
民主国家	-10.7014
做得	-10.7014
项目的	-10.7015
第三次	-10.7017
学年	-10.7017
的声明	-10.702
领域中	-10.7026
无论是	-10.7026
▁(3)	-10.7026
的同事	-10.7031
三人	-10.7034
危及	-10.7036
境	-10.7036
有两个	-10.704
地图	-10.7041
但仍	-10.7043
山区	-10.7043
喀布尔	-10.7043
可怕的	-10.7048
他们对	-10.7049
的条款	-10.7049
金融市场	-10.7055
达到了	-10.7059
详	-10.7062
够	-10.7063
简报	-10.7064
第三季	-10.7065
策	-10.7065
强大	-10.7069
批出	-10.7072
的时刻	-10.7073
无数	-10.7073
我刚才	-10.7076
85	-10.7077
62	-10.7082
补救	-10.7093
分开	-10.7094
将使	-10.7095
创业	-10.7095
零零	-10.7096
的商业	-10.7097
闹	-10.7098
钢	-10.7098
吓	-10.7098
贤	-10.7099
崩溃	-10.7099
吗	-10.7099
途迳	-10.7099
自决权	-10.7099
毫米	-10.71
议席	-10.71
在台湾	-10.71
题目	-10.7101
修复	-10.7101
1986	-10.7103
警署	-10.7105
讲座	-10.7105
流失	-10.7105
股东	-10.7107
益	-10.7107
排雷行动	-10.7111
的命运	-10.7113
清除	-10.7113
工业化国家	-10.7114
世贸组织	-10.7116
信号	-10.7117
强化	-10.7117
台商	-10.7117
暴行	-10.7119
司法制度	-10.7119
的朋友	-10.7123
特别重视	-10.7124
预防冲突	-10.7126
▁图片	-10.713
拨出	-10.7131
话题	-10.7131
为主	-10.7131
身分	-10.7133
赢得	-10.7134
特权	-10.7134
的孩子	-10.7134
▁我们要	-10.7134
高科技	-10.7135
殖民地	-10.714
尊重人权	-10.7141
西区	-10.7143
最重要的是	-10.7147
时机	-10.7148
国防部	-10.7149
百分之五十	-10.7152
自主	-10.7161
对中国	-10.7162
又有	-10.7165
组成部分	-10.7167
点七	-10.717
的信心	-10.7172
国际和平与安全	-10.7173
认捐	-10.7177
▁无论	-10.7177
▁她们	-10.7187
人家	-10.719
警卫	-10.7191
发展和	-10.7193
文化和	-10.7193
工作方法	-10.7197
拟议	-10.7198
在港	-10.7199
中所	-10.7199
目睹	-10.72
为基础	-10.7201
▁可惜	-10.7204
几十年	-10.7205
有资格	-10.7205
教毓部	-10.7206
在一个	-10.7207
奉	-10.7212
死因	-10.7212
也很	-10.7216
阅	-10.7217
倾	-10.7217
分区域	-10.7217
的保护	-10.722
邻	-10.7221
交付	-10.7222
工作中	-10.7223
明确的	-10.7224
发言人说	-10.7228
相似	-10.7229
模	-10.7229
和平的	-10.7229
卸	-10.723
默	-10.7231
传染	-10.7231
宏	-10.7231
迳	-10.7232
琴	-10.7232
教科文组织	-10.7232
慷慨	-10.7232
共产党	-10.7232
卅	-10.7232
吸蔫	-10.7232
溪	-10.7232
简介	-10.7232
罗马尼亚	-10.7232
宿舍	-10.7232
巡查	-10.7233
的议案	-10.7233
注射	-10.7233
简短	-10.7234
走出	-10.7234
创意	-10.7235
影响力	-10.7235
旅费	-10.7236
机迂	-10.7236
共计	-10.7244
加价	-10.7244
有关方面	-10.7245
任意	-10.7247
的开支	-10.7248
斯特	-10.7251
▁委员会注意到	-10.7252
工业化	-10.7254
中午	-10.7256
一时	-10.7259
新兴	-10.7263
在日内瓦	-10.7266
的难民	-10.727
致使	-10.7273
应予	-10.7275
经营者	-10.7277
早在	-10.7279
收到的	-10.728
化的	-10.7281
不多	-10.7281
的规则	-10.7283
暴力和	-10.7283
宣传活动	-10.7283
和加强	-10.7285
估计数	-10.7288
发展计划	-10.7288
但没有	-10.7291
该问题	-10.7293
健全	-10.7294
款额	-10.7297
大为	-10.73
房屋委员会	-10.7301
上任	-10.7301
意愿	-10.7301
坐在	-10.7309
出发	-10.731
东欧	-10.731
的主要原因	-10.7311
个月内	-10.7314
访问了	-10.7314
取得成功	-10.7314
合法性	-10.7315
作出努力	-10.7321
都不能	-10.7322
由此	-10.7325
环境保护	-10.7325
澳	-10.7332
▁另一个	-10.7333
察	-10.7333
▁但在	-10.7337
的制度	-10.7341
的身份	-10.7343
的最高	-10.7346
制造商	-10.735
69	-10.7351
会上	-10.7352
产品的	-10.7354
▁该公司	-10.7356
妇	-10.736
配额	-10.736
召	-10.7361
拒	-10.7361
那是	-10.7364
祸	-10.7364
贺	-10.7365
伴	-10.7365
消费物价指数	-10.7366
一百一十	-10.7366
耗	-10.7366
翁	-10.7367
昌	-10.7367
铜	-10.7367
前所未有的	-10.7367
塔吉克斯坦	-10.7367
晶	-10.7367
渴望	-10.7367
午	-10.7368
密集	-10.7368
女生	-10.7368
拍卖	-10.7369
演讲	-10.7369
机密	-10.7369
广东省	-10.7371
资源的	-10.7371
58	-10.7372
太太	-10.7374
管理国	-10.7375
常会	-10.7378
政治意愿	-10.7382
首相	-10.7382
食四	-10.7383
行动的	-10.7384
去世	-10.7385
违	-10.7387
四十五	-10.7387
情形	-10.7388
保健服务	-10.7388
大部份	-10.739
▁7	-10.7393
该区	-10.7394
我很	-10.7396
后勤	-10.7397
界别	-10.7397
特设委员会	-10.7397
偿	-10.7402
所提供的	-10.7402
前来	-10.7403
木材	-10.7412
来往	-10.7412
将军	-10.7415
临时立法会	-10.7418
以此	-10.7421
▁索赔人	-10.7425
无效	-10.7427
第十	-10.7435
上周	-10.7436
的业务	-10.7436
人被	-10.7439
社会问题	-10.7453
美元的	-10.7458
每周	-10.7458
不明	-10.7462
执	-10.7463
年起	-10.7465
普通法	-10.7468
该条约	-10.747
对这种	-10.7472
日上午	-10.7472
迹	-10.7479
市场上	-10.7479
提出的问题	-10.7481
▁主席说	-10.7482
不起	-10.7489
很低	-10.7491
税务	-10.7493
中非	-10.7494
深切	-10.7495
劲	-10.7496
▁6	-10.7501
惨	-10.7501
沃	-10.7502
纵	-10.7502
捍卫	-10.7504
脉	-10.7504
坎	-10.7504
盐	-10.7504
友谊	-10.7504
入境事务处	-10.7505
策划	-10.7505
探索	-10.7505
删去	-10.7505
确信	-10.7506
英雄	-10.7506
草拟	-10.7506
和其它	-10.7507
儿童权利公约	-10.7507
访港	-10.7508
计画	-10.7509
回归	-10.751
杀死	-10.751
▁在这个	-10.7511
雇佣军	-10.7513
向他们	-10.7516
原先	-10.7517
余额	-10.7519
长达	-10.7519
管道	-10.7523
应以	-10.7524
经历了	-10.7524
带来的	-10.7525
必要时	-10.7525
▁我还要	-10.7525
内外	-10.7526
几乎所有	-10.7527
▁劳工处	-10.7528
了解到	-10.7533
池	-10.7534
集团的	-10.7536
案中	-10.7538
的兴趣	-10.7538
国王	-10.7539
国际上	-10.7543
国家元首	-10.7544
监督厅	-10.7548
一生	-10.7549
无论如何	-10.755
际	-10.755
这样一个	-10.7551
▁加拿大	-10.7555
与香港	-10.7556
摧毁	-10.7556
日和	-10.7558
说法	-10.7567
巴勒斯坦问题	-10.7567
▁我还	-10.7568
规	-10.7574
的教毓	-10.7576
一九九	-10.7577
▁黄	-10.7579
▁案件	-10.758
肯	-10.7583
影响的	-10.7584
何种	-10.7585
一张	-10.7586
焦点	-10.7588
加重	-10.7591
专利	-10.7595
诸	-10.76
制品	-10.76
这些机构	-10.7603
摊	-10.7605
儿童权利	-10.7605
浮	-10.7612
法律和	-10.7616
的训练	-10.7617
特设	-10.7622
得出	-10.7623
进度	-10.7627
类型	-10.7631
体现了	-10.7635
该决议	-10.7636
手机	-10.7639
和平进程的	-10.7639
晓	-10.7639
水资源	-10.7641
敦	-10.7643
仙	-10.7643
腾	-10.7643
逼	-10.7643
茨	-10.7643
乙	-10.7643
爱沙尼亚	-10.7643
牙买加	-10.7643
脂	-10.7643
一九六	-10.7643
四名	-10.7643
进攻	-10.7644
保卫	-10.7645
黑色	-10.7645
问卷	-10.7645
新闻稿	-10.7645
找不到	-10.7646
建立的	-10.7647
射击	-10.7647
定居点	-10.7648
▁我们将	-10.7649
色情	-10.765
和促进	-10.7652
除外	-10.7652
月十二日	-10.7653
私营机构	-10.7654
商机	-10.7663
能在	-10.7666
的意义	-10.7668
学家	-10.7669
举办的	-10.7671
有更多	-10.7671
已经有	-10.7675
走上	-10.7682
不治	-10.7684
绝不能	-10.7685
89	-10.7686
穷	-10.7686
金融危机	-10.7691
三十五	-10.7695
▁警方今	-10.7698
执行情况	-10.7702
总会	-10.7703
八年	-10.7704
涉及到	-10.7711
人群	-10.7711
在执行	-10.7713
88	-10.7715
▁这方面	-10.7715
▁在这些	-10.7718
生活水平	-10.7721
目的地	-10.7722
常规	-10.7723
是美国	-10.7724
讯息	-10.7726
把他	-10.7728
须要	-10.7728
珠	-10.7731
大门	-10.7732
▁他在	-10.7732
有信心	-10.7736
筹	-10.7738
00	-10.7738
到底	-10.7741
亦已	-10.7741
政府认为	-10.7742
前线	-10.7743
负债	-10.7743
社会保障	-10.7744
小说	-10.7745
▁古巴	-10.7745
▁这类	-10.775
年为	-10.7752
普遍性	-10.7757
丰富的	-10.7758
受到了	-10.7761
了大量	-10.7761
高速	-10.7762
公里的	-10.7763
市民对	-10.7763
实现和平	-10.7763
附属	-10.7765
有关当局	-10.7767
愈来愈	-10.7768
8000	-10.7768
迫切	-10.7771
的高	-10.7771
峰	-10.7772
这是一个	-10.7774
添	-10.7776
伙	-10.7778
粮	-10.7781
毁灭	-10.7783
幢	-10.7783
笼	-10.7784
火箭	-10.7784
陶	-10.7784
沈	-10.7784
拉丁美洲和加勒比	-10.7784
毅	-10.7784
奋斗	-10.7784
融合	-10.7784
1500	-10.7784
搜索	-10.7784
开拓	-10.7785
货运	-10.7785
冬季	-10.7785
探访	-10.7785
抵抗	-10.7785
港府	-10.7785
10%。	-10.7786
在当地	-10.7787
奉行	-10.7787
特别关注	-10.7789
季节	-10.7789
试验计划	-10.779
过了	-10.779
防火	-10.779
往往是	-10.779
真相	-10.7793
种族岐视	-10.7794
专用	-10.7798
咨询文件	-10.7798
响应	-10.7799
他认为	-10.7799
发电	-10.7801
一一	-10.7802
日举行	-10.7803
我们是	-10.7804
而定	-10.7805
好象	-10.7807
▁英国	-10.781
的候选人	-10.7811
提案国	-10.7812
采取步骤	-10.7812
缺点	-10.7813
的详细	-10.7813
有用	-10.7814
播出	-10.7824
的心情	-10.7824
想到	-10.7824
胡锦涛	-10.783
杀人	-10.7836
如同	-10.7838
订明	-10.7838
都已	-10.784
任何其他	-10.7842
庞大的	-10.7846
所能	-10.7848
危	-10.7848
有罪	-10.7849
脱离	-10.7851
取得的进展	-10.7852
的工资	-10.7856
在发展中国家	-10.7857
有不同	-10.7858
营商	-10.7859
空运	-10.786
影片	-10.7864
韩	-10.7865
来的	-10.7865
战胜	-10.7865
落成	-10.7874
现在已经	-10.7874
千年	-10.788
越多	-10.7881
太阳	-10.7885
所有其他	-10.7885
六个	-10.7887
95	-10.7891
香港作为	-10.7891
同时也	-10.7899
就职	-10.79
秘书长特别代表	-10.7901
的倡议	-10.7905
法律援助	-10.7905
府	-10.7907
季度	-10.7908
的积极	-10.7911
国际公约	-10.7913
志愿	-10.7915
79	-10.7919
还指出	-10.792
就没有	-10.7921
九年	-10.7921
王国	-10.7922
摩	-10.7924
该缔约国	-10.7924
喉	-10.7926
胎	-10.7927
莫桑比克	-10.7927
□	-10.7927
遂	-10.7927
斜坡	-10.7927
船舶	-10.7927
拓展	-10.7927
借贷	-10.7927
屍体	-10.7927
支柱	-10.7927
夫妻	-10.7927
自由化	-10.7928
仪器	-10.7929
审批	-10.7929
行程	-10.7929
假定	-10.7932
场合	-10.7934
优秀	-10.7935
感情	-10.7935
乐意	-10.7938
实在是	-10.794
▁这里	-10.7941
自身	-10.7941
给他	-10.7943
无辜平民	-10.7945
建成	-10.7946
来处理	-10.7948
街道	-10.7951
机构和	-10.7952
高级官员	-10.7953
百万	-10.7953
上限	-10.7955
▁其余	-10.7956
在全世界	-10.796
游泳	-10.7961
高峰	-10.7962
根除	-10.7962
受到影响	-10.7965
香港特区	-10.7966
不仅是	-10.7972
的交通	-10.7973
生产者	-10.7975
嗯	-10.7978
(1)	-10.7983
声音	-10.7985
一本	-10.7988
可行的	-10.7993
的意思	-10.7998
材	-10.8
少女	-10.8002
该方案	-10.8004
投票权	-10.8006
的人道主义	-10.8008
统计数字	-10.801
完整	-10.8011
重案组	-10.8012
▁我国政府	-10.8031
全体会议	-10.8037
性质的	-10.8038
效益	-10.8043
▁我们在	-10.8046
▁俄罗斯联邦	-10.8056
的方向	-10.8057
96	-10.8062
骚扰	-10.8064
操	-10.8066
许多地区	-10.8069
柏	-10.807
碎	-10.8071
喷	-10.8072
诱	-10.8072
杀伤人员地雷	-10.8072
申报	-10.8072
积金局	-10.8072
困境	-10.8072
▁林	-10.8072
慈善	-10.8072
邮件	-10.8072
干旱	-10.8073
精彩	-10.8073
精简	-10.8073
镇压	-10.8073
燃油	-10.8073
报酬	-10.8073
充分的	-10.8073
撤回	-10.8074
高雄	-10.8075
代表团团长	-10.8075
恐怖主义行为	-10.8076
▁总之	-10.8077
村民	-10.808
也需要	-10.808
出庭	-10.8082
水域	-10.8083
在欧洲	-10.8084
完全是	-10.8084
必须确保	-10.8088
以及其他	-10.809
▁迄今为止	-10.8095
▁若干	-10.8098
深远	-10.8099
重要性	-10.8103
的分析	-10.8105
卫生组织	-10.8106
农业部门	-10.811
身为	-10.8112
针	-10.8114
▁凡	-10.8118
其中有	-10.8121
敌对	-10.8122
不了	-10.8126
高级专员	-10.8127
提及的	-10.8127
既然	-10.813
主人	-10.8133
第二阶段	-10.8134
所载	-10.8135
所有权	-10.8137
潜	-10.814
不断增加	-10.8142
不包括	-10.8143
去了	-10.8147
进行合作	-10.815
艘	-10.8154
案件中	-10.8154
想像	-10.8157
有益	-10.816
▁基于	-10.8168
一个月	-10.8168
的某些	-10.8169
决定性	-10.817
提到了	-10.8174
到来	-10.8174
▁看来	-10.8175
家里	-10.8176
独立专家	-10.8176
的对话	-10.8176
将可	-10.8178
未成年人	-10.8179
设立的	-10.8184
▁澳大利亚	-10.8186
以外的	-10.8187
生产和	-10.8189
在日本	-10.8195
学校的	-10.8197
一同	-10.8203
公营	-10.8211
邻近	-10.8212
饮食	-10.8213
竞	-10.8216
窗	-10.8216
介乎	-10.8218
柱	-10.8218
胶	-10.8219
徐	-10.8219
克什米尔	-10.8219
联塞特派团	-10.8219
合併	-10.8219
聆讯	-10.8219
频繁	-10.8219
鸦片	-10.8219
消耗	-10.8219
拍摄	-10.8219
宽容	-10.822
环境中	-10.822
发出的	-10.822
外界	-10.8221
购物	-10.8222
阵线	-10.8222
二十二日	-10.8223
住院	-10.8225
选定	-10.8225
可以看到	-10.8225
校园	-10.8226
等方面	-10.8227
农产品	-10.8227
信件	-10.8227
67	-10.8228
亚太地区	-10.823
报警	-10.823
更好地	-10.823
委员会认为	-10.8233
合作关系	-10.8237
项目厅	-10.8237
房子	-10.8237
年青人	-10.8238
并与	-10.8238
确切	-10.8238
空袭	-10.8238
灵活性	-10.8239
海军	-10.8243
带头	-10.8243
上诉法院	-10.8245
另一项	-10.8246
本月	-10.8246
希望能	-10.8254
聚会	-10.8258
长期的	-10.8259
经常性	-10.826
这些努力	-10.8264
提交的	-10.8264
▁但我们	-10.8267
的决议草案	-10.8267
淡	-10.8271
▁再	-10.8275
日常生活	-10.8276
是什么	-10.8283
实用	-10.8287
一代	-10.8289
本身就	-10.8289
九九年	-10.8289
的障碍	-10.829
对儿童	-10.8294
恰当	-10.8297
是如何	-10.8298
售价	-10.8301
似乎是	-10.8303
假如	-10.8304
日下午	-10.8312
这项计划	-10.8314
市政	-10.8315
状湟	-10.8315
的产品	-10.8317
看不到	-10.8321
的区域	-10.8325
▁阿富汗	-10.8327
西北	-10.8327
决定将	-10.8329
最好的	-10.833
我们现在	-10.833
▁11	-10.8333
桶	-10.8337
发展局	-10.8337
渡	-10.8341
法庭的	-10.8342
伊拉克的	-10.8343
年上半年	-10.8343
染	-10.8344
苦难	-10.8344
本着	-10.8355
努	-10.8359
定罪	-10.8362
详尽	-10.8365
牵	-10.8366
薄	-10.8367
考察	-10.8367
绕	-10.8367
闲	-10.8368
民政事务处	-10.8368
糟糕	-10.8368
民建联	-10.8368
罐	-10.8368
嘴	-10.8368
悲惨	-10.8368
违规	-10.8368
标签	-10.8369
气候变化	-10.837
故意	-10.8371
科研	-10.8372
前夕	-10.8373
延期	-10.8373
联合国和	-10.8374
观光	-10.8374
我请	-10.8374
大臣	-10.8375
降至	-10.8376
我说	-10.8376
分配给	-10.8377
核实	-10.8378
期内	-10.8382
中国代表团	-10.8382
言论自由	-10.8385
一座	-10.8389
过去两年	-10.8392
科学家	-10.8392
并为	-10.8394
小朋友	-10.8395
让他	-10.8396
的角度	-10.84
台风	-10.8401
因为他	-10.8401
散发	-10.8402
事件发生	-10.8406
特别重要	-10.841
演习	-10.8411
成立以来	-10.8413
想法	-10.8414
会导致	-10.8415
百分之八十	-10.8421
▁一般	-10.8426
有几	-10.8426
妇女参与	-10.8427
所需要的	-10.8429
百分之四十	-10.843
名称	-10.8433
问责制	-10.8438
会影响	-10.8439
日子	-10.8439
裂	-10.844
爱国	-10.844
我们看到	-10.8441
这个目标	-10.8443
两个月	-10.8444
▁该报告	-10.8445
的投诉	-10.8447
报章	-10.8449
国际恐怖主义	-10.8454
该国的	-10.8455
很小	-10.8455
触	-10.8455
一方面	-10.8457
以确定	-10.8458
▁开发计划署	-10.8458
直选	-10.8459
生活中	-10.8463
就不可能	-10.8463
本条	-10.8466
时间内	-10.8469
伸	-10.8475
在一九九九年	-10.8476
忘	-10.8476
将被	-10.8481
国有	-10.8481
250	-10.8486
和第	-10.8487
乎	-10.8487
概述	-10.8488
月十四日	-10.8491
缩	-10.8491
高兴地	-10.8491
经济转型	-10.8498
透	-10.8501
采取的	-10.8502
提到的	-10.8503
的危机	-10.8505
国际法庭	-10.8508
票价	-10.8509
湟	-10.8514
优质	-10.8516
耐	-10.8516
霸	-10.8516
泛	-10.8518
跃	-10.8519
漏	-10.8519
浅	-10.8519
君	-10.8519
津巴布韦	-10.852
立陶宛	-10.852
绳	-10.852
纾缓	-10.852
轰炸	-10.852
扮演	-10.852
循环	-10.852
细菌	-10.852
缩减	-10.8521
我们已经	-10.8521
夫妇	-10.8521
纺织品	-10.8521
幸福	-10.8521
当事人	-10.8522
刊物	-10.8522
控诉	-10.8523
信念	-10.8523
测量	-10.8523
难免	-10.8524
接待	-10.8524
处置	-10.8526
一国	-10.8526
1983	-10.8527
批发	-10.8528
的经济发展	-10.8529
债务人	-10.8529
女人	-10.853
发表意见	-10.8532
主动行动	-10.8535
通货膨胀率	-10.8536
中期计划	-10.8536
全额	-10.8536
国家机构	-10.8538
强行	-10.8539
根源	-10.8541
饮用水	-10.8542
文物	-10.8543
在各	-10.8543
在阿富汗	-10.8547
这位	-10.8548
引用	-10.8549
将根据	-10.8552
人道	-10.8552
后续行动	-10.8553
令人担忧	-10.8555
表示赞赏	-10.8555
不难	-10.8559
加深	-10.8563
的培训	-10.8565
所属	-10.8565
的中心	-10.8567
更高	-10.8568
内政	-10.8571
所在地	-10.8571
的大部分	-10.8573
的成绩	-10.8573
诊	-10.8574
省份	-10.8575
被剥夺	-10.8581
美国和	-10.8582
好转	-10.8586
不可以	-10.8588
极为重要	-10.8592
进修	-10.8595
真实	-10.86
选举委员会	-10.8608
和协调	-10.861
是通过	-10.8611
押	-10.8612
前后	-10.8617
▁迄今	-10.8621
每个人	-10.8621
丝	-10.8622
在去年	-10.8622
充足	-10.8623
和保护	-10.8624
82	-10.8624
虚	-10.8625
关押	-10.8639
生活方式	-10.8639
▁正是	-10.8641
.4%。	-10.8641
都需要	-10.8642
的修订	-10.8644
划分	-10.8646
克拉	-10.8647
香港的经济	-10.8648
赞	-10.865
早就	-10.8653
儿童和	-10.8654
烈	-10.8661
不顾	-10.8662
议事规则	-10.8666
感到关切	-10.8668
契	-10.8669
焦	-10.8669
轮候	-10.8671
民进党	-10.8673
阿布哈兹	-10.8673
发病率	-10.8673
肠	-10.8673
壳	-10.8673
咖啡	-10.8673
免疫	-10.8674
培毓	-10.8674
爵士	-10.8674
阴影	-10.8674
人类住区	-10.8674
振兴	-10.8674
一九九四年	-10.8674
害怕	-10.8674
模型	-10.8674
遥感	-10.8674
充份	-10.8675
夏季	-10.8675
混合	-10.8675
支配	-10.8675
离婚	-10.8675
分担	-10.8675
难题	-10.8675
跨越	-10.8675
少数群体	-10.8676
创伤	-10.8676
急需	-10.8678
棒	-10.8678
两百	-10.8678
构想	-10.8678
外地办事处	-10.868
高龄	-10.8681
格式	-10.8684
解决争端	-10.8685
传真	-10.8689
局局长	-10.869
条款草案	-10.8692
把这些	-10.8692
深深	-10.8693
全民	-10.8693
者和	-10.8698
转入	-10.87
只不过是	-10.8703
多方面	-10.8704
军官	-10.8706
的结构	-10.8711
熟	-10.8715
地上	-10.8718
的详情	-10.8718
应是	-10.8718
公约草案	-10.8721
自由和	-10.8721
可以通过	-10.8722
法文	-10.8726
占有	-10.8727
140	-10.8727
武器的	-10.8728
提议的	-10.873
证明了	-10.8732
往来	-10.8736
或是	-10.8737
长的	-10.8742
的动议	-10.8744
成分	-10.8745
社会和经济	-10.8746
向其	-10.8746
本会	-10.8749
最严重	-10.875
的地点	-10.8753
极大的	-10.876
现时的	-10.8762
文章	-10.8762
目前正	-10.8764
的日期	-10.8768
农业和	-10.877
工商界	-10.8773
有关人士	-10.8774
积极参加	-10.8774
的袭击	-10.8779
完全没有	-10.878
的空间	-10.8782
失去了	-10.8782
发现了	-10.8783
民航	-10.8788
被控	-10.8789
是次	-10.879
亚太	-10.8791
它在	-10.8794
的好处	-10.8796
届会	-10.8798
肩	-10.8799
在许多	-10.8803
提起	-10.8803
的现实	-10.8804
向大会	-10.8805
63	-10.8806
学科	-10.8816
年里	-10.8819
的家属	-10.8823
济	-10.8826
宿	-10.8826
的真正	-10.8826
宇	-10.8828
纺织	-10.8828
给他们	-10.8829
▁来自	-10.8829
缓和	-10.8829
总监	-10.8829
储蓄	-10.883
国际刑事法院	-10.883
墨	-10.883
俩	-10.883
疟疾	-10.883
吉尔吉斯斯坦	-10.883
光碟	-10.883
伪造	-10.883
展望	-10.8831
港币	-10.8831
扇动	-10.8831
实验室	-10.8831
推翻	-10.8831
征求	-10.8832
声援	-10.8832
水浸	-10.8832
吃饭	-10.8832
家禽	-10.8832
放松	-10.8833
附加	-10.8834
.0%	-10.8834
1979	-10.8834
检察官办公室	-10.8835
演员	-10.8835
中部	-10.8836
画家	-10.884
缴款	-10.8841
的迹象	-10.8846
销售额	-10.8847
入学	-10.8849
有所改善	-10.8852
罗马	-10.8852
该委员会	-10.8853
稳定部队	-10.8857
83	-10.8857
空军	-10.8859
时常	-10.886
应变	-10.8863
不满意	-10.8863
诚意	-10.887
的贸易	-10.8871
有关问题	-10.8872
可以说是	-10.8873
的经历	-10.8874
的动机	-10.8877
关系的	-10.8884
促	-10.8886
火车	-10.8892
两份	-10.8893
狱	-10.89
意志	-10.89
就不会	-10.89
的若干	-10.8916
的节目	-10.8916
皇家	-10.8916
决策者	-10.8917
的增加	-10.8917
的故事	-10.892
政府和人民	-10.892
没有必要	-10.892
特使	-10.8921
▁我深信	-10.8929
所有会员国	-10.893
任务期限	-10.8931
是不会	-10.8931
增长了	-10.8932
东区	-10.8933
走了	-10.8934
一部	-10.8935
不扩散条约	-10.8936
▁我们现在	-10.8936
作法	-10.8939
年开始	-10.894
的期望	-10.894
研究和	-10.894
是正确的	-10.8945
不能够	-10.8948
▁墨西哥	-10.8951
就是说	-10.8952
便可以	-10.8953
以及在	-10.8954
分离	-10.8954
86	-10.8955
税率	-10.8959
中国人民	-10.8959
第二天	-10.896
充满了	-10.8961
警察和	-10.8962
国务院	-10.8963
冠军	-10.8963
第五委员会	-10.8965
还未	-10.8968
于今年	-10.897
潜在	-10.8972
陷	-10.8972
判处	-10.8972
转为	-10.8973
强积金	-10.8976
的结论	-10.898
泉	-10.8984
敢	-10.8984
达成的	-10.8984
饱	-10.8984
凶	-10.8985
艇	-10.8987
多样性	-10.8988
寿	-10.8988
怨	-10.8988
如果我们	-10.8988
三点	-10.8988
的控制	-10.8988
欧安组织	-10.8988
不扩散核武器条约	-10.8988
贯彻	-10.8988
食环署	-10.8988
记忆	-10.8989
皮肤	-10.8989
法兰克福机场	-10.8989
切勿	-10.8989
兴奋	-10.8989
召集	-10.8989
巿民	-10.8989
卡塔尔	-10.8989
承包商	-10.899
桥梁	-10.899
傍晚	-10.899
体验	-10.899
轻松	-10.899
令人满意	-10.8991
回返	-10.8992
为每	-10.8992
环境规划署	-10.8992
非正式协商	-10.8993
期待着	-10.8994
亦应	-10.8995
发牌	-10.8996
施行	-10.8996
农场	-10.8996
净额	-10.8997
环保署	-10.8999
的对象	-10.8999
入学率	-10.9002
应急	-10.9005
单元	-10.9006
大麻	-10.9006
内陆	-10.9006
裁员	-10.9007
▁代理主席	-10.9007
上文第	-10.901
的重大	-10.9017
事态发展	-10.9019
新闻自由	-10.9021
明智	-10.9024
的事项	-10.9031
首要	-10.9031
而又	-10.9033
一周	-10.9033
委员会审议	-10.9034
与会	-10.9036
哪里	-10.9037
几位	-10.9039
番	-10.9042
它将	-10.9044
国别	-10.9045
保护人权	-10.9047
来了	-10.9049
控告	-10.9052
名单上	-10.9059
职权	-10.906
间的	-10.906
重要作用	-10.9064
解决方案	-10.9064
塞族人	-10.9066
地域	-10.9074
多年的	-10.9084
国际标准	-10.9084
由于缺乏	-10.9084
联合国机构	-10.9085
现在是	-10.9085
的解释	-10.9088
12.	-10.9089
香港特别行政区政府	-10.9089
和经济	-10.909
有限的	-10.909
的制裁	-10.9093
开了	-10.9095
的质量	-10.9095
组别	-10.9096
企	-10.9097
提交报告	-10.9097
这个世界	-10.91
许多发展中国家	-10.91
分工	-10.9101
事后	-10.9103
是世界	-10.9104
是妇女	-10.9105
的另一	-10.9105
进行谈判	-10.9107
该决议草案	-10.9107
一个国家	-10.9108
该中心	-10.9108
几百	-10.911
下台	-10.9114
撤	-10.9118
政制	-10.912
工作地点	-10.9122
作家	-10.9126
百分之八	-10.913
上班	-10.9131
大学的	-10.9132
心中	-10.9133
与内地	-10.9134
植	-10.9135
的官员	-10.9136
申	-10.9138
则有	-10.914
最早	-10.9141
亿人	-10.9142
岁月	-10.9142
常任理事国	-10.9142
序	-10.9142
转向	-10.9142
并已	-10.9143
个国家的	-10.9143
专责	-10.9145
川	-10.9145
圣诞	-10.9146
陪同	-10.9147
插	-10.9147
函	-10.9147
循	-10.9149
畅	-10.9149
纷	-10.9149
抛	-10.9149
寸	-10.915
喀麦隆	-10.915
凤	-10.915
外层空间	-10.915
防御	-10.915
温暖	-10.915
积累	-10.915
习俗	-10.915
加沙地带	-10.915
慢慢	-10.915
解除武装	-10.9151
餐厅	-10.9151
都将	-10.9152
创立	-10.9152
潮流	-10.9152
航运	-10.9153
的领域	-10.9153
得悉	-10.9154
1976	-10.9154
供资	-10.9154
西欧	-10.9155
受影响的	-10.9156
会费	-10.9156
专责小组	-10.9156
身穿	-10.9157
公告	-10.9157
示范法	-10.9157
法律制度	-10.9158
一律	-10.9159
公然	-10.9159
自由贸易	-10.9159
发挥作用	-10.9161
当时的	-10.9161
的销售	-10.9161
的待迂	-10.9163
南极	-10.9165
这不是	-10.9165
的巨大	-10.9167
证实死亡	-10.917
应根据	-10.9173
而且还	-10.9174
重组	-10.9175
均为	-10.9176
商品价格	-10.9177
的首要	-10.9177
如果没有	-10.9177
相同的	-10.9178
前提	-10.9179
说得	-10.9181
指明	-10.9182
二七	-10.9186
时至	-10.9187
拿出	-10.9188
该公约	-10.9189
的男子	-10.9194
学童	-10.9196
▁多年来	-10.9198
开展了	-10.9202
国民议会	-10.9203
▁政府今日	-10.9205
应有	-10.9206
资深	-10.9209
同联合国	-10.9212
签	-10.9213
激	-10.9213
二三	-10.9214
审查了	-10.9214
▁在本报告所述期间	-10.9215
提出的建议	-10.9218
就是要	-10.9219
必须得到	-10.9223
演变	-10.9223
证件	-10.9223
▁刘	-10.9224
如果不	-10.9224
是不是	-10.9225
的决心	-10.9226
受过	-10.923
千九百	-10.923
海港	-10.9231
无限	-10.9232
的根本	-10.9233
连同	-10.9233
游说	-10.9235
程度的	-10.9236
三项	-10.9237
▁南非	-10.9238
社会中	-10.9242
政府间	-10.9244
▁当前	-10.9254
可能导致	-10.9256
该机构	-10.9257
的福利	-10.9258
收到了	-10.9259
极其重要	-10.9262
都应	-10.9262
即便	-10.9264
的不同	-10.9265
但也	-10.9267
▁监督厅	-10.9267
趋	-10.927
的有效	-10.927
批准了	-10.9271
一百零	-10.9274
▁第五	-10.9274
涨	-10.9275
均有	-10.9275
导致了	-10.9278
▁挪威	-10.9283
他们是	-10.9283
民主的	-10.9283
当地的	-10.9284
的决策	-10.9285
提供的资料	-10.9285
均可	-10.9293
通过其	-10.9295
联合国大学	-10.9298
足球	-10.9298
更好	-10.9299
▁不幸的是	-10.93
子弹	-10.93
利益的	-10.9301
获得通过	-10.9301
提前	-10.9302
▁这些措施	-10.9303
辩	-10.9304
情湟下	-10.9305
填	-10.9308
蔫	-10.9309
所有的	-10.9309
▁全球化	-10.9311
棉	-10.9312
本区域	-10.9312
赏	-10.9312
寿命	-10.9312
塘	-10.9313
瓶	-10.9313
坑	-10.9314
涂	-10.9314
玻璃	-10.9314
2000-2001	-10.9314
▁换句话说	-10.9314
吕	-10.9314
巴拿马	-10.9314
相互依存	-10.9314
终审法院	-10.9314
葵涌	-10.9314
舱	-10.9314
遵循	-10.9314
阐明	-10.9314
寺	-10.9314
捐赠	-10.9314
诉诸	-10.9314
昂贵	-10.9314
干扰	-10.9314
回忆	-10.9314
中华民国	-10.9314
基督教	-10.9315
婴儿死亡率	-10.9315
逗留	-10.9315
误解	-10.9315
捷克共和国	-10.9315
国内生产总值	-10.9315
小岛屿发展中国家	-10.9315
达成共识	-10.9315
饮水	-10.9316
常规武器	-10.9316
犯有	-10.9317
迁移	-10.9317
晋升	-10.9317
在整个	-10.9322
立法机关	-10.9322
▁海关	-10.9322
高出	-10.9328
晨	-10.933
的气氛	-10.9331
我们还	-10.9332
中等	-10.9333
共同体	-10.9333
关岛	-10.9334
日渐	-10.9334
认定	-10.9335
东方	-10.9336
运动员	-10.9336
上帝	-10.9336
采矿	-10.9337
这对	-10.9338
行动者	-10.934
犯罪活动	-10.9341
当代	-10.9342
主要是由于	-10.9343
这些地区	-10.9346
主体	-10.9348
五十五	-10.9348
典	-10.9349
马拉	-10.9357
合作社	-10.936
九四	-10.9369
总局	-10.937
明显的	-10.9371
已是	-10.9373
令人鼓舞	-10.9377
的条文	-10.9378
被称为	-10.938
人们对	-10.9381
等地	-10.9385
84	-10.9387
区域的	-10.9387
参与了	-10.9392
恢复正常	-10.9393
个案件	-10.9394
民主制度	-10.9395
最多的	-10.9395
核问题	-10.9399
后代	-10.9399
的资产	-10.9402
会出现	-10.9403
仅有	-10.9411
欠款	-10.9413
的时间内	-10.9414
管理委员会	-10.9415
部队的	-10.9415
仔	-10.9416
的规模	-10.9416
她们的	-10.9419
行政部门	-10.9419
他自己	-10.9423
的准则	-10.9425
要求赔偿	-10.9428
我感谢	-10.9431
三十一	-10.9432
11%	-10.9433
最近在	-10.9434
调查工作	-10.9435
的思想	-10.9438
温和	-10.944
的过程中	-10.9441
我现在	-10.9446
见面	-10.9447
迎	-10.9447
监测和	-10.9451
另一些	-10.9453
因为我们	-10.9455
深受	-10.9455
87	-10.9456
不行	-10.9457
有机	-10.946
截	-10.9461
家庭暴力	-10.9462
并希望	-10.9464
生活条件	-10.9467
▁我也	-10.9467
有关人员	-10.947
参赛	-10.9472
订单	-10.9472
式的	-10.9476
代表发言	-10.9476
究	-10.9478
利亚	-10.9479
阔	-10.9479
磨	-10.948
备忘录	-10.948
政务司司长	-10.948
猛	-10.948
豆	-10.948
腿	-10.948
潘	-10.948
浏览	-10.948
贝尔格莱德	-10.948
大屿山	-10.948
舰	-10.948
内罗毕	-10.948
恒	-10.948
黑塞哥维那	-10.948
锅	-10.948
渔农处	-10.948
牵涉	-10.948
闭幕	-10.9481
递	-10.9481
宣读	-10.9481
暗杀	-10.9481
观塘	-10.9481
老百姓	-10.9481
购置	-10.9481
预备	-10.9482
委托	-10.9483
核查团	-10.9484
与政府	-10.9486
签署的	-10.9487
流血	-10.9487
幸运	-10.9487
贝尔	-10.9488
图像	-10.949
老板	-10.9491
开始时	-10.9492
版权	-10.9492
的感受	-10.9492
会否	-10.9493
该批	-10.9493
细则	-10.9497
提供资料	-10.95
经济状况	-10.9501
5%。	-10.9504
行业的	-10.9507
的提议	-10.951
为例	-10.9513
危险的	-10.9514
妇女和	-10.9516
▁巴西	-10.9517
无视	-10.9518
高昂	-10.9518
的稳定	-10.952
提供有关	-10.9521
我们就	-10.9523
日期间	-10.9524
不宜	-10.9525
补助	-10.9528
阳光	-10.9528
附有	-10.9534
这将	-10.9536
北区	-10.9539
所指的	-10.9541
我们需要	-10.9543
东帝汶人民	-10.9545
严重关切	-10.9545
财政资源	-10.9547
于今日	-10.9548
显然是	-10.9549
不公平	-10.9551
备受	-10.9552
有很大	-10.9554
小巴	-10.9555
有大量	-10.9556
惜	-10.9559
提出申请	-10.956
行政长官董建华	-10.956
周围	-10.9561
天然	-10.9561
根本不	-10.9561
一人	-10.9563
的适当	-10.9564
没有理由	-10.9564
生产国	-10.9564
本年	-10.9564
数千	-10.9569
停车	-10.9569
占地	-10.957
会对	-10.9572
在亚洲	-10.9575
非政府	-10.9577
对社会	-10.9579
学费	-10.958
▁10	-10.9582
军事人员	-10.9587
▁第一个	-10.9591
一番	-10.9592
▁我们知道	-10.9596
▁如果没有	-10.9596
拆	-10.9608
为基础的	-10.9608
副部长	-10.9609
年度报告	-10.9615
和国际社会	-10.9616
通往	-10.9616
三十年	-10.9616
告诉我们	-10.9617
平台	-10.9619
搭	-10.9619
多位	-10.9623
的特点	-10.9624
处决	-10.9625
疾病的	-10.9625
130	-10.9625
首先是	-10.9625
煤	-10.963
一名男子	-10.9631
检察	-10.9632
手中	-10.9635
▁出席	-10.9635
宪	-10.9636
新生	-10.9638
正规	-10.9638
姓	-10.9639
十九岁	-10.964
常见	-10.9641
频	-10.9642
新增	-10.9642
违例	-10.9642
拔	-10.9646
袭	-10.9646
派别	-10.9647
署署长	-10.9648
书记官长	-10.9649
悬	-10.9649
屏	-10.965
雅加达	-10.965
大不列颠及北爱尔兰联合王国	-10.965
近东救济工程处	-10.965
愉快	-10.965
谭	-10.965
招募	-10.965
配偶	-10.965
救灾	-10.965
晚宴	-10.9651
邻居	-10.9651
规章	-10.9651
防范	-10.9651
对这一	-10.9652
缴纳	-10.9652
同胞	-10.9653
精英	-10.9653
创建	-10.9653
崇高	-10.9653
反过来	-10.9654
压制	-10.9655
交换意见	-10.9655
盗版	-10.9655
修建	-10.9656
发觉	-10.9656
报复	-10.9656
带领	-10.9656
公务	-10.9657
属实	-10.9658
一九九一年	-10.9659
小型武器	-10.9663
▁而在	-10.9665
无需	-10.9666
十分重视	-10.9666
的专家	-10.9669
过去三年	-10.967
请允许我	-10.967
善用	-10.9671
各国的	-10.9673
一般性辩论	-10.9673
1960	-10.9675
家具	-10.9681
一组	-10.9682
的广泛	-10.9686
的失业率	-10.9689
主持人	-10.9689
实际上是	-10.9693
体重	-10.9693
欧洲国家	-10.9697
将于二	-10.9702
可以看出	-10.9703
20%。	-10.9708
▁这就	-10.9711
处处	-10.9713
把它	-10.9716
进出	-10.9717
观看	-10.9718
平均每	-10.9719
作进一步	-10.9719
的焦点	-10.972
总数的	-10.9721
也都	-10.9724
工作人员的	-10.9738
交易所	-10.9739
的母亲	-10.9739
有多少	-10.9743
作战	-10.9744
必须有	-10.9745
岁以上的	-10.9746
可能需要	-10.9747
应考虑	-10.9752
▁第二个	-10.9752
淡水	-10.9757
进行审查	-10.976
宗旨	-10.9763
咨询服务	-10.9765
令我们	-10.9766
不承认	-10.9768
很简单	-10.9768
社会各界	-10.9769
的实质	-10.9769
工程师	-10.9774
态	-10.9775
很清楚	-10.9775
不让	-10.9778
出席会议	-10.9779
▁新西兰	-10.978
迹象	-10.9782
为实现	-10.9789
▁1991	-10.9793
的竞争	-10.9794
的议员	-10.9796
已从	-10.9796
角度来看	-10.9797
渐	-10.9798
动作	-10.9801
银行业	-10.9801
攻	-10.9804
和人权	-10.9806
坊	-10.9806
在同一	-10.9807
码	-10.9807
而来	-10.9807
誉	-10.981
粮食计划署	-10.9811
▁白俄罗斯	-10.9812
沿海	-10.9813
健康的	-10.9814
乐团	-10.9815
偶	-10.9816
遗产	-10.9817
房地	-10.9818
粒	-10.9818
距	-10.9819
76	-10.982
貌	-10.982
锁	-10.982
培	-10.9821
挤	-10.9821
阴	-10.9821
炒	-10.9821
总裁	-10.9822
以供	-10.9822
佣	-10.9822
玻利维亚	-10.9822
先到先得	-10.9822
瓜	-10.9822
联刚特派团	-10.9822
踊跃	-10.9822
惟	-10.9822
芳	-10.9822
紫	-10.9822
郭	-10.9822
转口货值	-10.9822
仇恨	-10.9822
拳	-10.9822
叙述	-10.9822
以色列政府	-10.9823
护士	-10.9824
使人们	-10.9824
科学和技术	-10.9824
在职	-10.9824
这份报告	-10.9825
增设	-10.9826
非法入境者	-10.9826
情势	-10.9826
边缘化	-10.9827
社团	-10.9829
石油气	-10.983
财政年度	-10.983
分庭	-10.983
谈话	-10.983
敌对行动	-10.9831
的统计	-10.9831
把握	-10.9832
标题	-10.9834
施工	-10.9834
▁有时	-10.9835
▁再者	-10.9836
印象	-10.9836
出国	-10.9837
.2	-10.9837
九千	-10.9839
安南	-10.984
加纳	-10.9842
警区	-10.9843
独特的	-10.9846
专家会议	-10.9847
不扩散	-10.9848
▁亚洲	-10.9848
应将	-10.985
同步	-10.985
执业	-10.9851
在很大程度上	-10.9852
条件下	-10.9859
提供协助	-10.9862
和平与稳定	-10.9865
而被	-10.9868
十八岁	-10.9868
最近几年	-10.9873
另一种	-10.9874
该名男子	-10.9879
送往	-10.9885
和资源	-10.9885
信息系统	-10.9886
有关机构	-10.989
停留	-10.989
被杀	-10.9896
出境	-10.9904
▁在我们	-10.9904
阿富汗人民	-10.9905
类型的	-10.9906
八十年代	-10.9909
统计调查	-10.9914
下文	-10.9915
这项建议	-10.9918
冲突中	-10.9918
清楚地	-10.9919
和区域	-10.9924
▁故此	-10.9931
也门	-10.9932
使之	-10.9934
制订了	-10.9934
职权范围	-10.9938
提供支助	-10.9939
太大	-10.9939
不安全	-10.9941
冲突后	-10.9941
选择了	-10.9943
中药	-10.9945
船上	-10.9948
万美元的	-10.995
▁乌克兰	-10.9952
成立的	-10.9953
爆	-10.9953
听说	-10.9954
经济改革	-10.9955
中止	-10.9956
1.5	-10.9956
五点	-10.9958
不超过	-10.9958
的工人	-10.996
重点是	-10.9961
安全部队	-10.9963
几千	-10.9964
的形象	-10.9966
会令	-10.9966
名册	-10.9971
制约	-10.9971
多于	-10.9971
每天都	-10.9972
更具	-10.9972
繁忙	-10.9973
西亚	-10.9975
▁除非	-10.9976
才可以	-10.9977
悉	-10.9978
实施了	-10.9979
结束了	-10.9981
真诚	-10.9981
疾	-10.9983
▁今后	-10.9983
欧洲委员会	-10.9984
▁考虑到	-10.9988
是确保	-10.9992
算是	-10.9992
得益	-10.9993
得很	-10.9993
径	-10.9993
的比率	-10.9993
媒介	-10.9995
暗	-10.9996
尺	-10.9996
楚	-10.9996
稀	-10.9996
卓	-10.9997
颜	-10.9997
政变	-10.9997
乔	-10.9997
鸣	-10.9998
乌拉圭	-10.9998
种族灭绝	-10.9998
盆	-10.9998
昆	-10.9998
李柱铭议员	-10.9998
切尔诺贝利	-10.9998
炼	-10.9998
同性恋	-10.9998
哭	-10.9998
眼睛	-10.9998
桃	-10.9998
堕胎	-10.9998
麻烦	-10.9998
失蹤	-10.9998
抱怨	-10.9998
跨境	-10.9998
逝世	-10.9998
霍乱	-10.9998
看作是	-10.9999
热闹	-10.9999
鼓舞	-10.9999
南韩	-11
的持续	-11.0001
耐心	-11.0001
灰	-11.0001
一九八	-11.0001
漫长	-11.0002
解放军	-11.0002
偏见	-11.0002
财经	-11.0002
福建	-11.0004
油价	-11.0006
与否	-11.0006
解散	-11.0006
阿曼	-11.0006
排队	-11.0007
和设备	-11.0007
靠近	-11.0007
伊拉克人民	-11.0008
带动	-11.001
更重要的是	-11.001
可达	-11.0012
空前	-11.0012
的老	-11.0014
画面	-11.0015
费率	-11.0017
克制	-11.0018
但他们	-11.0018
正处于	-11.0019
小组成员	-11.0021
人人	-11.0021
可谓	-11.0021
武装人员	-11.0022
赤	-11.0024
国际人道主义法	-11.0027
生长	-11.0027
下降到	-11.0028
所规定的	-11.0028
好了	-11.0029
生计	-11.0029
死亡人数	-11.0031
更好的	-11.0032
▁总	-11.0033
国际人权	-11.0035
社会主义	-11.0038
无可	-11.0039
本土	-11.004
这也	-11.0041
要做	-11.0042
花费	-11.0047
伊斯兰教	-11.0047
即可	-11.0049
▁一位	-11.005
建设和平	-11.0052
年纪	-11.0053
可能性	-11.0054
两方面	-11.0058
它对	-11.0059
73	-11.006
越来越大	-11.006
白色	-11.0061
可靠的	-11.0062
上星期	-11.0064
地址	-11.0068
艾滋病的	-11.0069
找到工作	-11.0071
有理由	-11.0071
一些问题	-11.0077
于本年	-11.0081
党派	-11.0081
的代价	-11.0084
强大的	-11.0085
可怕	-11.0088
五十年	-11.0088
继续在	-11.0089
看到了	-11.0091
梦想	-11.0095
三十八	-11.0096
决定是否	-11.0099
多元	-11.0101
各组织	-11.0106
一百二十	-11.0106
▁埃及	-11.0107
涉	-11.0117
已完成	-11.0118
一块	-11.0119
外长	-11.0119
的第一个	-11.0123
并不能	-11.0124
为我们	-11.0125
可从	-11.0127
政府将	-11.0127
关注的问题	-11.0128
到场	-11.0128
品种	-11.0128
双方都	-11.0129
▁无论如何	-11.0129
的就业	-11.0131
离职	-11.0133
报告员	-11.0133
作者	-11.0136
增值	-11.0137
希望政府	-11.0137
个人和	-11.0138
我国的	-11.0138
宗案件	-11.0142
的悲剧	-11.0142
延迟	-11.0142
教会	-11.0143
分别有	-11.0149
心情	-11.0152
该小组	-11.0153
队员	-11.0154
▁曾	-11.0155
不属于	-11.0155
苗	-11.0157
提交给	-11.0157
的财产	-11.0159
的解决办法	-11.016
公布的	-11.016
忍	-11.0161
和家庭	-11.0166
肥	-11.0171
梯	-11.0173
老年	-11.0174
暖	-11.0174
公积金	-11.0175
摇	-11.0175
扶	-11.0175
绑	-11.0176
定位	-11.0176
骑	-11.0176
挖	-11.0176
敲	-11.0176
任择议定书	-11.0176
南南合作	-11.0176
绳之以法	-11.0176
差饷	-11.0176
波斯尼亚和黑塞哥维那	-11.0176
链	-11.0176
乌兹别克斯坦	-11.0176
灌溉	-11.0176
钓	-11.0176
谱	-11.0176
征询	-11.0176
捷克	-11.0176
珍惜	-11.0176
被占领土	-11.0177
练习	-11.0177
抑制	-11.0177
赛事	-11.0177
年龄介乎	-11.0177
扫雷	-11.0178
缉获量	-11.0178
固然	-11.0178
研制	-11.0178
功夫	-11.0179
放宽	-11.018
十万元	-11.018
流行病	-11.0181
完工	-11.0181
现今	-11.0182
运动会	-11.0184
紧密合作	-11.0185
吸引力	-11.0187
股份	-11.0187
下滑	-11.0188
所有有关	-11.0188
深表	-11.0189
调节	-11.0191
扣查	-11.0191
的必要性	-11.0194
免税	-11.0195
作出回应	-11.0196
证明书	-11.0196
通知书	-11.0196
缔约方会议	-11.0197
▁这意味着	-11.0198
房间	-11.0198
不认为	-11.0198
作出反应	-11.0199
我亦	-11.0199
政府统计处	-11.0201
高等法院	-11.0202
口译	-11.0203
18%	-11.0205
17%	-11.0211
选区	-11.0212
的反	-11.0213
有赖	-11.0215
上网	-11.0217
▁各位	-11.0217
三天	-11.0222
日益增加	-11.0223
节约	-11.0223
更有效	-11.0223
下面	-11.0224
▁2.	-11.0225
都认为	-11.0226
要比	-11.0227
买方	-11.0228
专业人士	-11.0232
哲学	-11.0236
证据表明	-11.0237
生命权	-11.0239
颇为	-11.0239
多半	-11.0242
输出	-11.0245
过去十年	-11.0246
▁法庭	-11.0248
有些国家	-11.025
被杀害	-11.0251
确定了	-11.0252
患有	-11.0252
各界人士	-11.0256
▁人权	-11.0256
▁发展中国家	-11.0257
大自然	-11.0262
过去五年	-11.0262
界限	-11.0263
的作品	-11.027
家务	-11.0274
缔约国会议	-11.0276
另一方面	-11.028
保险业	-11.0285
八个	-11.0286
必须要	-11.0286
完成后	-11.0288
选举中	-11.0288
车队	-11.029
的负担	-11.0292
的透明度	-11.0292
不在	-11.0295
不单	-11.0299
提供资金	-11.0302
量的	-11.0302
于一九九八年	-11.0303
已经完成	-11.0303
百分比	-11.0305
七点	-11.0309
名妇女	-11.0311
术	-11.0316
昂	-11.0316
居屋	-11.0317
一直以来	-11.0318
作决定	-11.0321
不论是	-11.0321
路上	-11.0322
眼中	-11.0325
世界各地的	-11.0326
▁杨	-11.0331
强烈的	-11.0332
译	-11.0334
典型	-11.0339
▁小组认为	-11.0344
菌	-11.0344
否定	-11.0345
下了	-11.0346
社会福利署	-11.0347
政府与	-11.0349
说出	-11.0351
显示出	-11.0352
会期	-11.0354
织	-11.0355
堆	-11.0355
预警	-11.0356
▁如果不	-11.0356
巴尔干	-11.0356
金融风暴	-11.0357
喊	-11.0358
砍	-11.0358
拉脱维亚	-11.0358
娘	-11.0358
冯	-11.0358
赵	-11.0358
四分之一	-11.0358
拼	-11.0358
野蛮	-11.0358
渐渐	-11.0358
将军澳	-11.0358
悬挂	-11.0358
遏制	-11.0358
西贡	-11.0359
寒冷	-11.0359
稳定和	-11.0359
涉案	-11.0359
百分之七十	-11.036
蓝图	-11.0361
原始	-11.0361
民族和解	-11.0362
1984	-11.0362
春节	-11.0363
应否	-11.0363
1982	-11.0363
短短	-11.0364
发表声明	-11.0365
水警	-11.0365
继续对	-11.0366
生命的	-11.0366
强加	-11.0366
72	-11.0368
四点	-11.0369
协同	-11.037
很多时候	-11.037
的特征	-11.037
作了发言	-11.0371
交战	-11.0372
船员	-11.0372
古老	-11.0374
行驶	-11.0375
奖项	-11.0375
几点	-11.0376
之间的合作	-11.0381
在不同	-11.0381
而在	-11.0381
将需要	-11.0385
秘书长关于	-11.0387
重重	-11.0391
很明显	-11.0394
发言时	-11.0394
学生的	-11.0398
外交政策	-11.0401
不仅仅是	-11.0403
离去	-11.0405
数年	-11.0407
当初	-11.0408
性剥削	-11.0409
听取了	-11.0411
印制	-11.0413
必须加强	-11.0414
有意义的	-11.0414
从来不	-11.0415
敌人	-11.0416
本会议	-11.0418
九个	-11.0419
并由	-11.0422
▁约	-11.0425
的数额	-11.0426
一面	-11.0427
公众人士	-11.0428
应有的	-11.0428
只好	-11.0435
案件的	-11.0438
所知	-11.0438
一大	-11.0439
最新资料	-11.044
周末	-11.0441
的情形	-11.0445
偷运	-11.0452
合计	-11.0462
的纪录	-11.0462
库存	-11.0464
问题之一	-11.0466
名被告	-11.0468
章程	-11.0471
行政和	-11.0472
今天下午	-11.0472
减免	-11.0473
以加强	-11.0473
仍然在	-11.0476
克斯	-11.0477
一号	-11.048
总面积	-11.0483
的提案	-11.0488
区域合作	-11.049
实现了	-11.049
▁我们呼吁	-11.0494
6%。	-11.0495
名男子	-11.0496
圆满	-11.0497
在科索沃	-11.0497
美国人	-11.0498
会带来	-11.05
▁遗憾的是	-11.0502
踏	-11.0503
供款	-11.0509
会被	-11.0511
构	-11.0513
所有成员	-11.0515
不久将	-11.0516
概	-11.0517
千万	-11.0521
小姐	-11.0521
转到	-11.0522
免受	-11.0524
▁在第	-11.0526
海事处	-11.0527
重返	-11.0528
议程上	-11.0528
旺角	-11.0528
命运	-11.0529
他被	-11.0531
这批	-11.0534
驱	-11.0535
因为我	-11.0535
尊	-11.0535
董	-11.0536
扣留	-11.0536
估	-11.0536
津	-11.0539
尖	-11.054
衰	-11.0541
冻	-11.0542
委员会在	-11.0542
卢萨卡	-11.0543
世界人权宣言	-11.0543
臂	-11.0543
週	-11.0543
叹	-11.0543
威慑	-11.0543
奖励	-11.0543
盼望	-11.0543
宵禁	-11.0543
谅解备忘录	-11.0544
届会议上	-11.0544
掩盖	-11.0544
沿岸	-11.0544
(2001)	-11.0544
虚假	-11.0544
优良	-11.0544
▁据悉	-11.0545
清晨	-11.0545
弃权	-11.0545
赠款	-11.0545
半数	-11.0545
公尺	-11.0545
蓄意	-11.0546
引导	-11.0546
地中海	-11.0546
市区重建	-11.0546
消防员	-11.0546
就算	-11.0547
▁一些代表团	-11.0547
强烈谴责	-11.0547
暴力事件	-11.0548
主角	-11.0548
▁他补充说	-11.0548
指望	-11.0548
总经理	-11.0548
树立	-11.0549
高度重视	-11.0549
红色	-11.0549
1978	-11.055
变得更	-11.0552
短暂	-11.0555
三十七	-11.0555
率领	-11.0556
事发	-11.0558
▁我们亦	-11.056
专门知识	-11.056
合适的	-11.0562
劳工组织	-11.0563
投票站	-11.0564
出的	-11.0565
运往	-11.0565
▁此后	-11.0567
地方政府	-11.0568
的参与	-11.0568
口号	-11.0569
的步伐	-11.057
▁被告	-11.0571
我们大家	-11.0573
在东帝汶	-11.0574
名义	-11.0576
这套	-11.0577
三位	-11.0577
职工	-11.0578
的裁决	-11.0578
那时候	-11.0579
可观	-11.0581
各区域	-11.0583
的转变	-11.0584
现在已	-11.0586
整个社会	-11.0587
▁目前正在	-11.0588
全文	-11.0589
条的规定	-11.0595
券	-11.0597
采取的行动	-11.0601
无疑是	-11.0601
大湖区	-11.0603
步行	-11.0603
边缘	-11.0604
总的	-11.0608
调查组	-11.0609
亦须	-11.0609
占据	-11.0614
列明	-11.0616
划作	-11.0616
不易	-11.0618
音乐会	-11.0619
▁这也是	-11.0623
热烈欢迎	-11.0624
框架内	-11.0626
已达	-11.0627
向他	-11.0628
太空	-11.063
四十四	-11.0633
的综合	-11.0636
把他们	-11.0644
交出	-11.0646
造成严重	-11.0649
国际经济	-11.065
这些行动	-11.0652
月期间	-11.0654
7000	-11.0656
不予	-11.0658
申诉人	-11.0659
权利和	-11.0659
性别问题	-11.0659
的译文	-11.0664
搜	-11.0665
以协助	-11.0665
捐	-11.0667
在处理	-11.0669
变为	-11.067
不然	-11.0671
工作量	-11.0673
都很	-11.0674
受损	-11.0675
少量	-11.0676
导演	-11.0679
呼吁国际社会	-11.0682
国际性	-11.0686
了不少	-11.0689
处境	-11.0693
▁我们已	-11.0697
全国性	-11.0698
小国	-11.0698
▁如有	-11.07
医药	-11.0703
的特殊	-11.0703
国内法	-11.0704
市中心	-11.0704
各省	-11.0711
的时代	-11.0712
不合理	-11.0712
继续下去	-11.0713
下降至	-11.0714
辩论中	-11.0714
关键的	-11.0715
香港社会	-11.0716
原则和	-11.0716
文盲	-11.0717
作证	-11.0723
最高的	-11.0723
财政部	-11.0723
镜	-11.0724
号码	-11.0724
每年都	-11.0724
履	-11.0724
一百三十	-11.0725
▁许多人	-11.0726
一共	-11.0726
岁以下	-11.0726
妻	-11.0727
我们正	-11.0729
咸	-11.0729
的初步	-11.0729
坡	-11.0729
岗	-11.0729
戒	-11.073
赌	-11.073
择	-11.0731
犹	-11.0731
旱灾	-11.0732
泄	-11.0732
壁垒	-11.0732
凉	-11.0732
毛里求斯	-11.0732
阿尔及利亚	-11.0732
里程碑	-11.0732
斯普斯卡共和国	-11.0732
甜	-11.0732
丛	-11.0732
周梁淑怡议员	-11.0732
飘	-11.0732
饥饿	-11.0732
挂钩	-11.0732
浩	-11.0732
扩充	-11.0732
辟孕	-11.0732
瞭解	-11.0732
远离	-11.0732
一九八七年	-11.0732
稳健	-11.0733
勋章	-11.0733
危急	-11.0733
诊断	-11.0733
孤儿	-11.0733
孤立	-11.0733
互补	-11.0733
触犯	-11.0733
疑犯	-11.0733
的新闻	-11.0733
清拆	-11.0733
一九九三年	-11.0733
声誉	-11.0734
录音	-11.0734
曼谷	-11.0734
繁重	-11.0734
开幕礼	-11.0734
灾民	-11.0734
滥用药物	-11.0734
年之久	-11.0735
筹款	-11.0735
业内人士	-11.0735
殖民主义	-11.0736
肇事者	-11.0736
小组建议	-11.0736
录像	-11.0736
租户	-11.0736
自豪	-11.0736
涌入	-11.0737
管治	-11.0737
军备	-11.0737
账目	-11.0738
接下来	-11.0738
开设了	-11.0738
礼物	-11.0739
▁孟加拉国	-11.0739
楼价	-11.074
署方	-11.0741
立法会议员	-11.0741
回复	-11.0742
特许	-11.0743
百分之六十	-11.0748
核定	-11.0748
以法语	-11.0752
将向	-11.0752
收获	-11.0753
康乐	-11.0754
从中	-11.0755
有所不同	-11.0756
▁儿童基金会	-11.0758
受教毓	-11.076
革新	-11.0762
月十八日	-11.0762
卡尔	-11.0765
较早前	-11.0767
倒退	-11.0774
▁那些	-11.0775
设于	-11.0776
列车	-11.0779
▁多数	-11.0781
我不想	-11.0782
安定	-11.0784
岛上	-11.0784
▁在这种情况下	-11.0786
土着人	-11.0786
不断地	-11.0787
计划于	-11.0787
行车	-11.0789
金融机构	-11.0791
一所	-11.0791
阿布	-11.0793
加强对	-11.0793
后才	-11.0795
该地区的	-11.0795
途中	-11.0795
所作	-11.0796
将这些	-11.0796
持有人	-11.0797
法律顾问	-11.0797
国际法委员会	-11.0802
人工	-11.0803
预计将	-11.0803
中最	-11.0804
过去一年	-11.0811
呈现	-11.0811
佛教	-11.0811
想知道	-11.0814
的捐款	-11.0817
▁是次	-11.0819
那就是	-11.082
.3%。	-11.0822
双重	-11.0822
有用的	-11.0823
感受	-11.0823
列举	-11.0825
和社区	-11.0832
第一期	-11.0834
六四	-11.0836
规划和	-11.0838
数月	-11.0842
进行磋商	-11.0845
也许是	-11.0851
对美国	-11.086
的支出	-11.086
很差	-11.0864
男女平等	-11.0867
那么多	-11.0868
特别强调	-11.0871
包括在	-11.0873
▁我很高兴	-11.0874
人权和	-11.0875
统计数据	-11.0877
之家	-11.0878
日生效	-11.0879
创造了	-11.088
我们所	-11.0882
该股	-11.0883
技术性	-11.0883
毕竟	-11.0885
▁每个	-11.0885
献	-11.0885
牢	-11.0887
图片	-11.0887
和俄罗斯联邦	-11.0888
胆	-11.0895
十个	-11.0896
百分之九十	-11.0897
阿里	-11.0897
的一般	-11.0899
普遍认为	-11.09
▁两	-11.0901
界的	-11.0901
▁为此目的	-11.0903
▁法院	-11.0904
充	-11.0906
是谁	-11.0907
▁这也	-11.0908
渠	-11.0908
的另一个	-11.0909
的好	-11.091
七个	-11.0914
维和	-11.0917
联合国系统内	-11.0919
名警察	-11.0919
不只是	-11.092
胸	-11.0921
液	-11.0922
荡	-11.0923
各国人民	-11.0924
贪	-11.0924
阿鲁沙	-11.0924
珠江三角洲	-11.0924
咭	-11.0924
搁置	-11.0924
娜	-11.0924
泪	-11.0924
栋	-11.0924
马耳他	-11.0924
欺诈	-11.0924
姿态	-11.0924
呼吸	-11.0924
扣押	-11.0925
罕见	-11.0925
约翰	-11.0925
罢工	-11.0925
临床	-11.0925
侵入	-11.0925
卓越	-11.0925
引爆	-11.0926
宪制	-11.0926
财物	-11.0926
辟难	-11.0927
负面影响	-11.0927
其中许多	-11.0927
法语	-11.0928
心态	-11.0928
▁委员会建议缔约国	-11.0928
届满	-11.0928
异常	-11.0928
预报	-11.0929
排放量	-11.093
坚决反对	-11.093
充当	-11.093
单位内	-11.0931
容量	-11.0932
读书	-11.0933
培训课程	-11.0934
武器禁运	-11.0934
提供更多	-11.0935
决定草案	-11.0935
回升	-11.0935
第一步	-11.0935
最快	-11.0936
其他成员	-11.0936
▁有人说	-11.0938
组建	-11.0938
变得更加	-11.094
贬值	-11.0943
入住	-11.0943
格局	-11.0943
先生阁下	-11.0943
名字	-11.0944
远远超过	-11.0944
的收费	-11.0947
别的	-11.095
宗个案	-11.0952
▁环境保护署今	-11.0952
复甦	-11.0956
跟着	-11.0959
个州	-11.0959
被认为	-11.0961
数百	-11.0962
坚定地	-11.0963
是政府	-11.0967
做事	-11.0967
公务员制度	-11.0967
分别是	-11.097
多个国家	-11.0971
首长	-11.0972
的共识	-11.0973
医师	-11.0976
人员和	-11.0977
各机构	-11.0977
美好	-11.0977
北韩	-11.0988
分成	-11.0988
叛乱	-11.0989
尤为	-11.0989
反对党	-11.0989
将他	-11.0996
公共服务	-11.0999
处在	-11.0999
污染物	-11.1
▁总督	-11.1
略有	-11.1001
的经济增长	-11.1005
预防性	-11.1006
对这个	-11.1007
一百四十	-11.1008
国家一级	-11.1015
亦曾	-11.1015
邮政	-11.1018
省长	-11.1021
一个例子	-11.1021
乐于	-11.1021
均会	-11.1023
将就	-11.1024
法学	-11.1025
简直是	-11.1025
▁秘书长在	-11.1027
将从	-11.103
收看	-11.103
希望在	-11.1031
世界会议	-11.1032
是非常重要的	-11.1038
有什么	-11.1041
剧院	-11.1042
会议期间	-11.1045
出去	-11.106
本年度	-11.1064
是世界上	-11.1064
开展工作	-11.1065
了若干	-11.1066
上课	-11.1067
这样一种	-11.1068
或其	-11.1071
三种	-11.1074
天文台	-11.1074
▁也许	-11.1081
生殖	-11.1083
所有人都	-11.1084
执行任务	-11.1086
会于	-11.1088
上一	-11.109
司长	-11.109
的事态发展	-11.1091
车上	-11.1091
▁所谓	-11.1092
发挥了	-11.1099
1.3	-11.1099
▁以下	-11.1102
的质素	-11.1105
室内	-11.1107
医护	-11.1107
职业培训	-11.1109
次级方案	-11.1111
香港大学	-11.1114
妥	-11.1116
理性	-11.1117
赚	-11.1117
剑	-11.112
乳	-11.112
丙	-11.112
悦	-11.112
民政事务总署	-11.112
锺	-11.112
忌	-11.112
南斯拉夫联邦共和国	-11.112
财务报表	-11.112
独联体	-11.112
愤怒	-11.112
洪都拉斯	-11.112
卜	-11.112
蔬菜	-11.112
市政总署	-11.112
月下旬	-11.112
匪徒	-11.112
爆炸事件	-11.1121
疲弱	-11.1121
僱用	-11.1121
稳固	-11.1121
药物管制署	-11.1121
废料	-11.1121
珍贵	-11.1121
100%	-11.1121
西帝汶	-11.1121
异议	-11.1121
稳步	-11.1121
歌曲	-11.1121
邮政局	-11.1122
担当	-11.1122
怎么样	-11.1123
入狱	-11.1123
渔民	-11.1123
1981	-11.1124
思维	-11.1124
在内地	-11.1125
起码	-11.1125
抵制	-11.1125
节余	-11.1125
南朝鲜	-11.1126
合办	-11.1128
也无法	-11.1129
大西洋	-11.113
提出报告	-11.113
货量	-11.1132
见解	-11.1133
▁当地	-11.1133
在一九九七年	-11.1134
指导原则	-11.1134
前者	-11.1135
我在	-11.1136
风格	-11.1136
减至	-11.1136
奥运会	-11.1137
中东局势	-11.1139
极度	-11.114
这也是	-11.1141
致死	-11.1141
想起	-11.1141
人口增长	-11.1142
技术转让	-11.1146
加利	-11.1147
资金来源	-11.1147
健康状况	-11.1147
学历	-11.1148
有超过	-11.1149
访问团	-11.115
精神病	-11.1151
率先	-11.1151
趣	-11.1155
持久和平	-11.1157
全省	-11.1159
城市地区	-11.1159
也已	-11.116
是基于	-11.1165
我们今天	-11.1165
的处境	-11.1166
和程序	-11.1168
便要	-11.1172
不分	-11.1173
联系在一起	-11.1179
之所以	-11.118
资助的	-11.1181
所涉及的	-11.1183
我们相信	-11.1185
▁但他	-11.1186
在他	-11.1186
的战斗	-11.1188
袭击事件	-11.1189
即是	-11.1189
以配合	-11.119
区域组织	-11.1192
个单位	-11.1192
互助	-11.1195
的那些	-11.1198
▁特别委员会	-11.1201
无力	-11.1202
不见	-11.1203
较多	-11.1206
活动中	-11.1206
另一名	-11.1207
形成了	-11.1208
这就是	-11.121
160	-11.121
这一事实	-11.1215
的住房	-11.1216
传送	-11.1218
第八	-11.1222
每小时	-11.1222
继续支持	-11.1223
级的	-11.1224
取向	-11.123
▁3.	-11.1233
四十八	-11.1238
经济政策	-11.1239
简单的	-11.124
验证	-11.1242
当前的	-11.1247
获奖	-11.1248
的评价	-11.1249
首脑	-11.1259
明确地	-11.126
项下	-11.1261
访客	-11.1262
认为这是	-11.1267
过多	-11.1269
这些都是	-11.127
的关切	-11.1272
▁每年	-11.1273
▁这些问题	-11.1274
照料	-11.1276
公平竞争	-11.1278
肺	-11.128
芬兰	-11.1283
时报	-11.1283
政府机构	-11.1284
气体	-11.1284
▁主要	-11.1286
将要	-11.1289
人权情况	-11.1291
三次	-11.1291
这两项	-11.1292
判刑	-11.1292
报案	-11.1292
会由	-11.1299
▁对此	-11.1299
走过	-11.1302
一如	-11.1303
贯	-11.1305
▁专家组	-11.1305
实在太	-11.1305
两条	-11.1307
的印象	-11.1308
亲人	-11.1309
一股	-11.1309
公吨	-11.131
绩	-11.1314
禽	-11.1316
懂得	-11.1316
况	-11.1316
新界北	-11.1317
全日制	-11.1318
稻	-11.1318
应邀	-11.1318
否决	-11.1318
欣	-11.1319
宴	-11.1319
奔	-11.1319
消极	-11.132
岭	-11.132
葬	-11.132
荒	-11.132
捉	-11.132
哀悼	-11.132
无家可归	-11.132
'	-11.132
廖	-11.132
衫	-11.132
疑虑	-11.132
筹措	-11.132
斐济	-11.132
侵害	-11.132
监护	-11.1321
一九八五年	-11.1321
提高妇女地位	-11.1322
赚钱	-11.1322
改变了	-11.1322
捕鱼	-11.1322
旁边	-11.1322
监视	-11.1323
1974	-11.1324
较早时	-11.1325
鲜明	-11.1325
原料	-11.1325
开启	-11.1326
海洋法	-11.1328
十分严重	-11.1329
动乱	-11.1329
复员	-11.133
▁发言人强调	-11.133
是唯一	-11.133
雨量	-11.133
助长	-11.1331
段所述	-11.1332
外籍	-11.1332
便宜	-11.1334
使馆	-11.1339
的材料	-11.134
无形	-11.134
配备	-11.1341
用水	-11.1342
指令	-11.1343
起飞	-11.1343
消除贫困	-11.1344
▁他希望	-11.1346
应继续	-11.1349
此前	-11.1349
相当大的	-11.135
民主选举	-11.1351
光明	-11.1351
▁昨天	-11.1352
迈向	-11.1353
部长级会议	-11.1357
与我们	-11.1358
国际原子能机构	-11.1358
宏观经济	-11.1359
本组织的	-11.1359
不佳	-11.136
报告第	-11.1361
被判处	-11.1361
环境问题	-11.1362
香港特区政府	-11.1362
必须是	-11.1365
在国家一级	-11.1365
人身	-11.1365
则由	-11.1367
以前的	-11.1375
的知识	-11.1376
超过了	-11.1377
如果要	-11.1381
性能	-11.1383
零售业	-11.1389
和使用	-11.1391
有关的问题	-11.1394
街市	-11.1394
▁特区政府	-11.1398
第一批	-11.1401
政务	-11.1402
▁发言人表示	-11.1405
信中	-11.1408
▁谨	-11.141
预防和	-11.1414
月开始	-11.1418
经济合作	-11.1421
本届	-11.1423
▁随	-11.1426
工作时间	-11.1427
灾区	-11.1428
的议程	-11.1429
的家人	-11.1431
厕所	-11.1431
说我	-11.1433
问责	-11.1434
原有	-11.1435
不平衡	-11.1436
可能有	-11.1436
对比	-11.1439
所产生的	-11.1441
中港	-11.1442
国际机构	-11.1445
▁在香港	-11.1447
不变	-11.1447
市民大众	-11.1447
要看	-11.1448
十万	-11.145
的学校	-11.1451
族群	-11.1451
政府必须	-11.1452
的细节	-11.1453
的攻击	-11.1458
在英国	-11.1462
的竞争力	-11.1463
▁12	-11.1466
出路	-11.1468
我没有	-11.147
的效果	-11.1473
适宜	-11.1477
童工	-11.1478
▁以上	-11.148
成年	-11.1487
革	-11.1489
达成了	-11.149
感到非常	-11.1492
迄今为止	-11.1494
会场	-11.1495
一倍	-11.1502
▁政府在	-11.1504
据此	-11.1506
本港经济	-11.1507
该省	-11.1508
▁警方发言人	-11.1511
亡	-11.1512
的增长率	-11.1512
埔	-11.1514
十月份	-11.1516
正视	-11.1516
减少到	-11.1516
一只	-11.1516
各区	-11.1518
陪	-11.1518
训	-11.1518
年级	-11.152
注意力	-11.152
十三岁	-11.152
脏	-11.1521
酬	-11.1521
浓	-11.1522
孤	-11.1522
本报告附件	-11.1522
超级	-11.1522
各派	-11.1523
提高效率	-11.1523
斯洛伐克	-11.1523
仓	-11.1523
尝	-11.1524
道义	-11.1524
忧	-11.1524
的位置	-11.1524
忙碌	-11.1524
尘	-11.1524
逊尼派	-11.1524
屡	-11.1524
息息相关	-11.1524
腹	-11.1524
宋楚瑜	-11.1524
讽刺	-11.1524
金沙萨	-11.1524
奥林匹克	-11.1524
塞内加尔	-11.1524
茂	-11.1524
鲍	-11.1524
龟	-11.1524
煮	-11.1524
艰巨	-11.1524
漠视	-11.1524
举措	-11.1524
噪音	-11.1524
军备竞赛	-11.1524
分娩	-11.1524
残酷	-11.1524
完毕	-11.1525
午餐	-11.1525
昨晚	-11.1525
模拟	-11.1525
致函	-11.1525
诞生	-11.1526
叛军	-11.1526
旅馆	-11.1526
店铺	-11.1526
论述	-11.1526
结算	-11.1526
煤气	-11.1526
青春	-11.1526
论点	-11.1527
迁往	-11.1527
申明	-11.1528
▁该委员会	-11.1528
还说	-11.1528
南太平洋	-11.1528
关怀	-11.1529
新市镇	-11.1529
恐怖主义分子	-11.1529
的保障	-11.1531
天主教	-11.1531
联合国总部	-11.1531
增添	-11.1532
联合声明	-11.1533
外贸	-11.1535
半小时	-11.1535
研究结果	-11.1536
方面发挥	-11.1536
初次	-11.1537
不喜欢	-11.1538
行列	-11.1538
案情	-11.1538
原油	-11.1539
1965	-11.1539
仍旧	-11.1539
93	-11.154
半岛	-11.1542
▁我说	-11.1543
四十七	-11.1544
执法行动	-11.1546
看起来	-11.1548
休会	-11.1554
管制站	-11.1554
▁我知道	-11.1557
的案文	-11.1559
所示	-11.1559
好几	-11.1564
在现场	-11.1567
所以我	-11.1568
防卫	-11.1569
社工	-11.1572
顾问公司	-11.1572
份报告	-11.1573
不利于	-11.1573
大幅增加	-11.1573
7%。	-11.1574
到访	-11.1575
阵地	-11.1576
人道主义局势	-11.1577
拟议的	-11.1578
发展中	-11.1578
有一种	-11.1579
下调	-11.1579
的评论	-11.1579
联网	-11.158
积极地	-11.1581
对不起	-11.1581
▁警方在	-11.1583
用地	-11.1584
他就	-11.1584
整个国际社会	-11.1584
人心	-11.159
看出	-11.1591
之日	-11.1591
编列	-11.1592
我不知道	-11.1593
国际社会对	-11.1594
香港居民	-11.1596
巴勒斯坦领土	-11.1597
眼前	-11.1598
食水	-11.1598
这些因素	-11.1601
告诉我	-11.1608
总数为	-11.1608
▁荷兰	-11.1609
陆军	-11.161
▁阿根廷	-11.1614
仍然存在	-11.1614
市政府	-11.1619
▁我们不能	-11.162
发展方案	-11.1621
代理主席	-11.1622
.6%。	-11.1623
多些	-11.1625
送到	-11.1628
的访问	-11.1628
建议的	-11.1629
要把	-11.1631
▁研讨会	-11.1634
好好	-11.1635
事物	-11.1635
四十二	-11.1637
的现状	-11.1638
还对	-11.1639
制服	-11.1639
及香港	-11.1641
享	-11.1646
的心理	-11.1646
境外	-11.1649
学术界	-11.1649
还认为	-11.1649
的重视	-11.1649
公布了	-11.165
当选为	-11.1651
▁建议	-11.1651
初中	-11.1662
冲突地区	-11.1666
物流	-11.1666
这些武器	-11.1667
只需	-11.1667
▁儿童	-11.1668
有其	-11.1673
难于	-11.1678
新年	-11.1679
的名义	-11.1687
也表示	-11.1689
中医	-11.1692
岗位	-11.1695
帝	-11.1696
万人次	-11.1696
三十六	-11.1697
应为	-11.1699
180	-11.1699
屋宇署	-11.1702
第四季	-11.1702
繁	-11.1705
机动	-11.1705
▁大部分	-11.1709
着名的	-11.1711
在明年	-11.1713
合资格	-11.1714
变成了	-11.1715
议定	-11.1717
卡拉	-11.1718
指的是	-11.1718
六名	-11.1719
蓬勃	-11.172
荣幸	-11.172
的财务	-11.1721
卡车	-11.1722
泊	-11.1727
蓝色	-11.173
婴	-11.173
坛	-11.173
掩	-11.1732
芬	-11.1732
滋	-11.1732
劳资	-11.1732
伪	-11.1732
腐	-11.1732
裁判	-11.1732
恨	-11.1732
仇	-11.1733
伞	-11.1733
剪	-11.1733
燕	-11.1733
希族塞人	-11.1733
平方公里	-11.1733
斯洛文尼亚	-11.1733
直接或间接	-11.1733
必不可少	-11.1733
阻挠	-11.1733
李卓人议员	-11.1733
氯	-11.1733
登革热	-11.1733
红磡	-11.1733
彭定康	-11.1733
非洲统一组织	-11.1733
三合会	-11.1733
挫折	-11.1733
疏散	-11.1733
可以用	-11.1733
延伸	-11.1733
乔治	-11.1733
逃辟	-11.1734
心脏病	-11.1734
欠缺	-11.1734
兵役	-11.1734
贝宁	-11.1734
赚取	-11.1734
碎片	-11.1734
素质	-11.1734
目录	-11.1735
武装分子	-11.1735
戏剧	-11.1735
二十四小时	-11.1735
妥当	-11.1736
善政	-11.1736
长久	-11.1737
添加	-11.1737
公务员队伍	-11.1737
红十字会	-11.1737
抵港	-11.1737
亚洲金融风暴	-11.1737
先例	-11.1738
要点	-11.1738
证词	-11.1739
绝大部分	-11.1739
医院管理局	-11.1739
边防	-11.1741
继续为	-11.1741
目光	-11.1741
知悉	-11.1743
▁另	-11.1743
1975	-11.1743
生毓率	-11.1743
理念	-11.1743
成衣	-11.1744
跨部门	-11.1744
覆	-11.1744
进取	-11.1746
以及对	-11.1747
书籍	-11.1747
编号	-11.1748
座位	-11.1749
单张	-11.1749
▁受	-11.175
良心	-11.1753
几乎没有	-11.1755
的前途	-11.1756
经济复苏	-11.1757
一百六十	-11.1758
居留	-11.1759
随之	-11.176
已超过	-11.1761
地进行	-11.1761
让步	-11.1762
发出了	-11.1762
艺术家	-11.1763
金门	-11.1764
没有什么	-11.1766
减少贫穷	-11.1768
人口中	-11.1772
的基石	-11.1774
▁会员国	-11.1775
和中国	-11.1775
就越	-11.1777
对那些	-11.1778
政治和经济	-11.178
舞台上	-11.1781
人反对	-11.1781
回答了	-11.1781
代理人	-11.1782
国际金融	-11.1783
表示愿意	-11.1784
七名	-11.1787
12%	-11.1789
担任主席	-11.1789
向我们	-11.1797
族人	-11.1798
其中一名	-11.18
展开调查	-11.1801
▁大约	-11.1804
充分合作	-11.1805
以防止	-11.1806
克里	-11.1807
蚊	-11.1809
万多	-11.1809
公共部门	-11.181
而且也	-11.1812
这些国家的	-11.1813
▁(4)	-11.1813
无条件	-11.1816
提高了	-11.1818
最有	-11.1819
还有一些	-11.1819
新移民	-11.1821
了一份	-11.1823
万个	-11.1823
我已经	-11.1824
与和平	-11.1826
返回家园	-11.1826
▁该国	-11.1827
▁确实	-11.1827
放置	-11.1827
记者会	-11.1828
更多地	-11.183
个性	-11.1831
的课程	-11.1831
的合法	-11.1832
▁提交人	-11.1833
▁土耳其	-11.1834
▁让我	-11.1836
疫情	-11.1841
以促进	-11.1841
廉	-11.1843
和法律	-11.1843
天内	-11.1849
十二岁	-11.185
无权	-11.1851
裁	-11.1856
看着	-11.1857
这家	-11.1857
年徒刑	-11.1864
▁既然	-11.1865
密度	-11.1868
限度	-11.187
仅为	-11.1871
的一名	-11.1878
正在考虑	-11.1879
92	-11.1882
▁该项	-11.1883
带有	-11.1883
补助金	-11.1887
限定	-11.1889
可信	-11.1889
81	-11.189
占用	-11.1891
谓	-11.1898
发展援助	-11.1904
决策过程	-11.1909
现阶段	-11.1915
的工作量	-11.1915
双方同意	-11.1918
方面都	-11.1922
又说	-11.1925
与此同时	-11.1925
总人口	-11.1927
补充说	-11.1928
环境卫生	-11.1929
保护环境	-11.1931
▁同期	-11.1933
宣	-11.1935
加紧	-11.1936
物体	-11.1936
死伤	-11.1937
滥	-11.1937
世贸	-11.1938
▁有些人	-11.1938
震惊	-11.1939
方面的工作	-11.194
迈进	-11.194
二零零三年	-11.1941
幻	-11.1942
遥	-11.1943
嫁	-11.1943
奋	-11.1944
妙	-11.1944
旺	-11.1944
屠	-11.1945
挫	-11.1945
墓	-11.1945
纯粹	-11.1945
海洛因	-11.1945
独裁	-11.1945
哦	-11.1945
噢	-11.1945
爬	-11.1945
李永达议员	-11.1945
亭	-11.1945
杀戮	-11.1945
珊	-11.1945
蒋	-11.1945
引擎	-11.1946
除其他外	-11.1946
弊端	-11.1946
铭记	-11.1946
最具	-11.1946
驳回	-11.1946
▁联合王国	-11.1946
生物多样性	-11.1946
钢铁	-11.1946
电单车	-11.1947
信用卡	-11.1947
中央公积金	-11.1947
进行改革	-11.1947
废除死刑	-11.1947
账户	-11.1947
毋须	-11.1947
历程	-11.1947
预期寿命	-11.1948
抓住	-11.1948
纪念封	-11.1948
东涌	-11.1949
平民百姓	-11.1949
记载	-11.1949
才能够	-11.195
提请注意	-11.195
教堂	-11.1951
讯号	-11.1952
专长	-11.1954
精力	-11.1954
威尔	-11.1956
解体	-11.1956
河流	-11.1958
提交立法会	-11.1959
投机	-11.1959
的年龄	-11.1961
合乎	-11.1962
公众利益	-11.1962
陷于	-11.1964
副总统	-11.1965
官兵	-11.1965
无牌	-11.1967
所提	-11.1967
本质	-11.1968
的岐视	-11.1972
门诊	-11.1974
▁他的	-11.1975
少数人	-11.1976
遣	-11.1977
做的	-11.1978
几内亚比绍	-11.198
所进行的	-11.1983
是重要的	-11.1983
海运	-11.1985
他们将	-11.1987
几项	-11.1989
教室	-11.1989
种子	-11.1989
预防措施	-11.1992
但他	-11.1995
第二项	-11.1995
对策	-11.1995
我今天	-11.1999
已获	-11.1999
诚实	-11.2
战斗人员	-11.2003
分组	-11.2004
严肃	-11.2009
营办商	-11.201
▁正在	-11.2011
重要问题	-11.2011
各地的	-11.2013
穷国	-11.2015
于去年	-11.2017
由香港	-11.2027
的大量	-11.2027
的主要目标	-11.2028
外面	-11.2028
四十六	-11.2028
某些国家	-11.2031
阿拉伯国家	-11.2035
新任	-11.2036
北角	-11.2045
行政会议	-11.205
恶意	-11.2051
的成本	-11.2051
酒会	-11.2051
最后一次	-11.2058
九月份	-11.206
不便	-11.2061
可说是	-11.2062
的行业	-11.2066
置于	-11.2067
▁近年	-11.2068
国家间	-11.2069
不法	-11.207
第二期	-11.2071
上月	-11.2072
的功能	-11.2076
运营	-11.2077
▁特派团	-11.208
家族	-11.2081
也正在	-11.2082
▁条例草案	-11.2086
业务活动	-11.2087
发生率	-11.2088
不反对	-11.2092
这个时候	-11.2093
管理系统	-11.2095
这个项目	-11.2095
违法行为	-11.2095
正常化	-11.2098
▁委员会欢迎	-11.2099
公认的	-11.21
使他	-11.2101
车主	-11.2102
的主权	-11.2104
论文	-11.2108
在华盛顿	-11.2108
黑人	-11.2111
94	-11.2113
吸	-11.2113
採取行动	-11.2114
在今天	-11.2115
▁非	-11.2117
道路上	-11.2118
之用	-11.2122
不成	-11.2122
的支助	-11.2122
起到	-11.2124
回报	-11.2125
▁这些人	-11.2129
的动力	-11.2133
警方会	-11.2135
急救	-11.2136
鹿	-11.2138
纲领	-11.2139
孕妇	-11.2139
露出	-11.214
这个数字	-11.214
卖方	-11.2141
这些项目	-11.2142
捷	-11.2142
他们自己	-11.2143
阿拉伯文	-11.2146
本周	-11.2147
进行协商	-11.215
使它	-11.2157
是一位	-11.2157
就读	-11.2158
不容	-11.2158
萧	-11.2158
毕	-11.2159
廊	-11.2161
扇	-11.2161
里亚	-11.2162
慧	-11.2162
按揭	-11.2163
穆罕默德	-11.2163
魔	-11.2163
清真寺	-11.2163
红十字国际委员会	-11.2163
铅	-11.2163
垂	-11.2163
落马洲	-11.2163
侯	-11.2163
吉布提	-11.2163
腰	-11.2163
匮乏	-11.2163
孝	-11.2163
推荐	-11.2163
殿	-11.2163
非典型肺炎	-11.2163
昭	-11.2163
眉	-11.2163
概括	-11.2163
民政事务局	-11.2163
一会儿	-11.2163
暗示	-11.2163
构思	-11.2163
不单止	-11.2163
宣告	-11.2164
英勇	-11.2164
生涯	-11.2164
迂害	-11.2164
阶级	-11.2164
颜色	-11.2164
团伙	-11.2164
走廊	-11.2165
充满信心	-11.2165
一句话	-11.2165
绿色	-11.2166
亲切	-11.2166
人口普查	-11.2167
经纪	-11.2169
严格遵守	-11.2169
善意	-11.2169
互利	-11.217
消费品	-11.217
领空	-11.217
外交官	-11.2171
客运	-11.2171
的良好	-11.2172
优点	-11.2173
的款项	-11.2175
九二	-11.2176
被迨捕	-11.2176
交往	-11.2177
感动	-11.2177
平常	-11.2177
开列	-11.2178
检查站	-11.2178
▁发言人指出	-11.2178
公共交通	-11.2178
▁但由于	-11.2179
是国际社会	-11.2179
加强合作	-11.218
大力支持	-11.2183
冲突各方	-11.2184
监测机制	-11.2184
大多数国家	-11.2184
非政府机构	-11.2184
执法人员	-11.2188
须于	-11.2189
商场	-11.2189
船民	-11.2189
做出了	-11.2191
警务处	-11.2191
车站	-11.2192
国际社会必须	-11.2193
度过	-11.2197
征税	-11.2197
并使	-11.22
界人士	-11.22
前苏联	-11.2202
力度	-11.2204
无罪	-11.2205
竭力	-11.2207
在国际上	-11.221
字样	-11.221
发明	-11.2211
的最低	-11.2213
▁这样做	-11.2215
但其	-11.2218
劫持	-11.2221
被摧毁	-11.2224
管理部门	-11.2227
一笔	-11.2229
水量	-11.2231
的正式	-11.2238
上水	-11.2239
归还	-11.224
中环	-11.2242
任用	-11.2244
政治解决	-11.2247
香港是	-11.2249
1.1	-11.2252
这些组织	-11.2253
适用的	-11.2254
受灾	-11.2255
有若干	-11.2256
应尽快	-11.2257
峰会	-11.2257
特质	-11.2261
研究员	-11.2265
小武器	-11.2268
教徒	-11.2269
的胜利	-11.227
调低	-11.2271
时表示	-11.2275
斯基	-11.2277
均须	-11.2277
业已	-11.2277
不赞成	-11.2279
该基金	-11.2281
和日本	-11.2283
有形	-11.2284
强调必须	-11.2285
医生说	-11.2289
在今天的	-11.2289
才有	-11.229
将他们	-11.2299
仅占	-11.23
▁它也	-11.2301
的方针	-11.2301
当晚	-11.2304
将导致	-11.2304
数十	-11.2318
于一九九九年	-11.2322
事务司	-11.2322
建议将	-11.2324
一个新的	-11.2324
这并不	-11.2325
调查队	-11.2325
的大多数	-11.2326
这样说	-11.2326
安全理事会成员	-11.2329
是完全	-11.233
不清	-11.2335
物件	-11.2335
三十四	-11.2338
代表出席	-11.234
剩	-11.2344
向联合国	-11.2346
合适	-11.2349
的独立	-11.2349
总额的	-11.235
很强	-11.2353
▁整个	-11.2354
则会	-11.2354
核能	-11.2356
▁中国政府	-11.2362
和分析	-11.2362
不停	-11.2366
都被	-11.2366
实行了	-11.2367
逐年	-11.2373
四十九	-11.2376
伟大的	-11.2378
不住	-11.2379
须在	-11.2381
携手	-11.2382
莲	-11.2383
雕	-11.2384
柯	-11.2384
焚	-11.2385
锐	-11.2385
杆	-11.2385
猫	-11.2385
淑	-11.2385
錶	-11.2385
马英九	-11.2385
磁	-11.2385
贿	-11.2385
蛇	-11.2385
梁智鸿议员	-11.2385
马德里	-11.2385
摸	-11.2385
饼	-11.2385
食物环境卫生署	-11.2385
请致电二	-11.2385
民用	-11.2385
汲取	-11.2385
乘搭	-11.2386
休闲	-11.2386
榜样	-11.2386
动态	-11.2386
赌博	-11.2386
排污	-11.2386
跟踪	-11.2386
西撒哈拉	-11.2386
牢房	-11.2386
可否	-11.2386
令人震惊	-11.2386
保安局局长	-11.2387
答辩	-11.2387
抵销	-11.2387
失误	-11.2387
减缓	-11.2387
道歉	-11.2387
美术	-11.2388
补编	-11.2388
执政党	-11.2388
热切	-11.2389
无奈	-11.2389
忍受	-11.239
外汇基金	-11.239
频道	-11.239
世界贸易组织	-11.239
所需经费	-11.239
出租	-11.239
收藏	-11.2392
综合性	-11.2392
换取	-11.2392
同期比较	-11.2392
发生了变化	-11.2393
进食	-11.2393
联系汇率	-11.2394
艰苦	-11.2394
建立信任	-11.2394
至今已有	-11.2395
终生	-11.2395
鱼类	-11.2395
价值观念	-11.2397
领事	-11.2398
有否	-11.2398
文职	-11.24
起诉书	-11.24
门票	-11.24
经济成长	-11.2401
承担责任	-11.2402
并以	-11.2402
受益者	-11.2403
穿着	-11.2403
只限于	-11.2403
却没有	-11.2404
省级	-11.2405
大于	-11.2409
▁或许	-11.2411
的全部	-11.2413
的两个	-11.2414
▁直到	-11.2415
线路	-11.2419
当地居民	-11.242
技术能力	-11.2421
为数	-11.2424
每项	-11.2425
不希望	-11.2427
处处长	-11.2428
的信任	-11.2428
斯坦	-11.2429
要想	-11.243
全世界的	-11.2431
更有效地	-11.2433
2007	-11.2433
基本原则	-11.2439
受到威胁	-11.2439
的债务	-11.2439
▁我在	-11.2439
▁这不是	-11.2444
会引起	-11.2446
扣除	-11.2447
世界贸易	-11.2448
当场	-11.2449
劳工市场	-11.2452
必须继续	-11.2452
15.	-11.2454
▁像	-11.2455
可持续发展的	-11.2457
▁原来	-11.2459
吸引了	-11.2459
16.	-11.246
发展筹资	-11.2462
的宗旨	-11.2463
▁香港的	-11.2463
到处	-11.2464
平均数	-11.2465
▁科威特	-11.2471
联合国秘书处	-11.2471
来讲	-11.2473
也一样	-11.2474
第一次会议	-11.2486
存放	-11.2486
签名	-11.2487
将把	-11.2491
服务质素	-11.2491
研究中心	-11.2492
很多问题	-11.2492
规划署	-11.2492
是为	-11.2493
倒是	-11.2495
以打击	-11.2496
较小	-11.2496
病患	-11.2502
对环境	-11.2503
在某些	-11.2504
全国各地	-11.2504
污	-11.2507
▁伊朗	-11.2507
民政	-11.2512
性行为	-11.2513
进一步发展	-11.2516
很快就	-11.2519
可以肯定	-11.2528
多处	-11.2528
其中一项	-11.2529
的电脑	-11.253
▁另一	-11.2533
定会	-11.2536
从前	-11.2538
改革进程	-11.254
执行其	-11.2542
其任务	-11.2543
加剧了	-11.2544
被释放	-11.2544
促请政府	-11.2547
对世界	-11.2549
起源	-11.2552
节日	-11.2556
校舍	-11.2556
得到解决	-11.2557
降落	-11.2558
的核试验	-11.2558
培训和	-11.256
目前仍	-11.2571
万三千	-11.2577
通过谈判	-11.2578
人因	-11.2578
错了	-11.258
行政局	-11.258
的职位	-11.2581
存在于	-11.2581
赠	-11.2583
又是	-11.2585
来解决	-11.2588
公众对	-11.2589
不能再	-11.2589
年代初	-11.2589
人来说	-11.259
在该地区	-11.2593
上下	-11.2595
向来	-11.2595
▁他们还	-11.2595
产妇	-11.2595
贸易伙伴	-11.26
优秀的	-11.26
的非政府组织	-11.2603
二五	-11.2603
三十二	-11.2603
她说	-11.2603
虐	-11.2607
围绕	-11.2609
恐	-11.2609
战争中	-11.261
廷	-11.2611
妇女占	-11.2611
疏	-11.2611
也应该	-11.2612
吵	-11.2612
典范	-11.2612
胖	-11.2612
天水围	-11.2612
闪	-11.2612
布基纳法索	-11.2612
翠	-11.2612
挑衅	-11.2612
翼	-11.2612
抗生素	-11.2612
淘汰	-11.2612
张文光议员	-11.2612
托克劳	-11.2612
训研所	-11.2612
非殖民化	-11.2612
祭	-11.2612
凌驾	-11.2612
玲	-11.2612
欣慰	-11.2612
联保部队	-11.2612
悲痛	-11.2613
饮品	-11.2613
巡视	-11.2613
临时市政局	-11.2613
进行讨论	-11.2614
索偿	-11.2614
港元存款	-11.2614
一九九二年	-11.2614
遥远	-11.2614
抽样	-11.2614
警觉	-11.2614
预审	-11.2615
房舍	-11.2615
招牌	-11.2615
撤军	-11.2615
遍布	-11.2615
保毓	-11.2615
果断	-11.2615
称赞	-11.2616
甲类	-11.2616
海洋法公约	-11.2616
实例	-11.2616
战后	-11.2616
九时	-11.2618
普通话	-11.2618
访问行程	-11.2619
电视节目	-11.262
书记	-11.262
通告	-11.262
贫富	-11.2621
商标	-11.2621
首批	-11.2621
保管	-11.2621
接管	-11.2622
两周	-11.2622
的查询	-11.2624
以应付	-11.2625
▁一九九九年	-11.2627
计划生毓	-11.2629
有个	-11.2629
农业生产	-11.263
宣传运动	-11.2632
据点	-11.2633
盟约	-11.2633
的生存	-11.2634
咨询意见	-11.2635
的网页	-11.2636
人力资源管理	-11.2636
一把	-11.2637
风气	-11.2637
刑事司法	-11.2637
在最近	-11.2637
发挥重要作用	-11.2638
下一个	-11.2639
简要	-11.2642
驻留	-11.2643
的优势	-11.2644
免除	-11.2645
波斯尼亚塞族	-11.2649
多云	-11.2654
看守	-11.2657
刊登	-11.2657
一月一日	-11.2657
健康和	-11.2658
将不会	-11.2658
既是	-11.2661
充分利用	-11.2662
主持下	-11.2665
调查委员会	-11.2666
阿拉	-11.2667
拘捕一名	-11.2667
高增值	-11.2667
为本	-11.2668
先进的	-11.267
助理秘书长	-11.2671
通用	-11.2672
世界人口	-11.2674
运到	-11.2675
剩余	-11.2675
出入	-11.2675
看过	-11.2677
各州	-11.2678
性格	-11.2679
路边	-11.2681
中介	-11.2682
肯定会	-11.2683
▁以往	-11.2684
.9%。	-11.2689
含义	-11.2691
就不能	-11.2692
私有	-11.2697
大多数人	-11.2701
的部队	-11.2701
充分支持	-11.2714
官员说	-11.2716
非洲各国	-11.2721
可通过	-11.2722
相对于	-11.2722
犹太	-11.2725
简直	-11.2726
仍会	-11.2727
这段	-11.273
可由	-11.2739
反映在	-11.274
二十世纪	-11.2743
不应当	-11.2743
背景下	-11.2748
完全支持	-11.2749
不出	-11.2749
个问题	-11.2749
各有关	-11.275
感到鼓舞	-11.2754
知情	-11.2754
代表团成员	-11.2754
▁一些国家	-11.2754
91	-11.2757
中说	-11.2757
东南欧	-11.276
的种种	-11.2761
这些事件	-11.2763
该领土	-11.2763
▁举例	-11.2767
▁胡锦涛	-11.2769
根本没有	-11.2771
殖民	-11.2771
71	-11.2772
▁安哥拉	-11.2772
24%	-11.2774
▁地政总署	-11.2774
矿物	-11.2775
贩	-11.2775
本项目	-11.2778
门口	-11.2782
有利的	-11.2784
▁此举	-11.2786
的名称	-11.2795
平等机会	-11.2797
的职能	-11.2798
需要在	-11.2799
的苦难	-11.2801
而这些	-11.2801
▁非政府组织	-11.2804
可以获得	-11.2804
本法院	-11.2807
第一届	-11.2807
是合理的	-11.2808
步伐	-11.2811
第二部分	-11.2814
参加会议	-11.2816
作出的承诺	-11.282
两类	-11.2824
是国家	-11.2825
▁该名男子	-11.2825
空调	-11.2837
委员会委员	-11.2838
▁行政长官董建华	-11.2839
郎	-11.284
挥	-11.2841
棍	-11.2844
奠定	-11.2845
瘫痪	-11.2845
应于	-11.2845
勃	-11.2845
联检组	-11.2845
科特迪瓦	-11.2845
钦	-11.2845
当务之急	-11.2845
国务卿	-11.2845
颂	-11.2845
坦桑尼亚联合共和国	-11.2845
教科书	-11.2845
粟	-11.2845
鞭	-11.2845
亨	-11.2845
狭隘	-11.2845
齿	-11.2845
扔	-11.2845
行之有效	-11.2845
痕迹	-11.2845
侦察	-11.2845
遵照	-11.2845
借鉴	-11.2845
邪恶	-11.2845
讚扬	-11.2845
农历新年	-11.2845
抵押	-11.2846
篇幅	-11.2846
争夺	-11.2846
燃烧	-11.2846
至为重要	-11.2846
竞赛	-11.2846
黑暗	-11.2846
眼镜	-11.2846
检察院	-11.2846
援引	-11.2847
等同于	-11.2847
惩处	-11.2847
引述	-11.2847
规格	-11.2847
车臣	-11.2847
酒精	-11.2847
汇编	-11.2848
呈交	-11.2848
绝望	-11.2848
领土完整	-11.2848
华侨	-11.2848
的士司机	-11.2848
令人失望	-11.2849
好评	-11.2849
人数超过	-11.285
毛额	-11.2851
在一九九八年	-11.2851
九六年	-11.2851
寻求庇护者	-11.2851
患病	-11.2851
医护人员	-11.2852
用了	-11.2852
票赞成	-11.2852
文职人员	-11.2853
航线	-11.2853
豁免权	-11.2853
厘定	-11.2853
送院	-11.2853
驾驶人士	-11.2853
全都	-11.2853
使用了	-11.2853
国防部长	-11.2854
入息	-11.2855
长久以来	-11.2855
热带	-11.2855
进了	-11.2856
反弹	-11.2856
建立无核武器区	-11.2856
台独	-11.2857
2500	-11.2858
周边	-11.2858
动工	-11.2858
消除贫穷	-11.2858
包机	-11.2859
署理	-11.2859
回去	-11.286
下午二时	-11.286
原意	-11.2861
的补充	-11.2861
预防犯罪	-11.2862
海底	-11.2862
的供应	-11.2865
坚决支持	-11.2867
团员	-11.2868
预留	-11.2868
我们能够	-11.2869
初步调查	-11.2871
刚果人民	-11.2871
法医	-11.2872
非政府组织和	-11.2873
之初	-11.2874
极力	-11.2875
城市规划	-11.2876
▁两名	-11.2877
能得到	-11.2879
成年人	-11.2879
发问	-11.288
脆弱性	-11.2882
提出上诉	-11.2882
感到满意	-11.2884
选举产生	-11.2884
九巴	-11.2885
同类	-11.2887
下次	-11.2892
居住的	-11.2892
加入了	-11.2893
▁这份	-11.2893
第二届	-11.2896
的第一步	-11.2897
拆除	-11.29
美国国会	-11.29
有效率的	-11.29
大会主席	-11.2902
就是这样	-11.2903
被定罪	-11.2903
你看	-11.2906
没什么	-11.2906
设备和	-11.2908
不适合	-11.2908
上文	-11.2909
已进入	-11.2909
核不扩散	-11.291
的职业	-11.2911
中医药	-11.2912
国家主权	-11.2914
日程	-11.2915
过份	-11.2916
适当地	-11.2916
申请书	-11.2917
有一天	-11.2917
地质	-11.2919
完全符合	-11.292
德拉	-11.2922
曾多次	-11.2922
访问期间	-11.2923
也说	-11.2924
中期审查	-11.2924
名工作人员	-11.2925
使我	-11.2926
在二零零零年	-11.2933
▁初步调查显示	-11.2935
处以	-11.2938
▁研究	-11.2939
粮食安全	-11.2941
召开了	-11.2941
没有出现	-11.2941
提供经费	-11.2942
不一	-11.2943
准备好	-11.2946
行动自由	-11.2948
务实	-11.2952
解决这些问题	-11.2956
今晨	-11.2957
提交了	-11.2959
空气污染	-11.2959
甚至在	-11.2959
下一步	-11.2964
▁4.	-11.2964
兑	-11.2967
需要加强	-11.2969
的移民	-11.297
没有收到	-11.2971
也曾	-11.2973
▁阿	-11.2973
因为这	-11.2974
本公约	-11.2977
的领导人	-11.2977
下半年	-11.2977
工商业	-11.2981
身心	-11.2982
需时	-11.2985
向安理会	-11.2985
的组成部分	-11.2987
的指标	-11.2988
辅	-11.2989
于一九九七年	-11.2989
完了	-11.299
那就	-11.2993
明显地	-11.2993
发生的事件	-11.2994
整整	-11.2995
法院审理	-11.2995
上空	-11.2996
一百多	-11.2997
在中东	-11.3
保险公司	-11.3
的作法	-11.3001
调查报告	-11.3001
的渠道	-11.3002
通过一项	-11.3002
源于	-11.3002
的三个	-11.3004
网路	-11.3008
制造业的	-11.3017
加强联合国	-11.3021
核证	-11.3022
.1	-11.3022
往年	-11.3025
以便在	-11.3025
转换	-11.3026
外出	-11.3029
在学校	-11.3032
易于	-11.3034
竭	-11.3035
亲身	-11.3035
▁受害人	-11.3037
占总	-11.3043
绍	-11.3043
名儿童	-11.3043
晚会	-11.3045
币	-11.3045
许多地方	-11.3048
让市民	-11.305
▁一九九七年	-11.305
关注的是	-11.305
将尽快	-11.3052
在该国	-11.3055
了一系列	-11.3055
某些人	-11.3059
尤其在	-11.3061
▁埃塞俄比亚	-11.3064
日电	-11.307
程度上	-11.3071
行政管理	-11.3073
促进发展	-11.3076
每位	-11.3079
要求政府	-11.3079
倘	-11.3079
持续增长	-11.3079
械	-11.308
洁	-11.3081
图表	-11.3081
罢	-11.3081
哪个	-11.3081
佐	-11.3082
铭	-11.3082
炭	-11.3083
临区局	-11.3083
筒	-11.3083
牲畜	-11.3083
审裁处	-11.3083
布鲁塞尔	-11.3083
座谈会	-11.3083
酿	-11.3083
小册子	-11.3083
显而易见	-11.3083
不结盟运动	-11.3083
内部监督事务厅	-11.3083
孟	-11.3083
糖尿病	-11.3083
柒	-11.3083
联格观察团	-11.3083
可卡因	-11.3083
碗	-11.3083
扭曲	-11.3083
弹道导弹	-11.3083
聆听	-11.3083
追踪	-11.3083
乳癌	-11.3083
肺癌	-11.3083
漏洞	-11.3083
崇拜	-11.3083
竣工	-11.3083
抽签	-11.3084
搬迁	-11.3084
顺序	-11.3084
迫害	-11.3084
反驳	-11.3084
裁减	-11.3084
缺席	-11.3084
在同次会议上	-11.3084
安老院	-11.3085
在许多情况下	-11.3085
▁审计委员会	-11.3085
古迹	-11.3085
会计师	-11.3085
炸死	-11.3085
表态	-11.3086
接替	-11.3086
亲友	-11.3086
全日制学生	-11.3086
实习	-11.3086
自愿捐款	-11.3086
可为	-11.3086
环球	-11.3086
惩教署	-11.3087
返港	-11.3087
造福	-11.3088
微型	-11.3088
兼职	-11.3088
罗湖	-11.3088
迹象显示	-11.3089
重新安置	-11.3089
喜爱	-11.309
运载	-11.309
创始	-11.3091
什么时候	-11.3093
行政机关	-11.3093
爆炸物	-11.3093
合法的	-11.3093
沦为	-11.3094
威力	-11.3094
还规定	-11.3094
洪水	-11.3094
教员	-11.3095
完善的	-11.3095
改动	-11.3096
章节	-11.3097
千禧	-11.3097
相若	-11.3098
公顷土地	-11.3098
电器	-11.3099
明星	-11.3099
夜间	-11.31
黑山	-11.3101
常驻代表	-11.3101
东主	-11.3102
试点	-11.3103
两间	-11.3105
男生	-11.3106
证实了	-11.311
一月份	-11.3111
近来	-11.3112
这种现象	-11.3112
受益于	-11.3112
三角	-11.3114
权利和自由	-11.3116
没有发生	-11.3117
人身安全	-11.3119
应确保	-11.3119
第九	-11.3119
强调指出	-11.3121
感到遗憾	-11.3121
再加上	-11.3123
派驻	-11.3123
新闻中心	-11.3125
和决策	-11.3126
我现在请	-11.3126
因为这是	-11.3126
审计委员会	-11.3127
过早	-11.3128
团长	-11.3129
肩负	-11.313
信誉	-11.3131
是针对	-11.3132
人权署	-11.3133
没有一个	-11.3133
排名	-11.3134
有幸	-11.3134
多久	-11.3135
联合国开发计划署	-11.3136
培训方案	-11.3136
重开	-11.3139
领导的	-11.314
国内外	-11.314
必须采取	-11.3142
不信任	-11.3142
新型	-11.3144
的一大	-11.3144
成立后	-11.3144
在现阶段	-11.3144
九龙城	-11.3144
十五分	-11.3145
35%	-11.3147
零五	-11.3147
最主要的	-11.3148
巡逻队	-11.3151
各成员国	-11.3153
反措施	-11.3153
一百八十	-11.3158
创下	-11.3159
国际文书	-11.3159
在安哥拉	-11.3159
只占	-11.316
的体制	-11.3162
向市民	-11.3165
国家警察	-11.3167
1967	-11.317
七十二	-11.3171
史上	-11.3177
景观	-11.3181
行使其	-11.3182
▁特别报告员还	-11.3183
三号	-11.3186
设计的	-11.3186
的大型	-11.3192
判定	-11.3193
东北部	-11.3194
在会上	-11.3194
士气	-11.3197
.5%。	-11.3197
总量	-11.3199
树木	-11.32
年下半年	-11.3201
不明白	-11.3202
阿拉伯人	-11.3202
街上	-11.3203
世纪议程	-11.3205
犹太人	-11.3209
极少	-11.321
代表们	-11.3214
▁印度尼西亚	-11.3217
并要求	-11.3218
维持和平部队	-11.3218
不只	-11.3218
过高	-11.3219
和以色列	-11.3224
损害了	-11.3226
▁他也	-11.3227
很长	-11.3229
有帮助	-11.323
过渡期	-11.323
这些数字	-11.3232
恐怖袭击	-11.3235
条约机构	-11.3237
领土上	-11.3237
年底前	-11.324
以提高	-11.324
目前没有	-11.3242
在南非	-11.3244
▁意大利	-11.3249
维持和平行动部	-11.3251
之路	-11.3252
社署	-11.3253
经济利益	-11.3254
年青	-11.3256
以辟免	-11.3257
李议员	-11.3259
后不久	-11.3261
教毓制度	-11.3265
▁这两个	-11.3265
采用了	-11.3267
给了	-11.327
可以从	-11.3271
打算在	-11.3273
禁令	-11.3276
维持在	-11.3278
法律程序	-11.328
费用为	-11.3282
主要原因是	-11.3284
其他方面	-11.3285
*	-11.3287
开车	-11.3287
漫	-11.3288
才开始	-11.3291
公共卫生	-11.3294
十二月份	-11.3295
▁瑞典	-11.3296
▁该项目	-11.3297
进展情况	-11.3298
▁有人认为	-11.3298
恐怖主义活动	-11.3299
安哥拉政府	-11.3307
已取得	-11.3308
所载的	-11.3308
与此	-11.3308
的可行性	-11.3309
国界	-11.331
勇	-11.331
该系统	-11.3311
舒	-11.3312
有益的	-11.3313
臣	-11.3314
更正	-11.3314
▁该署	-11.3315
还要求	-11.3317
还有其他	-11.3318
盲	-11.3321
不适	-11.3322
指派	-11.3322
筑	-11.3324
这正是	-11.3324
陌生	-11.3325
宰	-11.3325
救护	-11.3326
滚	-11.3326
区域内	-11.3327
前瞻性	-11.3327
烂	-11.3327
俊	-11.3327
法新社	-11.3327
巴勒斯坦权力机构	-11.3327
滴	-11.3327
遮	-11.3327
经社理事会	-11.3327
詹	-11.3327
在一定程度上	-11.3327
张建宗	-11.3327
睦	-11.3327
鹏	-11.3327
巷	-11.3327
冷战的结束	-11.3327
饲养	-11.3327
路政署	-11.3327
追究	-11.3328
沉默	-11.3328
玛丽	-11.3328
兼顾	-11.3328
撤退	-11.3328
巿场	-11.3328
安慰	-11.3328
借助	-11.3328
审判分庭	-11.3329
致敬	-11.3329
截止日期	-11.3329
就其	-11.3329
决赛	-11.3329
1373	-11.333
的拨款	-11.333
不法行为	-11.333
南区	-11.333
低估	-11.333
多边主义	-11.333
财团	-11.333
身亡	-11.333
令人不安	-11.3331
▁有鉴于	-11.3331
起案件	-11.3331
航天员	-11.3332
受训	-11.3332
天津	-11.3332
兼任	-11.3333
沙龙	-11.3334
1964	-11.3334
定论	-11.3334
粮农组织	-11.3335
修理	-11.3335
温度	-11.3335
警报	-11.3335
的严重性	-11.3336
户主	-11.3337
水灾	-11.3337
埃尔	-11.3338
划定	-11.3339
冷战结束	-11.3339
奥斯	-11.334
架次	-11.334
实物	-11.334
有趣	-11.3341
议会联盟	-11.3341
的会员国	-11.3341
构成威胁	-11.3341
实现这些目标	-11.3342
交谈	-11.3342
局限于	-11.3342
盛行	-11.3342
立法局议员	-11.3343
绝非	-11.3344
的合同	-11.3345
表示满意	-11.3346
司法部长	-11.335
的成长	-11.3351
打电话	-11.3351
经济危机	-11.3351
开发银行	-11.3354
不定	-11.3356
发言中	-11.3357
姐妹	-11.3359
顺利完成	-11.336
资料显示	-11.3361
该市	-11.3363
13%	-11.3364
总额为	-11.3366
廉价	-11.3367
立法会选举	-11.3368
的阶段	-11.3369
这起	-11.3369
执法机构	-11.3369
基础结构	-11.337
仍有待	-11.337
联邦政府	-11.337
进行对话	-11.3372
扩大到	-11.3373
土地上	-11.3378
相处	-11.3379
安全局势	-11.3379
首先要	-11.3379
陆地	-11.338
乃至	-11.3381
空间技术	-11.3381
交界	-11.3383
撒哈拉以南非洲	-11.3385
议长	-11.3385
该司	-11.3386
经已	-11.3387
我真的	-11.3389
降低了	-11.339
经济和社会发展	-11.3392
▁参加	-11.3392
57%	-11.3392
保释	-11.3394
忘了	-11.3395
老化	-11.3395
强国	-11.3396
被列为	-11.3396
促进人权	-11.3399
感到十分	-11.34
年以前	-11.3401
▁我不知道	-11.3405
改善工程	-11.3407
深为	-11.3407
大事	-11.3409
▁该方案	-11.3411
万人口	-11.3412
人丧生	-11.3413
只有一个	-11.3414
所用的	-11.3415
好事	-11.3416
制裁委员会	-11.3416
更美好	-11.3418
日本人	-11.3421
加强其	-11.3422
▁但这	-11.3422
即使是	-11.3424
10000	-11.3425
已证明	-11.3426
详细说明	-11.3427
▁倘若	-11.3427
的讲话	-11.3432
年轻的	-11.3434
的先决条件	-11.3436
外商	-11.3437
一连串	-11.3439
类别的	-11.3441
▁这是一个	-11.3443
所见	-11.3444
登上	-11.3446
中毒	-11.3448
郊	-11.3453
熟悉的	-11.3453
▁死者	-11.3455
进一步改善	-11.3456
十一岁	-11.3457
的薪酬	-11.3458
该案	-11.346
少了	-11.3466
开始实施	-11.347
有足够的	-11.3471
必须以	-11.3475
妇女权利	-11.3482
经济问题	-11.3483
新建	-11.3484
亦要	-11.3486
日间	-11.3486
政治家	-11.3487
展开了	-11.3488
懂	-11.3488
委员会会议	-11.3489
十周年	-11.349
也有人	-11.3492
为促进	-11.3493
介	-11.3495
一幅	-11.3495
每个人都	-11.3495
跟我	-11.3496
▁刚果民主共和国	-11.3497
希望能够	-11.35
必须对	-11.3501
(1999	-11.3503
不合	-11.3505
为自己	-11.3507
交代	-11.351
的效力	-11.3517
的议题	-11.3518
独特	-11.352
日结束	-11.3521
所面临的	-11.3521
被起诉	-11.3524
经济全球化	-11.3524
次区域	-11.3524
书中	-11.3526
▁许多国家	-11.3527
其他国家的	-11.3527
也没	-11.3529
政府应该	-11.3529
委员会的建议	-11.3532
不支持	-11.3533
此后	-11.3533
我个人	-11.3534
一流	-11.3534
东南	-11.3541
不做	-11.3541
众所周知	-11.3542
在安理会	-11.3543
不能不	-11.3544
▁另有	-11.3545
贷	-11.3548
举出	-11.3554
美国总统	-11.3557
验	-11.3562
严重威胁	-11.3563
都不会	-11.3563
有问题	-11.3563
已出院	-11.3564
不具备	-11.3565
厘	-11.3566
的措词	-11.3567
的理念	-11.3568
税制	-11.3569
的成效	-11.357
崇	-11.3571
不遵守	-11.3572
鼠	-11.3574
逆	-11.3575
名学生	-11.3575
匪	-11.3576
榜	-11.3576
屈	-11.3576
捞	-11.3577
窝	-11.3577
坪	-11.3577
相辅相成	-11.3577
巴布亚新几内亚	-11.3577
廉政公署	-11.3577
缝	-11.3577
记者招待会	-11.3577
▁他续说	-11.3577
博茨瓦纳	-11.3577
盒	-11.3577
磅	-11.3577
卑	-11.3577
挖掘	-11.3577
挚	-11.3577
夹	-11.3577
催	-11.3577
嘉年华	-11.3577
浙江	-11.3577
竭尽全力	-11.3577
的困境	-11.3577
滋扰	-11.3577
大体上	-11.3577
半个世纪	-11.3577
赤贫	-11.3577
产妇死亡率	-11.3577
公寓	-11.3578
阴谋	-11.3578
积聚	-11.3578
通缉	-11.3578
进口货值	-11.3578
筹集	-11.3578
我只想	-11.3578
偶然	-11.3578
汽油	-11.3578
悉尼	-11.3579
乘坐	-11.3579
竞争对手	-11.3579
抬头	-11.3579
坦克	-11.3579
暴雨	-11.3579
招待	-11.358
预订	-11.358
追查	-11.358
补救办法	-11.3581
创办	-11.3581
有组织犯罪	-11.3581
视野	-11.3582
沃尔	-11.3582
申请者	-11.3582
鉴定	-11.3582
尚待	-11.3582
海域	-11.3583
会考虑	-11.3583
后期	-11.3583
解答	-11.3584
局限性	-11.3584
影响了	-11.3585
表扬	-11.3585
偏远	-11.3588
文艺	-11.3589
▁新闻部	-11.3591
接种	-11.3591
股票市场	-11.3592
偏高	-11.3592
公会	-11.3593
排水	-11.3593
这些报告	-11.3594
难度	-11.3594
认真考虑	-11.3594
地铁公司	-11.3595
同其他	-11.3596
半年	-11.3597
积极贡献	-11.3598
逃走	-11.3598
台上	-11.36
进程中	-11.3601
出入境	-11.3601
民意调查	-11.3601
方法来	-11.3602
俄国	-11.3602
非正规	-11.3602
▁此项	-11.3603
严重受伤	-11.3604
就无法	-11.3605
送达	-11.3606
等国	-11.3606
这三个	-11.3606
批准书	-11.3609
印度尼西亚政府	-11.3609
进一步恶化	-11.3609
通行	-11.3609
自信	-11.361
及早	-11.361
漫画	-11.361
有所减少	-11.3611
五十六	-11.3611
的受访者	-11.3611
可使	-11.3613
科索沃塞族	-11.3616
冷战后	-11.3617
天下	-11.3618
碰到	-11.3618
全人类	-11.3619
成份	-11.3619
资料来源	-11.3619
的背景	-11.3621
到现在	-11.3622
很好地	-11.3624
侵略者	-11.3625
西方国家	-11.3626
出院	-11.363
过后	-11.363
转达	-11.3632
▁秘书长的报告	-11.3633
的惯例	-11.3634
的模式	-11.3635
建国	-11.3635
长大	-11.3637
有没有	-11.3643
分析和	-11.3646
而努力	-11.3648
开心	-11.3649
商店	-11.3649
宪法第	-11.365
载于附件	-11.3651
答应	-11.3655
那次	-11.3655
分阶段	-11.3655
.8%。	-11.3669
1.2	-11.367
医务	-11.3674
沿用	-11.3676
特里	-11.3676
更能	-11.3676
新措施	-11.3678
的差异	-11.368
的特色	-11.368
充分参与	-11.3681
严重问题	-11.3682
提出意见	-11.3682
早晨	-11.3683
28%	-11.3684
74	-11.3685
当今世界	-11.3687
任务规定	-11.369
劳动人口	-11.3691
▁联合国系统	-11.3691
然后再	-11.3693
转运	-11.3694
跨界	-11.3695
已达到	-11.3696
所取得的	-11.3697
正确的	-11.3698
不管是	-11.3703
周围的	-11.3704
令人遗憾	-11.3707
说来	-11.3708
行李	-11.3712
在短期内	-11.3713
是非	-11.3714
总收入	-11.3719
直接参与	-11.3719
要面对	-11.3719
这一次	-11.3719
希望看到	-11.372
尼斯	-11.3721
调查表	-11.3724
无线	-11.3725
所有国家都	-11.373
研究金	-11.373
政府提出	-11.373
专业知识	-11.3732
低下	-11.3734
请你	-11.3735
会造成	-11.3737
本条例草案	-11.3738
14.	-11.3741
其他机构	-11.3743
假日	-11.3745
发了	-11.3748
下一次	-11.3754
不稳定的	-11.3756
南海	-11.3758
挑	-11.3763
▁哎	-11.3763
运输业	-11.3764
不能接受	-11.3765
就任	-11.3767
令人关注	-11.3768
因此而	-11.377
把自己	-11.3771
正确地	-11.3775
预见	-11.3775
一艘	-11.3776
的记录	-11.378
的后续行动	-11.3782
可利用	-11.3786
会议中	-11.3789
南部非洲	-11.3789
▁如果要	-11.3792
堪	-11.3796
受访者	-11.3798
得太	-11.3798
食物权	-11.3798
不高	-11.38
造成巨大	-11.3801
和平文化	-11.3805
的所谓	-11.3806
名平民	-11.3806
是不能	-11.3807
▁不管	-11.3809
数次	-11.3817
慎重	-11.3817
承包	-11.3822
联合国大会	-11.3823
自发	-11.3824
▁粮农组织	-11.3825
来临	-11.3826
谈一谈	-11.3827
汽	-11.3829
奏	-11.383
帽	-11.383
柴	-11.3831
岩	-11.3832
疼	-11.3833
挡	-11.3833
姿	-11.3833
泡	-11.3833
瘦	-11.3833
毙	-11.3833
胃	-11.3833
蒸	-11.3833
怒	-11.3833
长沙湾	-11.3833
盾	-11.3833
侵蚀	-11.3833
垫	-11.3833
堆填区	-11.3833
陈婉娴议员	-11.3833
作好准备	-11.3833
柔	-11.3833
获委任为	-11.3833
亏损	-11.3833
扩阔	-11.3833
麻醉品	-11.3834
付诸	-11.3834
利得税	-11.3834
抗拒	-11.3834
探测	-11.3834
国内总产值	-11.3834
观赏	-11.3834
奇迹	-11.3835
传递	-11.3835
充实	-11.3835
派员	-11.3835
感激	-11.3835
选拔	-11.3835
讲究	-11.3836
全民投票	-11.3836
浮动	-11.3836
饭店	-11.3836
移居	-11.3836
我很高兴	-11.3836
终身	-11.3837
数码港	-11.3837
旅行社	-11.3837
柏林	-11.3837
标记	-11.3837
切合	-11.3837
定稿	-11.3838
勒索	-11.3838
资本主义	-11.3838
容纳	-11.3838
国有企业	-11.3839
击中	-11.3839
董先生	-11.3839
波黑	-11.3839
的贷款	-11.3839
生境	-11.3839
结社	-11.384
职位空缺	-11.384
1972	-11.384
100000	-11.3841
随时准备	-11.3841
中山	-11.3843
事务厅	-11.3843
含量	-11.3844
海湾	-11.3846
通胀率	-11.3847
外判	-11.3848
多年前	-11.385
评定	-11.385
成员包括	-11.385
立即停止	-11.3852
维尔	-11.3853
援助方案	-11.3853
▁此时	-11.3853
合法化	-11.3853
总计	-11.3854
可考虑	-11.3854
必将	-11.3857
工作坊	-11.3858
(2)	-11.3859
四周	-11.3859
传达	-11.386
纳尔	-11.3862
整理	-11.3862
中东和平进程	-11.3862
▁还应	-11.3863
的确是	-11.3864
高企	-11.3864
奉献	-11.3864
消费量	-11.3866
知识和	-11.3866
日报	-11.3867
重点放在	-11.3867
的相关	-11.3868
不幸的是	-11.3868
香港金融管理局	-11.3868
通常是	-11.3871
去做	-11.3871
警车	-11.3873
▁委员会成员	-11.3875
注目	-11.3876
该男子	-11.3877
▁我们需要	-11.3877
对手	-11.3878
▁吴	-11.3878
盈利	-11.3878
110	-11.3879
大家庭	-11.388
人类社会	-11.3883
▁他还说	-11.3884
昨	-11.3885
各民族	-11.3885
训练课程	-11.3886
可行性	-11.3886
二读	-11.3887
的收益	-11.3888
不利影响	-11.3889
我们会继续	-11.389
我一直	-11.3892
回头	-11.3896
理论上	-11.3896
▁该计划	-11.3898
离港	-11.3901
相应的	-11.3902
帮助他们	-11.3904
根本是	-11.3904
45%	-11.3905
于二零零零年	-11.3907
拉美	-11.3908
都希望	-11.3909
其间	-11.391
感觉到	-11.391
尚有	-11.391
效用	-11.3911
一项重要	-11.3913
接受教毓	-11.3915
▁下面	-11.3921
大城市	-11.3922
生物技术	-11.3926
审查会议	-11.3928
水果	-11.3931
是至关重要的	-11.3931
表示遗憾	-11.3932
▁民主党	-11.3933
充分执行	-11.3935
有名的	-11.3936
对此事	-11.3939
建筑工程	-11.394
借款	-11.3944
国庆	-11.3945
所要求的	-11.3946
所长	-11.395
小规模	-11.3951
多万人	-11.3952
起着	-11.3953
前列	-11.3955
劫案	-11.3956
就可能	-11.3956
这些方案	-11.3959
公民教毓	-11.3959
人员伤亡	-11.3959
▁今次	-11.396
理由是	-11.3963
我不会	-11.3964
解释说	-11.3968
年龄组	-11.3972
不公正	-11.3973
的净	-11.3978
自由市场	-11.3986
犯罪者	-11.3986
等级	-11.3987
筹备工作	-11.3988
必须考虑到	-11.3989
的最终	-11.3991
主要是因为	-11.3995
并确保	-11.3997
头上	-11.3998
救治	-11.3998
进一步扩大	-11.4
痛苦的	-11.4
中巴	-11.4001
下放	-11.4003
出身	-11.4004
苑	-11.4005
占了	-11.4006
这些资料	-11.4007
该区域的	-11.4007
二十年	-11.4008
提供必要的	-11.401
不接受	-11.4012
供电	-11.4012
的失败	-11.4013
演辞	-11.4015
常驻	-11.4016
获邀	-11.4017
他希望	-11.4018
食用	-11.4019
那一	-11.402
▁马来西亚	-11.402
满了	-11.402
上升到	-11.4021
庞	-11.4021
退休金	-11.4023
基本人权	-11.4025
▁塔利班	-11.4026
的文字	-11.4028
德尔	-11.4029
的策略	-11.403
来得	-11.4031
将它	-11.4038
带给	-11.4039
国际援助	-11.404
▁水务署	-11.4042
记住	-11.4044
各部	-11.4048
不再是	-11.4052
碰	-11.4053
展览会	-11.4054
的跌幅	-11.4057
有力的	-11.4058
衰退	-11.4061
禁区	-11.4066
提供关于	-11.4067
事务处	-11.4069
▁九八年	-11.407
岁以下儿童	-11.407
国家和国际	-11.4071
只不过	-11.4073
物种	-11.4073
三级	-11.4074
贸	-11.4076
的潜力	-11.4077
是人类	-11.4079
七十五	-11.4079
有很多人	-11.4079
囚	-11.4081
湿	-11.4083
最佳的	-11.4084
国营	-11.4086
数学	-11.4086
惨重	-11.4089
地下水	-11.4092
叛	-11.4092
巡回	-11.4092
狮	-11.4093
映	-11.4093
便于	-11.4094
尸	-11.4095
骄傲	-11.4095
攻击事件	-11.4095
必然会	-11.4095
勋	-11.4095
伤残	-11.4096
犬	-11.4096
允	-11.4096
劢	-11.4096
熊	-11.4096
挨	-11.4096
抹	-11.4096
萨拉热窝	-11.4096
四分之三	-11.4096
恭	-11.4096
撒	-11.4096
趁	-11.4096
郊野公园	-11.4096
鼎	-11.4096
养殖	-11.4097
肌肉	-11.4097
俱	-11.4097
会产生	-11.4097
较去年同期	-11.4097
疑匪	-11.4097
前瞻性陈述	-11.4097
一九五	-11.4097
一九八八年	-11.4097
抚养	-11.4097
被任命为	-11.4097
薄弱	-11.4097
的员工	-11.4097
港同盟	-11.4098
看了	-11.4098
幼儿园	-11.4098
误导	-11.4098
优异	-11.4098
炮弹	-11.4098
海滩	-11.4098
救助	-11.4098
消毒	-11.4098
激动	-11.4099
遗传	-11.4099
平稳	-11.4099
硬件	-11.4099
原籍国	-11.4099
首府	-11.41
电池	-11.41
掌声	-11.41
订购	-11.41
信徒	-11.4101
依旧	-11.4101
1100	-11.4101
采纳	-11.4101
放慢	-11.4101
摊位	-11.4101
减弱	-11.4101
讯问	-11.4102
非洲人	-11.4102
听众	-11.4102
的差别	-11.4102
财力	-11.4102
维和部队	-11.4103
单方面行为	-11.4103
改良	-11.4103
卷入	-11.4103
非法贩运	-11.4103
偏低	-11.4103
授	-11.4104
号法令	-11.4104
成败	-11.4104
样品	-11.4104
打死	-11.4105
给人	-11.4105
感到高兴	-11.4105
文化遗产	-11.4108
交存	-11.4108
讲解	-11.4108
提取	-11.4109
另行	-11.411
完美	-11.411
大会上	-11.4113
运气	-11.4114
年第一季度	-11.4117
武装集团	-11.4118
趋于	-11.4118
很长时间	-11.4119
第三方	-11.412
押后	-11.412
不可或缺的	-11.4121
随便	-11.4121
有更多的	-11.4121
总统选举	-11.4122
香港警方	-11.4124
晚间	-11.4125
病床	-11.4125
免费提供	-11.4126
可持续性	-11.4127
家乡	-11.4128
税务局	-11.4128
表面上	-11.4129
优先考虑	-11.4129
弃置	-11.413
新政府	-11.413
器材	-11.4131
首位	-11.4134
执行秘书	-11.4135
已经采取了	-11.4139
被告知	-11.4141
这些原则	-11.4142
居然	-11.4143
永久性	-11.4145
专门机构	-11.4146
人道主义危机	-11.4148
会议室	-11.4149
督察	-11.415
应该指出	-11.415
被捕者	-11.4154
激烈的	-11.4155
重大影响	-11.4159
益处	-11.416
完全同意	-11.4163
四十一	-11.4165
持续了	-11.4166
里斯	-11.4168
藏有	-11.4168
公正和	-11.4169
新鲜	-11.417
供应量	-11.4174
真空	-11.4179
调查团	-11.4179
被告人	-11.4181
迅速增加	-11.4181
下属	-11.4182
黎巴嫩和	-11.4183
的报告中	-11.4183
深化	-11.419
以军	-11.4192
期货	-11.4194
施政报告中	-11.4194
▁社会福利署	-11.4194
跟随	-11.4195
的房屋	-11.42
起生效	-11.42
考虑如何	-11.4204
众人	-11.4205
高潮	-11.4206
安全区	-11.4208
协调中心	-11.4211
贸易自由化	-11.4214
儿女	-11.4214
六十五	-11.4214
大大增加	-11.4215
人格	-11.422
令我	-11.4221
一枚	-11.4224
调查员	-11.4225
罪恶	-11.4226
持续发展	-11.4227
广泛地	-11.4231
调查后	-11.4236
政策上	-11.4239
▁高级专员	-11.4241
还可	-11.4241
好几个	-11.4245
▁注	-11.4249
妇女参加	-11.425
使妇女	-11.4252
了他的	-11.4252
之道	-11.4254
零星	-11.4254
秘书长的报告	-11.4254
的主要问题	-11.4255
行政院	-11.4256
▁我们都	-11.4257
七月一日	-11.4259
科学院	-11.4259
开展活动	-11.4259
▁关于第	-11.426
解雇	-11.4262
都受到	-11.4264
还建议	-11.4265
名叫	-11.4268
▁该法	-11.4271
人权领域	-11.4271
实属	-11.4272
美丽的	-11.4272
如果你	-11.4273
▁有些国家	-11.4277
▁摩洛哥	-11.428
国人	-11.4281
发送	-11.4281
这些权利	-11.4282
商户	-11.4284
年代中期	-11.4286
庄严	-11.4287
等到	-11.4289
%	-11.4291
感受到	-11.4292
十几	-11.4295
基础教毓	-11.4296
三十九	-11.4296
促进了	-11.4301
不象	-11.4303
十分关注	-11.4307
的权益	-11.4309
只得	-11.431
一点也不	-11.4311
肯定是	-11.4313
它还	-11.4317
不少人	-11.4321
和维护	-11.4322
若要	-11.4323
因为它们	-11.4323
我们不应	-11.4326
上个月	-11.4329
的言论	-11.433
▁专家们	-11.4331
▁国际社会必须	-11.4332
应得到	-11.4333
安全理事会第	-11.4335
的理解	-11.4338
绪	-11.4341
九九	-11.4344
盗窃	-11.4347
占领军	-11.4349
统计资料	-11.4349
应从	-11.435
在伦敦	-11.4351
的最重要	-11.4352
碍	-11.4353
的独特	-11.4354
可取	-11.4357
恰当的	-11.4358
润	-11.436
▁他们认为	-11.4362
晴	-11.4362
伴随	-11.4364
弊	-11.4364
市政局	-11.4365
国际市场	-11.4365
衔	-11.4366
腊	-11.4366
猜	-11.4366
哀	-11.4367
悔	-11.4367
放射性	-11.4367
琼	-11.4367
曾俊华	-11.4367
浦	-11.4367
全面禁试条约	-11.4367
桩	-11.4367
白皮书	-11.4367
博览会	-11.4367
教统会	-11.4367
举足轻重	-11.4367
俱乐部	-11.4367
六方会谈	-11.4367
出缺率	-11.4367
直布罗陀	-11.4367
基桑加尼	-11.4367
黄大仙	-11.4367
汗	-11.4367
脊	-11.4367
毛泽东	-11.4367
联黎部队	-11.4367
勘探	-11.4367
被访者	-11.4367
宪报刊登	-11.4367
蝶	-11.4367
厉害	-11.4367
疑惑	-11.4367
勇敢	-11.4367
遏止	-11.4367
粉岭	-11.4367
评注	-11.4368
高速公路	-11.4368
空气质素	-11.4368
宪政	-11.4368
抢救	-11.4368
估价	-11.4368
离境	-11.4368
填写	-11.4369
住宿	-11.4369
辛苦	-11.4369
演唱	-11.4369
诉求	-11.4369
▁就是	-11.437
推销	-11.437
搜获	-11.437
表达了	-11.437
包容	-11.437
帝力	-11.437
单纯	-11.437
论据	-11.437
高度自治	-11.437
看一看	-11.4371
华裔	-11.4371
交界处	-11.4371
劳资关系	-11.4371
单亲家庭	-11.4372
祖先	-11.4372
布希	-11.4372
伴随着	-11.4373
之行	-11.4373
神圣	-11.4373
非常任理事国	-11.4373
考古	-11.4373
理据	-11.4374
解释为	-11.4374
教导	-11.4374
小贩	-11.4374
契约	-11.4375
西九龙	-11.4375
保安局	-11.4376
政府一直	-11.4376
光盘	-11.4377
交货	-11.4377
方面的作用	-11.4378
原材料	-11.4378
重叠	-11.4379
附属机构	-11.4379
侧重于	-11.4379
停电	-11.438
热爱	-11.438
出示	-11.438
蒙受	-11.4382
整体经济	-11.4382
给她	-11.4385
扩大了	-11.4388
瓦尔	-11.4388
所作的努力	-11.4389
始于	-11.4389
四人	-11.4389
年终	-11.4391
和新加坡	-11.4392
薪水	-11.4392
干部	-11.4393
离岛	-11.4393
负责管理	-11.4394
▁我亦	-11.4397
已收到	-11.4398
案发	-11.44
对平民	-11.4401
就业人数	-11.4402
至今仍	-11.4402
其他发展中国家	-11.4402
朝着	-11.4404
教练	-11.4405
项建议	-11.4406
亦没有	-11.4406
山东	-11.4406
不惜	-11.4407
总的来说	-11.4407
▁屋宇署	-11.4407
▁他呼吁	-11.4408
为此目的	-11.4408
有一点	-11.4409
经济学	-11.441
摆在	-11.4412
人权法	-11.4412
还有待	-11.4415
我只是	-11.4417
不一样	-11.4417
有意义	-11.4418
口岸	-11.4418
期限为	-11.4419
部分地区	-11.442
被绑架	-11.4421
我自己	-11.4423
曾表示	-11.4427
马尔	-11.4429
区议员	-11.443
要求联合国	-11.4431
大增	-11.4434
多大	-11.4436
我们便	-11.4437
财政和	-11.4439
拉丁美洲国家	-11.444
往返	-11.4441
的来源	-11.4441
专家们	-11.4442
球场	-11.4442
也好	-11.4443
东帝汶人	-11.4444
议会选举	-11.4444
是世界上最	-11.4448
该条例	-11.4449
中占	-11.445
▁凤凰卫视	-11.4451
作出承诺	-11.4452
代表指出	-11.4453
能使	-11.4456
是错误的	-11.4457
安哥拉人民	-11.4458
世界和平	-11.4459
基本上是	-11.4463
但它们	-11.4466
外空	-11.4466
被没收	-11.4468
十分明显	-11.4469
行动方案	-11.447
致以	-11.4471
时间里	-11.4476
大量增加	-11.4476
农地	-11.448
十时	-11.448
继续存在	-11.4481
确实是	-11.4481
农村妇女	-11.4483
款规定	-11.4483
地注意到	-11.4487
地球上	-11.449
不必要的	-11.449
能力不足	-11.4491
该局	-11.4492
170	-11.4494
本款	-11.4494
我感到	-11.4494
研究院	-11.4495
▁这种情况	-11.4495
▁我们注意到	-11.4495
其成员	-11.4496
全境	-11.4497
传出	-11.4501
五天	-11.4504
许多其他	-11.4508
▁委员会指出	-11.451
于昨日	-11.452
见证	-11.4521
以书面	-11.4523
这亦是	-11.4526
举行选举	-11.4529
卫生部门	-11.4532
单身	-11.4533
逃到	-11.4533
我国人民	-11.4534
国家和地区	-11.4535
今午	-11.4538
的任务是	-11.4539
▁无论是	-11.4542
等字	-11.4542
世界级	-11.4543
靠自己	-11.4543
▁小组委员会	-11.4544
协助他们	-11.4545
一个重要	-11.4547
年报	-11.455
被指控	-11.455
律	-11.4552
拨给	-11.4553
的调查结果	-11.4554
负责任的	-11.4556
工务	-11.4557
一连串的	-11.4558
委员会秘书	-11.4558
▁6.	-11.4562
五万	-11.4565
一百万	-11.4568
法典	-11.457
发起的	-11.4572
仲	-11.4573
高水平	-11.4574
发起了	-11.4574
可能成为	-11.4576
相符	-11.4576
近几年	-11.4577
严重罪行	-11.4578
符	-11.4579
定下	-11.4579
经济效益	-11.4579
一架	-11.458
订于	-11.4583
送回	-11.4583
对发展中国家	-11.4584
不像	-11.4585
界线	-11.4587
应考虑到	-11.4591
是必要的	-11.4591
不相信	-11.4593
当地时间	-11.4593
众多的	-11.4598
号决议第	-11.4599
▁我请	-11.46
存货	-11.4603
2.5	-11.4607
路面	-11.4608
扩	-11.4608
▁总的来说	-11.4608
是不可	-11.4609
都应该	-11.461
制成	-11.4612
发展战略	-11.4612
时才	-11.4615
此时	-11.4615
邀	-11.4616
直接向	-11.4619
香港海关	-11.4619
港台	-11.4621
那天	-11.4624
我们大家都	-11.4629
摘	-11.4633
▁比如	-11.4633
户口	-11.4634
晋	-11.4638
奈	-11.4639
辨	-11.464
浸	-11.464
巴拉	-11.4642
斤	-11.4643
理事	-11.4643
钻	-11.4643
嫌疑	-11.4644
什叶派	-11.4644
灌	-11.4644
糟	-11.4644
莎	-11.4644
闷	-11.4644
应该说	-11.4644
所罗门群岛	-11.4644
自力更生	-11.4644
全面禁止核试验条约	-11.4644
冈比亚	-11.4644
厌	-11.4644
坦桑尼亚	-11.4644
布雷顿森林机构	-11.4644
莉	-11.4644
践踏	-11.4644
恋	-11.4645
参议院	-11.4645
政府合署	-11.4645
歇	-11.4645
百慕大	-11.4645
碳	-11.4645
陪审团	-11.4645
仅次于	-11.4645
以西班牙语	-11.4645
归因于	-11.4645
碧	-11.4645
潭	-11.4645
蜂	-11.4645
肥胖	-11.4645
轻型货车	-11.4645
危害人类罪	-11.4645
灌输	-11.4645
取缔	-11.4645
的呼声	-11.4645
肤色	-11.4645
伤痕	-11.4645
苏格兰	-11.4645
饮酒	-11.4645
戒毒	-11.4645
浪潮	-11.4645
侦查	-11.4645
精确	-11.4646
回皈祖国	-11.4646
宾馆	-11.4646
坚守	-11.4646
吸纳	-11.4646
种族隔离	-11.4646
吸取	-11.4646
扩张	-11.4646
这些儿童	-11.4647
指导方针	-11.4647
电讯管理局	-11.4647
草稿	-11.4647
春季	-11.4647
装饰	-11.4648
明年初	-11.4648
精致	-11.4648
的地步	-11.4648
江苏	-11.4649
总统府	-11.4649
发电机	-11.4649
转播	-11.4649
人大常委会	-11.465
联合国人员	-11.465
犯罪分子	-11.4651
化学武器	-11.4651
案子	-11.4652
▁新的	-11.4653
饮食业	-11.4654
表明了	-11.4654
董事长	-11.4655
冬天	-11.4655
篮	-11.4655
留下的	-11.4655
▁中方	-11.4655
零件	-11.4656
本次级方案	-11.4658
因为没有	-11.466
驻港	-11.466
什么都	-11.466
带到	-11.466
沿着	-11.466
尤其如此	-11.4661
很可惜	-11.4662
塞尔	-11.4662
兵力	-11.4662
基本权利	-11.4663
多哥	-11.4663
派往	-11.4663
多国	-11.4664
文献	-11.4664
的观念	-11.4665
双手	-11.4666
大会通过	-11.4666
沙特	-11.4666
手持	-11.4666
的使命	-11.4667
信息交流	-11.4668
▁委员会还建议	-11.4668
急速	-11.4669
朝圣	-11.4669
一九九八	-11.467
▁据了解	-11.467
战场	-11.467
第三国	-11.4671
境地	-11.4672
遭到了	-11.4674
煤矿	-11.4674
典型的	-11.4675
广大市民	-11.4676
租约	-11.4676
发毓	-11.4676
火山	-11.4677
工艺	-11.4677
目的在于	-11.4678
备用	-11.4678
有足够	-11.4678
身心健康	-11.468
犯罪率	-11.468
生活津贴	-11.4681
事例	-11.4681
倾向于	-11.4682
富国	-11.4683
1800	-11.4686
着重于	-11.4687
据报道	-11.4687
回皈后	-11.4689
合法权利	-11.469
也是如此	-11.4695
的儿子	-11.4696
比以往	-11.47
仍需	-11.47
各主要	-11.47
仅仅是	-11.4702
被忽视	-11.4702
这种情湟	-11.4704
区域和国际	-11.4705
依然是	-11.4708
很可能会	-11.4708
下述	-11.4709
同时亦	-11.471
国立	-11.4711
颁奖	-11.4721
间公司	-11.4722
我们感到	-11.4723
归于	-11.4724
的回应	-11.4727
台湾地区	-11.4727
零一	-11.4727
对自己的	-11.4728
几句	-11.473
三十三	-11.4733
比起	-11.4734
交通情湟	-11.4735
两年前	-11.4737
决策进程	-11.4738
都已经	-11.474
委员会建议	-11.4742
同样重要	-11.4744
的交易	-11.4744
岁以下的	-11.4744
贫困和	-11.4744
一百七十	-11.4745
叫做	-11.4745
▁政府还	-11.4747
临时政府	-11.4748
不懂	-11.475
反正	-11.4752
民族主义	-11.4753
的客户	-11.4762
交回	-11.4763
而被捕	-11.4763
三方	-11.4763
的统计数字	-11.4769
将于明年	-11.4769
字眼	-11.4772
工业发展	-11.4775
现在正在	-11.4776
只可	-11.4779
返回者	-11.478
我还是	-11.4781
八月份	-11.4785
防疫	-11.4785
仅限于	-11.4787
看得	-11.4787
感谢秘书长	-11.479
实现发展	-11.479
的绝大多数	-11.479
估计有	-11.4793
部电影	-11.4793
也很重要	-11.4794
为重点	-11.4798
稍后会	-11.4809
升值	-11.4809
惊讶	-11.4814
提供技术	-11.4814
这些目标	-11.4815
人的生命	-11.4816
乏	-11.4818
流向	-11.4822
进去	-11.4824
进来	-11.4824
已进行了	-11.4831
最后决定	-11.4832
保持着	-11.4832
▁在过去的	-11.4833
均已	-11.4833
哲	-11.4836
联络小组	-11.4837
打了	-11.4839
名成员	-11.4842
于本月	-11.4843
65%	-11.4844
领域内	-11.485
不是一个	-11.4858
将有助	-11.4858
直接投资	-11.4859
研发	-11.4866
该条	-11.4869
恢复和平	-11.4872
常常是	-11.4872
▁我们感谢	-11.4874
正在发生	-11.4874
平民人口	-11.4877
人体	-11.4878
▁大家都知道	-11.488
不怕	-11.4886
九十年代	-11.4887
管理问题	-11.4888
经济损失	-11.4889
就业和	-11.489
谋杀案	-11.4893
所采取的	-11.4897
350	-11.4898
▁他亦	-11.4898
劳动法	-11.4902
很复杂	-11.4903
▁其次是	-11.4907
各成员	-11.4907
的形势	-11.4907
攀	-11.4908
近几年来	-11.4909
必须强调	-11.4909
阁	-11.4913
斯先生	-11.4913
效能	-11.4913
正经历	-11.4914
有关决议	-11.4917
评审委员会	-11.492
讨	-11.4922
数十年	-11.4923
灰色	-11.4924
数百万	-11.4924
收养	-11.4925
不适用于	-11.4926
建立起	-11.4927
闭	-11.4927
彰	-11.4928
侦	-11.4929
漂	-11.493
秉	-11.493
醉	-11.493
剖	-11.493
踢	-11.493
滨	-11.493
宇宙	-11.493
坟	-11.493
淋	-11.493
验屍	-11.493
诺贝尔和平奖	-11.493
谭耀宗议员	-11.493
东帝汶过渡当局	-11.493
巴巴多斯	-11.493
伊斯坦布尔	-11.493
弥敦道	-11.493
厌倦	-11.493
向警方报案	-11.493
炳	-11.493
阿拉伯利比亚民众国	-11.493
冯检基议员	-11.493
刘江华议员	-11.493
司徒华议员	-11.493
猖	-11.493
腔	-11.493
邱	-11.493
首日封	-11.493
彦	-11.493
碑	-11.493
旗帜	-11.493
有史以来	-11.493
泡沫	-11.493
棚	-11.493
悼念	-11.493
诱惑	-11.493
困惑	-11.493
鹅	-11.493
伪钞	-11.493
讚赏	-11.493
追溯	-11.493
▁城市规划委员会	-11.4931
被判入狱	-11.4931
偷渡	-11.4931
遣散	-11.4931
领事馆	-11.4931
罗姆人	-11.4931
本地生产总值	-11.4931
制成品	-11.4931
耗资	-11.4931
加蓬	-11.4932
配置	-11.4932
表彰	-11.4932
严密	-11.4932
发电厂	-11.4932
大师	-11.4932
强有力的	-11.4932
大赦	-11.4932
比喻	-11.4932
普京	-11.4932
撰写	-11.4933
公务员事务局	-11.4933
富有成果	-11.4933
普查	-11.4933
极端主义	-11.4933
掌管	-11.4933
救护车	-11.4933
▁近来	-11.4933
婚礼	-11.4934
纯属	-11.4934
优越	-11.4934
约束力	-11.4934
药物滥用	-11.4934
图示	-11.4934
音乐学院	-11.4935
负资产	-11.4936
凶手	-11.4936
没想到	-11.4937
清洗	-11.4937
圣诞节	-11.4937
负面	-11.4937
1973	-11.4938
四川	-11.4938
主观	-11.4939
布什总统	-11.4939
无助于	-11.494
重庆	-11.494
没有足够	-11.494
违反人权	-11.494
票数	-11.4941
亚洲国家	-11.4942
▁这包括	-11.4942
决议草案进行表决	-11.4942
获胜	-11.4943
贩卖人口	-11.4944
正式语文	-11.4945
甄选	-11.4946
充分发挥	-11.4946
与其他国家	-11.4946
可能出现	-11.4946
比如说	-11.4947
情感	-11.4947
自动化	-11.4947
战斗机	-11.4949
开始运作	-11.4951
接见	-11.4953
连任	-11.4953
平安	-11.4958
珠宝	-11.4958
司法独立	-11.4959
生病	-11.496
不得超过	-11.496
回报率	-11.4961
保护主义	-11.4961
被捕男子	-11.4962
得奖	-11.4962
物料	-11.4964
之余	-11.4967
两名男子	-11.4967
之列	-11.4967
生活质素	-11.4968
53%	-11.4968
措辞	-11.4969
进行核试验	-11.497
场面	-11.4971
全面检讨	-11.4971
今年三月	-11.4971
巴尔	-11.4972
证据证明	-11.4972
下跌了	-11.4973
▁我们谨	-11.4973
一节	-11.4973
还应该	-11.4974
事态	-11.4975
入场	-11.4975
也不知道	-11.4976
所称的	-11.4976
85%	-11.4977
请愿	-11.4977
教毓界	-11.4977
时光	-11.4978
上半年	-11.498
更广泛的	-11.4981
1200	-11.4983
做生意	-11.4983
值得我们	-11.4983
爱好	-11.4986
更容易	-11.4989
第三届	-11.4989
缴费	-11.4994
附件二	-11.4997
▁董建华说	-11.4997
圣地	-11.4998
备有	-11.5
黑社会	-11.5
图则	-11.5001
港澳	-11.5002
▁香港是	-11.5003
以色列当局	-11.5003
▁我们支持	-11.5004
大家都知道	-11.5004
名士兵	-11.5004
西南	-11.5009
海洋环境	-11.501
共同利益	-11.5012
此等	-11.5012
在二零零一年	-11.5016
限额	-11.5017
▁该处	-11.5019
按时	-11.5021
贸易署	-11.5022
人权状况	-11.5023
成千上万的	-11.5023
等因素	-11.5024
书法	-11.5024
有自己的	-11.5025
学士学位	-11.5027
上台	-11.5028
两家	-11.5029
路向	-11.5031
核准的	-11.5032
▁这位	-11.5032
▁一个代表团	-11.5033
大道	-11.5038
以保障	-11.5039
继续加强	-11.5042
展现	-11.5046
迄今已	-11.5047
能力有限	-11.5049
但须	-11.5055
这只是	-11.5058
本署	-11.5059
个多月	-11.506
自身的	-11.5062
工作文件	-11.5066
后便	-11.5067
社会保险	-11.5067
前任	-11.5071
上升了	-11.5071
人潮	-11.5072
作出的努力	-11.5074
各缔约国	-11.5075
本文件	-11.5079
暴露	-11.5087
发展进程	-11.5088
个会员国	-11.5093
小组认为	-11.5093
有困难	-11.5095
下车	-11.5098
的执行情况	-11.5098
七成	-11.5102
税款	-11.5107
非常严重	-11.5107
▁在此期间	-11.5107
布拉	-11.5108
在总部	-11.5114
岐视性	-11.5115
克尔	-11.5118
越长	-11.512
▁毕竟	-11.5125
四十三	-11.5125
纽约市	-11.5126
刑事诉讼	-11.5126
是绝对	-11.5127
大学生	-11.5128
科目	-11.5129
谢意	-11.513
关切的是	-11.5131
提供的服务	-11.5134
以满足	-11.5134
存有	-11.5136
还将继续	-11.5137
一类	-11.5138
尊敬的	-11.5145
作出任何	-11.5146
方案预算	-11.5148
租住	-11.5154
泳池	-11.5156
的标志	-11.5156
中小学	-11.5156
粤港	-11.5158
的信誉	-11.5168
将会继续	-11.5169
这事	-11.5171
相信是	-11.5173
和民间社会	-11.5179
专员小组	-11.5181
抱有	-11.5181
第一委员会	-11.5182
有几个	-11.5183
警务	-11.5185
人数为	-11.5185
完全由	-11.5187
在农村	-11.5187
▁我们要求	-11.5187
全职	-11.5187
十七岁	-11.5189
各种问题	-11.5191
政府会继续	-11.5195
▁这是因为	-11.5197
▁会上	-11.5202
公认	-11.5202
十二个月	-11.5202
旦	-11.5204
已决定	-11.5205
唤	-11.5206
携	-11.5207
有关建议	-11.5207
其它国家	-11.5207
物价	-11.5208
悲	-11.5212
现年	-11.5213
纽	-11.5214
一些代表团	-11.5215
国防军	-11.5218
巡	-11.5219
征服	-11.522
到期	-11.5221
的基本原则	-11.5221
拘	-11.5222
维多利亚	-11.5223
嫌	-11.5223
劣	-11.5223
逝	-11.5223
堵	-11.5224
勿	-11.5224
慈	-11.5224
罩	-11.5224
郁	-11.5224
小提琴	-11.5224
塔吉克	-11.5224
琳	-11.5224
纱	-11.5224
微不足道	-11.5224
怡	-11.5224
艳	-11.5224
`	-11.5224
威尔斯亲王医院	-11.5224
朴	-11.5224
侯赛因	-11.5224
囊	-11.5224
坚定不移	-11.5224
渔护署	-11.5224
闯	-11.5224
新闻发布会	-11.5224
易受伤害	-11.5224
普通照会	-11.5224
核电厂	-11.5224
激励	-11.5224
布宜诺斯艾利斯	-11.5224
腹泻	-11.5224
葡	-11.5224
铜锣湾	-11.5224
恐慌	-11.5224
铝	-11.5224
游击队	-11.5224
丢弃	-11.5224
砖	-11.5224
型号	-11.5224
邓小平	-11.5225
泛滥	-11.5225
油麻地	-11.5225
厨房	-11.5225
塑料	-11.5225
铲除	-11.5225
皇帝	-11.5225
判处死刑	-11.5225
已经过去了	-11.5225
捡获	-11.5225
枪杀	-11.5225
货柜码头	-11.5225
筹委会	-11.5225
祸害	-11.5225
在某些情况下	-11.5225
截停	-11.5226
扩建	-11.5226
▁这就是为什么	-11.5226
估算	-11.5226
阿拉伯国家联盟	-11.5226
氧化	-11.5226
执照	-11.5226
按揭贷款	-11.5226
助理署长	-11.5226
告示	-11.5227
身材	-11.5227
残暴	-11.5227
屋邨	-11.5227
稻米	-11.5228
窗口	-11.5228
总部设在	-11.5228
履行职责	-11.5228
贮存	-11.5228
唱片	-11.5229
泊车	-11.5229
频率	-11.5229
附带	-11.5229
不可分割	-11.523
东耶路撒冷	-11.523
集结	-11.523
建立信任措施	-11.523
淡化	-11.523
密切监察	-11.5231
整合	-11.5232
侵犯人权行为	-11.5232
为市民提供	-11.5232
归纳	-11.5232
务求	-11.5232
总人数	-11.5233
惩教	-11.5233
开庭	-11.5234
退休保障	-11.5234
光荣	-11.5234
常务	-11.5234
的百分比	-11.5235
副主任	-11.5235
转移到	-11.5235
欧美	-11.5236
副局长	-11.5236
讲师	-11.5236
主席团成员	-11.5237
越好	-11.5237
西藏	-11.5237
藉着	-11.5237
航行	-11.5238
古代	-11.5238
享用	-11.5239
公职	-11.524
警力	-11.5241
九点	-11.5242
志愿者	-11.5243
流感	-11.5243
强硬	-11.5245
议员致辞	-11.5245
侧重	-11.5246
五四	-11.5247
连战	-11.5249
远见	-11.525
近代	-11.525
七月份	-11.5251
在巴格达	-11.5251
刚开始	-11.5251
它认为	-11.5252
妓女	-11.5252
中央银行	-11.5253
仍然没有	-11.5253
的有效性	-11.5253
密切联系	-11.5253
结构调整	-11.5253
关乎	-11.5254
作出答复	-11.5255
民主联盟	-11.5255
不发达	-11.5256
孕	-11.5256
教毓机构	-11.5256
环境保护署	-11.5257
控罪	-11.5257
年满	-11.5258
多人受伤	-11.5259
发展项目	-11.5263
生死	-11.5264
经济学家	-11.5264
升高	-11.5266
林业	-11.5268
中级	-11.5269
实现可持续发展	-11.5269
事儿	-11.5274
十分复杂	-11.5274
决不能	-11.5276
多民族	-11.5277
投入使用	-11.5277
关切地注意到	-11.5278
下周	-11.528
金融服务	-11.5283
刻意	-11.5283
代表欧洲联盟	-11.5283
水务署	-11.5286
代表团希望	-11.5287
下落	-11.5289
十四岁	-11.529
有效期	-11.5294
空前的	-11.5295
在收到	-11.53
扩展到	-11.5304
最明显的	-11.5307
任由	-11.5309
也未	-11.531
应尽可能	-11.5311
两点	-11.5312
答复说	-11.5314
藉此	-11.5314
新世纪	-11.5317
有人说	-11.5319
产假	-11.532
预计于	-11.5325
一行	-11.5325
任何有关	-11.5326
调解人	-11.5326
总算	-11.533
几年来	-11.5334
一小时	-11.5337
草案第	-11.5338
也有一些	-11.534
很少有	-11.5341
始终是	-11.5344
军用	-11.5348
被用来	-11.5351
共接获	-11.5358
忘记了	-11.5358
本身也	-11.5359
本世纪	-11.5359
童年	-11.5364
并不容易	-11.5375
主要官员	-11.5377
资助计划	-11.5377
的文章	-11.5381
三间	-11.5383
这块	-11.5384
可惜	-11.5384
毕竟是	-11.5387
设置了	-11.5389
因此必须	-11.5389
▁1.	-11.5391
先决条件	-11.5393
欢迎秘书长	-11.5395
很多国家	-11.5398
之多	-11.5399
保护儿童	-11.54
民协	-11.54
政界	-11.5401
间隔	-11.5402
技术上	-11.5403
台大	-11.5404
其结果	-11.5406
已经达到	-11.5406
拿到	-11.5407
举行的会议	-11.5407
各国都	-11.5409
一千三百	-11.541
发射了	-11.541
身边	-11.5412
的筹备工作	-11.5412
使它们	-11.5413
对未来	-11.5414
附件一	-11.5417
其经济	-11.5417
单单	-11.5419
举行一次	-11.542
区域性	-11.5422
上大学	-11.5422
还强调	-11.543
已知	-11.5434
盈	-11.5434
降到	-11.5435
划拨	-11.5436
破坏了	-11.5438
▁我们会继续	-11.544
政治领导人	-11.5444
完整的	-11.5445
▁这些都是	-11.5447
应该得到	-11.5448
阶	-11.5456
遗憾的是	-11.5457
反对者	-11.5457
更难	-11.5457
智能	-11.5459
投诉人	-11.5465
对古巴	-11.5468
对人权的	-11.547
曾被	-11.5474
特别行政区	-11.5479
分列	-11.5482
1.6	-11.5483
多数人	-11.5487
感到关注	-11.5494
这种状况	-11.5494
大半	-11.5494
联合国组织	-11.5496
刑期	-11.5497
区域集团	-11.5498
作出适当	-11.5501
提供帮助	-11.5502
单是	-11.5503
四个月	-11.5506
报告所述期间	-11.5513
其自己的	-11.5513
仍将	-11.5514
阻碍了	-11.5519
家居	-11.5519
这项研究	-11.552
肢	-11.5521
高等	-11.5524
踪	-11.5525
峡	-11.5525
拾	-11.5526
泳	-11.5526
谅	-11.5526
求职	-11.5527
仿	-11.5527
亏	-11.5527
昏	-11.5527
丑	-11.5527
呆	-11.5527
奴隶	-11.5527
深水埗	-11.5527
中产阶级	-11.5527
克林顿	-11.5527
泵	-11.5527
轴	-11.5527
太子港	-11.5527
祈祷	-11.5527
枯	-11.5527
双边和多边	-11.5527
吞	-11.5527
中央人民政府	-11.5528
凶杀案	-11.5528
战俘	-11.5528
珠三角	-11.5528
欺骗	-11.5528
赤柱	-11.5528
一九八九年	-11.5528
含糊	-11.5528
吸烟	-11.5528
满意地注意到	-11.5528
陪伴	-11.5528
($)	-11.5528
操纵	-11.5528
国集团和中国	-11.5528
拘禁	-11.5528
题材	-11.5528
临时区域市政局	-11.5528
一九八六年	-11.5528
期盼	-11.5528
失衡	-11.5528
停泊	-11.5528
残害	-11.5528
帮忙	-11.5529
的唯一途径	-11.5529
农作物	-11.553
拜访	-11.553
阿拉法特主席	-11.553
交涉	-11.553
突发	-11.553
马拉维	-11.553
青衣	-11.5531
保持不变	-11.5531
难怪	-11.5531
截获	-11.5531
的复杂性	-11.5531
山坡	-11.5531
遵从	-11.5531
幻想	-11.5532
狮子	-11.5532
消灭贫穷	-11.5532
偶尔	-11.5532
伦理	-11.5532
插入	-11.5532
火车站	-11.5532
退学	-11.5533
镜头	-11.5533
缴交	-11.5533
大纲	-11.5533
▁一般来说	-11.5533
副署长	-11.5534
经历过	-11.5534
载客	-11.5535
康体	-11.5535
最低工资	-11.5535
寓所	-11.5535
找到了	-11.5535
赖斯	-11.5535
创新科技	-11.5536
戈马	-11.5537
联合国儿童基金会	-11.5537
保安部队	-11.5539
以色列国防军	-11.5539
投身	-11.5539
优先重视	-11.5539
风景	-11.554
的象征	-11.554
参数	-11.554
退化	-11.5542
议事规则第	-11.5543
进驻	-11.5543
救生	-11.5543
债务负担	-11.5543
上升趋势	-11.5543
普选	-11.5543
重整	-11.5544
火器	-11.5544
反复	-11.5544
刑事责任	-11.5545
红十字委员会	-11.5545
考生	-11.5545
▁在报告所述期间	-11.5546
准则草案	-11.5546
兴起	-11.5548
大学毕业生	-11.5548
过渡时期	-11.5549
马其顿共和国	-11.5549
下午四时	-11.5549
提出质疑	-11.5549
弱点	-11.555
经济困难	-11.5551
失踪人员	-11.5551
将面临	-11.5552
分销	-11.5553
外流	-11.5553
道义上	-11.5554
记者会上	-11.5554
并非如此	-11.5554
失业人士	-11.5555
计算方法	-11.5555
西行	-11.5555
环境污染	-11.5557
独自	-11.5558
协调一致	-11.5559
定居者	-11.5559
现存	-11.5559
修订动议	-11.556
落后于	-11.5561
门外	-11.5564
进行访问	-11.5564
高价	-11.5565
业内	-11.5566
担负	-11.5566
透明和	-11.557
解决这一问题	-11.5573
获发	-11.5575
19%	-11.5575
上市公司	-11.5575
执行死刑	-11.5578
副本	-11.5578
反对意见	-11.5578
欢迎市民	-11.5583
某些方面	-11.5584
都无法	-11.5585
心血	-11.5586
▁芬兰	-11.5587
所学校	-11.5587
法律文书	-11.5588
国际安全	-11.5592
造型	-11.5595
边境地区	-11.5596
任期内	-11.5597
▁应当指出	-11.5597
其次是	-11.5599
司法部门	-11.5599
研究成果	-11.5599
吃了	-11.56
长度	-11.5601
广阔的	-11.5601
却又	-11.5603
港岛区	-11.5603
等领域	-11.5608
向立法会	-11.5609
继而	-11.5611
马克	-11.5617
的薪金	-11.5617
证据显示	-11.5617
享受到	-11.5617
伸出	-11.5617
出口商	-11.5618
免费入场	-11.5619
推迟到	-11.5621
成员们	-11.5622
失业者	-11.5622
我曾	-11.5622
大厅	-11.5623
全系统	-11.5624
在他的	-11.5629
第三阶段	-11.5629
第一天	-11.563
在家里	-11.5631
过去数年	-11.5635
劳动市场	-11.5635
理应	-11.5636
枪击	-11.5641
送给	-11.5641
来实现	-11.5645
不肯	-11.5647
拘留所	-11.5648
社会政策	-11.565
一年多	-11.565
报道说	-11.5651
▁陈方安生	-11.5653
面包	-11.5659
不同的意见	-11.5661
开放供	-11.5663
用语	-11.5665
可获得	-11.5668
总区	-11.5669
西北部	-11.567
正在进行的	-11.5671
认真地	-11.5678
作出安排	-11.5678
的梦想	-11.5679
零售商	-11.5681
显示了	-11.5685
一处	-11.569
1.5%	-11.5691
直接影响	-11.5693
电子贸易	-11.5696
两宗	-11.5697
会晤了	-11.5698
遗留	-11.5701
终于在	-11.5705
为主题	-11.5706
这儿	-11.5708
联同	-11.571
该法	-11.5713
再一次	-11.5717
作为联合国	-11.5721
研究生	-11.5722
自主权	-11.5723
四月一日	-11.5727
全国委员会	-11.5727
今年四月	-11.5729
不理想	-11.5732
多家	-11.5735
的含义	-11.5736
50000	-11.5738
还没	-11.5738
其中有些	-11.5739
既有	-11.5744
第四次	-11.5745
对公众	-11.5746
大部分时间	-11.575
研究工作	-11.575
所有公民	-11.5751
剧团	-11.5753
会议厅	-11.5757
毫	-11.576
到最后	-11.5761
令人感到	-11.5762
完全可以	-11.5765
人权教毓	-11.5767
我看	-11.5772
该岛	-11.5773
本来就	-11.5774
为主的	-11.5778
教毓改革	-11.5781
在国外	-11.5783
进一步讨论	-11.579
一年前	-11.579
20000	-11.5791
这次袭击	-11.5793
工业署	-11.5795
活产	-11.5796
125	-11.5797
若干国家	-11.58
破坏性	-11.581
小学生	-11.5812
出版了	-11.5815
建立和平	-11.5815
严重破坏	-11.5815
刑事调查	-11.5815
提出任何	-11.5822
主持了	-11.5829
党员	-11.583
国立大学	-11.583
继续保持	-11.583
一提	-11.583
民营	-11.5831
任何一个	-11.5833
社会经济发展	-11.5834
供市民	-11.5835
▁在这一	-11.5836
鼻	-11.5836
管理层	-11.5837
掘	-11.5837
多年以来	-11.5838
突	-11.5838
淹	-11.5839
塌	-11.5839
赔	-11.5839
重债穷国	-11.5839
辑	-11.5839
爵	-11.5839
秦	-11.5839
妈	-11.5839
经合组织	-11.584
脖	-11.584
立方米	-11.584
膜	-11.584
丘	-11.584
自给自足	-11.584
阿拉伯联合酋长国	-11.584
‧	-11.584
融洽	-11.584
雀	-11.584
人道主义事务协调厅	-11.584
承运人	-11.584
机电工程署	-11.584
由来已久	-11.584
硫	-11.584
众议院	-11.584
纲要	-11.584
荒谬	-11.584
裡	-11.584
赎	-11.584
早些时候	-11.584
一揽子	-11.584
感到吃惊	-11.584
美洲国家组织	-11.584
马达加斯加	-11.584
魅力	-11.584
舟	-11.584
渗透	-11.584
温馨	-11.584
记录在案	-11.584
凝聚	-11.584
模糊	-11.584
▁令人遗憾的是	-11.584
挣扎	-11.584
驻科部队	-11.584
细胞	-11.584
六月三十日	-11.584
见表	-11.584
採纳	-11.584
多米尼加共和国	-11.5841
戒严	-11.5841
置疑	-11.5841
撤消	-11.5841
欣喜	-11.5841
电缆	-11.5841
交叉	-11.5841
血液	-11.5841
的全部楼宇	-11.5841
以书面形式	-11.5841
乍得	-11.5841
波黑特派团	-11.5841
夸张	-11.5842
找寻	-11.5842
截查	-11.5842
伤势严重	-11.5842
症状	-11.5842
直播	-11.5842
剩下的	-11.5842
识别	-11.5842
泊车位	-11.5842
公共交通工具	-11.5842
形状	-11.5842
达尔文	-11.5843
激情	-11.5843
宁愿	-11.5843
炸药	-11.5843
可怜	-11.5843
禁毒署	-11.5843
一百九十	-11.5844
提早	-11.5844
化学品	-11.5844
已成	-11.5844
帽子	-11.5844
轻易	-11.5844
展望未来	-11.5845
空置	-11.5845
白宫	-11.5845
分辨	-11.5845
1971	-11.5845
致词	-11.5845
艾滋病病毒	-11.5845
迈出的	-11.5846
货值	-11.5847
在我看来	-11.5847
传奇	-11.5847
造价	-11.5847
再次强调	-11.5847
性别岐视	-11.5848
杂项	-11.5848
加倍努力	-11.5848
强势	-11.5849
具有代表性	-11.5849
小泉	-11.5849
高兴地看到	-11.5849
承办商	-11.5849
对外贸易	-11.5849
反抗	-11.585
权限	-11.585
可悲	-11.585
人均收入	-11.585
刚好	-11.585
恐怖行为	-11.585
得奖者	-11.5851
露天	-11.5851
飞往	-11.5851
随意	-11.5851
消除核武器	-11.5852
私营化	-11.5852
临近	-11.5853
注明	-11.5853
居港	-11.5854
干线	-11.5855
数值	-11.5855
进行表决	-11.5855
长远来说	-11.5856
大幅度下降	-11.5856
国内流离失所	-11.5856
抱着	-11.5857
在街上	-11.5858
设计师	-11.5858
蓬勃发展	-11.5859
与和解	-11.5859
对立	-11.586
服务中心	-11.586
十足	-11.586
出席了会议	-11.586
前几年	-11.5861
▁警方相信	-11.5862
纳税人	-11.5863
管理措施	-11.5865
电动	-11.5866
外围	-11.5866
比例为	-11.5867
▁我们深信	-11.5867
税项	-11.5868
获选	-11.5869
神经	-11.587
外交关系	-11.587
尽量减少	-11.5872
雷达	-11.5873
的核心问题	-11.5873
获益	-11.5873
原居民	-11.5875
实际情况	-11.5875
源自	-11.5876
私下	-11.5876
战事	-11.5878
有甚么	-11.5879
参与决策	-11.588
万欧元	-11.5882
性虐待	-11.5882
台南	-11.5882
渡过	-11.5882
贵国	-11.5884
不同于	-11.5886
▁只有在	-11.5886
比去年	-11.5887
大胆	-11.5888
这一领域	-11.5889
必须符合	-11.589
所引起的	-11.589
现有资源	-11.5891
有效运作	-11.5891
▁警方于	-11.5893
召开会议	-11.5893
住家	-11.5893
专家认为	-11.5895
路段	-11.5896
并促进	-11.5897
第一部分	-11.5899
加以考虑	-11.5899
常驻代表团	-11.59
私营企业	-11.59
才知道	-11.5903
忆及	-11.5905
构成了	-11.5905
面谈	-11.5905
高质量的	-11.5905
必须通过	-11.5909
现在正	-11.5909
六十六	-11.5909
重量	-11.5911
不致	-11.5914
石头	-11.5915
先天	-11.5915
义工	-11.5918
灾难性	-11.592
哎	-11.592
施以	-11.592
外销	-11.5921
顾问研究	-11.5923
诸多	-11.5927
四十年	-11.5929
私人机构	-11.5929
通过对话	-11.593
不值得	-11.593
学业	-11.593
在本年	-11.5931
社会进步	-11.5931
制裁制度	-11.5931
财务委员会	-11.5931
其目的是	-11.5933
似乎并不	-11.5937
反之	-11.5938
方面取得	-11.5939
传说	-11.594
患上	-11.5942
非常感谢	-11.5942
还表明	-11.5943
的支持下	-11.5943
为了辟免	-11.5946
政策局	-11.5946
第一位	-11.5947
的框架内	-11.5948
交通部	-11.5951
楼市	-11.5952
保持稳定	-11.5955
原定	-11.5964
保护区	-11.5965
难得	-11.5965
一个星期	-11.5966
人赞成	-11.5968
视听	-11.5971
有不少人	-11.5975
进行评估	-11.5978
行劫	-11.5978
从而使	-11.5982
不公平的	-11.5983
公平分配	-11.5983
目前仍然	-11.5985
此举	-11.5988
一点二	-11.5995
但由于	-11.5995
两大	-11.5998
的国家之一	-11.5999
所面对的	-11.6
仍在继续	-11.6004
阿富汗境内	-11.6005
讨论如何	-11.6006
会尽快	-11.6006
年限	-11.6009
标准化	-11.6015
发展商	-11.6018
人道主义问题	-11.6021
不岐视	-11.6023
在许多地方	-11.6023
22%	-11.6027
被送往医院	-11.6027
被警察	-11.6028
结余	-11.6028
要靠	-11.6032
预期在	-11.6032
新规定	-11.6034
一语	-11.6035
几分钟	-11.6039
就此事	-11.6041
排除了	-11.6042
应立即	-11.6052
的边缘	-11.6052
得来的	-11.6054
常用	-11.6056
深入调查	-11.6057
年增长率	-11.6058
成千上万	-11.6058
期刊	-11.6059
深刻的	-11.6059
60000	-11.606
具体问题	-11.6062
平均每年	-11.6063
有趣的	-11.6066
一些地区	-11.6068
下午五时	-11.6072
240	-11.6075
当局会	-11.6075
所使用的	-11.6078
最能	-11.6081
商业活动	-11.6082
的一点是	-11.6083
已导致	-11.6083
这种合作	-11.6083
列于	-11.6084
派人	-11.6089
融	-11.6095
的主题是	-11.6096
一九九七	-11.6096
六万	-11.6096
战区	-11.6097
改革方案	-11.61
的潜在	-11.6105
取得了进展	-11.6106
充分地	-11.611
早年	-11.6113
的余地	-11.6114
这个计划	-11.6116
体现在	-11.6117
的措辞	-11.6119
持续不断	-11.6119
已久的	-11.6119
不大可能	-11.6119
联会	-11.612
有人认为	-11.612
具体行动	-11.6125
▁本文件	-11.6125
下跌百分之十	-11.6126
非正式会议	-11.6136
建议给予	-11.6136
硕士	-11.614
衡	-11.6141
有损	-11.6142
的和平与安全	-11.6142
市道	-11.6145
被打	-11.6146
理所当然	-11.6146
夸	-11.6147
货币基金组织	-11.6148
饮	-11.6148
格外	-11.6151
这项决议	-11.6152
发动了	-11.6152
评选	-11.6154
余下的	-11.6157
国际工作人员	-11.6157
受益人	-11.6158
战士	-11.6158
秘书长代表	-11.6158
聊	-11.6159
恐怖主义袭击	-11.6159
褲	-11.6159
慎	-11.6159
慰	-11.6159
家庭成员	-11.6159
颈	-11.6159
一般都	-11.616
时期内	-11.616
叙	-11.6161
箭	-11.6161
眠	-11.6161
赋	-11.6162
躲	-11.6162
框	-11.6162
被毁	-11.6162
擦	-11.6162
肝	-11.6162
斯克	-11.6162
披	-11.6162
爷	-11.6162
斜	-11.6162
绵	-11.6162
竭尽所能	-11.6162
赐	-11.6162
庸	-11.6162
江泽民	-11.6162
投反对票	-11.6162
一如既往	-11.6162
舌	-11.6162
半导体	-11.6162
堤	-11.6162
恶性循环	-11.6162
皮特凯恩	-11.6162
前南斯拉夫的马其顿共和国	-11.6162
新纪元	-11.6162
梁耀忠议员	-11.6162
唐英年	-11.6162
撒南非洲	-11.6162
伯利恒	-11.6162
印第安	-11.6162
桂	-11.6162
繁殖	-11.6162
黄宏发议员	-11.6162
议案提出修正案	-11.6162
浴	-11.6162
猴	-11.6162
陈鉴林议员	-11.6162
鹰	-11.6162
畏	-11.6163
歪曲	-11.6163
疏忽	-11.6163
晚上八时	-11.6163
揭幕	-11.6163
一併	-11.6163
铃	-11.6163
仓促	-11.6163
从根本上	-11.6163
境况	-11.6163
律政司司长	-11.6163
振奋	-11.6163
直通车	-11.6163
财赤	-11.6163
贫富差距	-11.6163
鼓吹	-11.6163
崭新	-11.6163
争辩	-11.6163
舒服	-11.6163
监控	-11.6163
倒闭	-11.6164
诊治	-11.6164
聪明	-11.6164
睡觉	-11.6164
欠佳	-11.6164
偿付	-11.6164
交通挤塞	-11.6164
肢体	-11.6164
退役	-11.6164
乐趣	-11.6164
一九八三年	-11.6164
私立	-11.6164
受重伤	-11.6164
残余	-11.6164
藉此机会	-11.6165
减贫	-11.6165
动摇	-11.6165
高级代表	-11.6165
掀起	-11.6165
偏离	-11.6165
喝酒	-11.6165
一阵	-11.6166
电子邮件	-11.6166
养毓	-11.6166
应收款	-11.6166
收缩	-11.6166
整顿	-11.6166
选举事务处	-11.6166
礼拜	-11.6166
相比之下	-11.6167
俄语	-11.6167
呈报	-11.6167
毫无意义	-11.6167
结尾	-11.6167
尽速	-11.6167
置身	-11.6168
借调	-11.6168
结合起来	-11.6168
在互联网上	-11.6168
整套	-11.6168
单程	-11.6168
感到自豪	-11.6168
▁它将	-11.6169
围绕着	-11.6169
法郎	-11.6169
公职人员	-11.6169
支票	-11.617
董事局	-11.617
过剩	-11.617
告别	-11.617
正在努力	-11.6171
客人	-11.6171
调停	-11.6171
营商环境	-11.6172
职系	-11.6172
移民法	-11.6173
供求	-11.6174
复原	-11.6174
1949	-11.6175
启发	-11.6175
社交	-11.6175
忙着	-11.6176
布雷	-11.6176
坏事	-11.6176
捐助方	-11.6176
黄色	-11.6176
中国加入世贸	-11.6177
灯光	-11.6177
教派	-11.6177
每逢	-11.6178
严格控制	-11.6178
无核武器国家	-11.6179
青山	-11.6179
听证	-11.6179
同盟	-11.618
15000	-11.618
养老	-11.618
监察员	-11.618
兑换	-11.6181
在世界各地	-11.6181
新闻媒体	-11.6181
终点	-11.6181
精心	-11.6181
▁她还	-11.6182
公私	-11.6182
费用概算	-11.6184
取消了	-11.6186
议事	-11.6187
商谈	-11.6187
和平协议	-11.6187
的独立性	-11.6187
六月份	-11.6189
些什么	-11.619
密切相关	-11.6191
救出	-11.6191
文盲率	-11.6192
确有	-11.6193
加州	-11.6195
生产能力	-11.6195
学额	-11.6196
越来越多地	-11.6197
可能影响	-11.6198
之间的联系	-11.6198
服务行业	-11.62
选择权	-11.62
政府首脑	-11.62
委员会的成员	-11.6204
获知	-11.6206
增长率为	-11.6206
越早	-11.6207
经济衰退	-11.6207
95%	-11.6207
警察工作队	-11.6207
放心	-11.6208
成交	-11.6213
则占	-11.6215
▁为确保	-11.6216
资本市场	-11.6218
代办	-11.6218
会採取	-11.6221
的迅速发展	-11.6221
明显下降	-11.6223
不同意见	-11.6225
四意	-11.6229
人道主义法	-11.6229
同行	-11.623
最容易	-11.6231
地方法院	-11.6231
衍生	-11.6232
真理	-11.6236
香港与内地	-11.6236
历年	-11.6236
资金不足	-11.6238
出台	-11.6239
法律界	-11.6244
详列	-11.6245
有一位	-11.6247
9000	-11.6247
全面地	-11.6247
视作	-11.6247
一致认为	-11.6251
联合国各机构	-11.6251
负责任	-11.6253
是很重要的	-11.6253
部长会议	-11.6255
独立国家	-11.6256
▁她指出	-11.6256
平民伤亡	-11.6257
兽	-11.6257
所提到的	-11.626
能够获得	-11.6261
几十	-11.6263
的演辞	-11.6265
斯塔	-11.6269
财政期间	-11.6269
在维也纳	-11.6273
仍可	-11.6273
马路	-11.6274
分期	-11.6274
将继续努力	-11.6278
致谢	-11.628
政府的立场	-11.6282
据估计	-11.6286
付给	-11.6287
美丽	-11.629
装设	-11.6291
他们的意见	-11.6292
190	-11.6292
回答说	-11.6293
顺利进行	-11.6293
今年年底	-11.6294
过渡政府	-11.6296
的原因之一	-11.6299
冲突的根源	-11.6301
去看	-11.6303
向安全理事会	-11.6303
于短期内	-11.6306
极限	-11.6307
市民可	-11.6307
在本局	-11.6307
尚无	-11.6308
棵	-11.6314
集资	-11.6319
流传	-11.632
失业问题	-11.6326
缔约国大会	-11.633
须由	-11.6331
反倒	-11.6332
星期天	-11.6336
零三	-11.6337
起因	-11.6342
个人自由	-11.6343
几十万	-11.6344
开放时间	-11.6345
来自美国	-11.6346
二号	-11.6346
督导委员会	-11.6347
前总统	-11.6348
不景气	-11.6348
自己的国家	-11.635
审计员	-11.635
行政长官董建华今日	-11.6351
安全保障	-11.6351
▁另据	-11.6354
解决这个问题	-11.6358
继续扩大	-11.636
我要强调	-11.6361
公众咨询	-11.6363
也只是	-11.6364
其中大部分	-11.6366
农村人口	-11.6366
成立一个	-11.6367
克莱	-11.6371
在屯门	-11.6373
市民应	-11.6375
物业市场	-11.6375
特尔	-11.6378
▁为了使	-11.6378
再见	-11.6378
另外一个	-11.638
和平行动	-11.638
最后报告	-11.6383
不远	-11.6383
特殊情况	-11.6386
实时	-11.6388
对照	-11.6396
各处	-11.6396
上级	-11.6397
工场	-11.6403
是否可以	-11.6404
来台	-11.6407
原有的	-11.6409
生活费用	-11.641
只要有	-11.6414
容器	-11.6415
亚洲区	-11.6416
提供意见	-11.6416
流动电话	-11.6421
必须遵守	-11.6426
这股	-11.6426
结核病	-11.6429
国土	-11.643
还得	-11.6432
也提出了	-11.6433
意见书	-11.6435
六十四	-11.6435
工地	-11.6435
巴士公司	-11.6436
全球化进程	-11.6436
的不利影响	-11.6437
企业界	-11.6438
负起	-11.6438
点零	-11.644
一路	-11.6448
出口市场	-11.6449
无法接受	-11.6452
积极支持	-11.6454
概要	-11.6455
性暴力	-11.6455
剩余的	-11.6456
特地	-11.6456
指出的是	-11.6459
个员额	-11.646
列出了	-11.6466
对他的	-11.6468
裁判法院应讯	-11.6469
仰	-11.6471
定期报告	-11.6471
不符	-11.6472
热门	-11.6472
该进程	-11.6476
耕	-11.6477
的论点	-11.6478
奥运	-11.6478
就象	-11.6483
这个方法	-11.6484
志愿人员	-11.6487
彼	-11.6489
法律框架	-11.6489
慰问	-11.649
酷	-11.649
歉	-11.6492
巿	-11.6492
媒	-11.6493
营区	-11.6493
扰	-11.6494
受审	-11.6494
勉	-11.6494
悠久	-11.6495
疲	-11.6495
宅	-11.6495
託	-11.6495
欺	-11.6495
荒漠化	-11.6495
姑	-11.6496
誓	-11.6496
纟	-11.6496
尿	-11.6496
驳斥	-11.6496
厄	-11.6496
归咎于	-11.6496
摩纳哥	-11.6496
令人吃惊	-11.6496
冈	-11.6496
原住民	-11.6496
恕	-11.6496
刚果民盟	-11.6496
循序渐进	-11.6496
悟	-11.6496
国际刑事法庭	-11.6496
妇发基金	-11.6496
手提电话	-11.6496
翔	-11.6496
膳	-11.6496
逍遥法外	-11.6496
布莱尔	-11.6496
曹	-11.6496
真主党	-11.6496
不以为然	-11.6496
婉	-11.6496
株	-11.6496
土族塞人	-11.6496
拐	-11.6496
荽缩	-11.6496
收音机	-11.6496
猎	-11.6496
政务司司长陈方安生	-11.6496
迫击炮	-11.6496
塑胶	-11.6496
频频	-11.6496
偷窃	-11.6496
裂变材料	-11.6496
意识形态	-11.6496
昏迷	-11.6496
抛弃	-11.6496
形态	-11.6496
坦诚	-11.6497
堵塞	-11.6497
折磨	-11.6497
旅行证件	-11.6497
摄氏	-11.6497
破裂	-11.6497
淹没	-11.6497
通行证	-11.6497
检测	-11.6497
杰宁	-11.6497
蔫草	-11.6498
印象深刻	-11.6498
竞投	-11.6498
午夜	-11.6498
恶梦	-11.6498
▁下列国家代表发言	-11.6498
最低限度	-11.6498
这是一项	-11.6498
筹办	-11.6498
审评	-11.6498
流亡	-11.6498
身高约一点六	-11.6498
是必然的	-11.6498
内务部	-11.6498
非牟利	-11.6498
餐馆	-11.6498
宪报	-11.6498
激进	-11.6499
累计	-11.6499
厘米	-11.6499
连锁	-11.6499
撞倒	-11.6499
心脏	-11.6499
权力下放	-11.6499
维和部	-11.65
关注的焦点	-11.65
包围	-11.65
总括	-11.65
正确方向	-11.65
踏入	-11.65
亿欧元	-11.6501
南京	-11.6501
球员	-11.6501
冰岛	-11.6501
自律	-11.6501
问题在于	-11.6501
蚊子	-11.6502
矿工	-11.6502
急剧上升	-11.6502
岁以上	-11.6502
欧洲共同体	-11.6502
科学园	-11.6502
加紧努力	-11.6503
货柜车	-11.6503
维奇	-11.6503
国际条约	-11.6503
次序	-11.6504
注销	-11.6504
目击者	-11.6504
隶属	-11.6504
神奇	-11.6504
轮候时间	-11.6505
班吉	-11.6505
军事演习	-11.6505
收支	-11.6506
清盘	-11.6506
隆重	-11.6506
荣获	-11.6506
都不是	-11.6506
邮局	-11.6507
巴士站	-11.6507
房价	-11.6507
优化	-11.6508
小小的	-11.6508
原告	-11.6508
实务	-11.6508
山顶	-11.6508
固有的	-11.6508
受助人	-11.6509
措词	-11.651
圆面	-11.651
谋生	-11.6511
西铁	-11.6511
陪同下	-11.6512
塑	-11.6512
接任	-11.6513
货款	-11.6514
失业人数	-11.6514
我的特别代表	-11.6515
停顿	-11.6516
自觉	-11.6517
途人	-11.6517
生动	-11.6517
小麦	-11.6518
建筑业	-11.6519
数个	-11.652
载入	-11.652
几十年来	-11.6521
趋向	-11.6521
在旺角	-11.6524
深度	-11.6525
女工	-11.6526
大屠杀	-11.6527
相连	-11.653
单车	-11.653
团队	-11.6531
枪战	-11.6531
班次	-11.6532
发票	-11.6532
布尔	-11.6535
政府的代表	-11.6535
可根据	-11.6535
农历	-11.6535
外币	-11.6536
借用	-11.6536
的下落	-11.6538
人的尊严	-11.6538
提供人道主义援助	-11.6539
发展策略	-11.6544
正值	-11.6546
自决权利	-11.6549
四月份	-11.655
风力	-11.6552
毕业于	-11.6552
私人部门	-11.6552
区域办事处	-11.6553
努力确保	-11.6554
度假	-11.6554
在二十一世纪	-11.6555
不可辟免	-11.6559
更重要	-11.6559
内容包括	-11.6564
重大问题	-11.6565
分项	-11.6566
不负责任	-11.6567
全数	-11.657
或以上	-11.6572
身高	-11.6575
财政状况	-11.6575
同样重要的是	-11.6577
八个月	-11.6577
非常高兴	-11.658
本次	-11.6582
行政机构	-11.6582
社会和经济发展	-11.6582
尤以	-11.6584
从小	-11.6584
▁警方现正调查	-11.6585
多媒体	-11.6585
公共政策	-11.6586
法团	-11.6587
多国部队	-11.6587
达尔	-11.659
自满	-11.659
也是一样	-11.6593
善于	-11.6593
地政总署	-11.6598
受到损害	-11.6601
信用	-11.6603
可随时	-11.6604
450	-11.6605
通报了	-11.6609
工业部门	-11.661
调查人员	-11.6611
发生冲突	-11.6617
沉重的	-11.6618
学生们	-11.6619
在过去一年	-11.6619
摧毁了	-11.6622
几种	-11.6622
受到控制	-11.6626
採取措施	-11.6626
一直到	-11.663
在职培训	-11.6631
个人资料	-11.6632
提高其	-11.6634
在喀布尔	-11.6639
有很大的	-11.664
日星期一	-11.6641
特别提到	-11.6642
条草案	-11.6645
休假	-11.6649
部长级	-11.665
手里	-11.6651
一次性	-11.6651
万人流离失所	-11.6652
国家利益	-11.6652
我知道	-11.6657
日星期五	-11.6661
这两种	-11.6671
起点	-11.6676
▁梁锦松	-11.6681
该会议	-11.6682
之手	-11.6682
放弃了	-11.6685
三百八十	-11.6686
万港元	-11.6688
塔尔	-11.669
这似乎	-11.6692
他们现在	-11.6692
苏丹政府	-11.67
各项活动	-11.6701
进而	-11.6702
大片	-11.6706
一千五百	-11.6706
政治化	-11.6707
得好	-11.6707
鸡只	-11.6709
重演	-11.6713
不正确	-11.6714
这一项目	-11.6715
纳税	-11.6717
19.	-11.6719
五米	-11.6719
掉了	-11.672
我们现正	-11.672
金融体系	-11.6723
较多的	-11.6723
感谢你	-11.6724
传统上	-11.6725
连续第	-11.6727
营造	-11.6727
唯	-11.6731
或许是	-11.6732
次全体会议	-11.6732
要花	-11.6736
也意味着	-11.6741
经济增长率	-11.6742
带回	-11.6744
每个月	-11.6749
出门	-11.6757
详细资料	-11.6761
做什么	-11.6764
持久的和平	-11.6768
巨大压力	-11.6772
我喜欢	-11.6775
水电	-11.6775
都提到	-11.6776
按季	-11.6777
余下	-11.6778
段落	-11.6779
几年前	-11.6779
填海	-11.6781
科学研究	-11.6782
委员会决定	-11.6784
退回	-11.6787
创收	-11.6792
月底前	-11.6793
日增	-11.6797
与非政府组织	-11.6802
扑	-11.6807
惯	-11.6807
任何人士	-11.6807
中国经济	-11.6809
难民问题	-11.6811
卢旺达政府	-11.6812
越大	-11.6815
该工作组	-11.6817
叫人	-11.6819
选举结果	-11.682
决不	-11.6821
该办事处	-11.6827
合共	-11.6831
渡轮	-11.6832
缔造	-11.6833
胞	-11.6834
起见	-11.6835
小型企业	-11.6835
百分之九	-11.6836
疫	-11.6837
外国投资	-11.6837
殊	-11.6837
商贸	-11.6838
海峡	-11.6838
抑	-11.6838
览	-11.6839
胀	-11.6839
裕	-11.684
勾	-11.684
扮	-11.684
车厢	-11.684
畜	-11.684
玛嘉烈医院	-11.684
凌	-11.684
堕	-11.684
栽	-11.684
霉素	-11.684
幽	-11.6841
信息和通信技术	-11.6841
溺	-11.6841
咨	-11.6841
弦	-11.6841
投赞成票	-11.6841
温室气体	-11.6841
伯利兹	-11.6841
升降机	-11.6841
帆	-11.6841
狼	-11.6841
反倾销	-11.6841
吉隆坡	-11.6841
港人治港	-11.6841
联席会议	-11.6841
肖	-11.6841
行政长官会同行政会议	-11.6841
鼎力支持	-11.6841
临市局	-11.6841
在某种程度上	-11.6841
帷幕	-11.6841
教资会	-11.6841
巴拉圭	-11.6841
纹	-11.6841
埃厄特派团	-11.6841
首当其冲	-11.6841
驻地协调员	-11.6841
捏	-11.6841
斌	-11.6841
联索行动	-11.6841
男一女	-11.6841
尽一切努力	-11.6841
棋	-11.6841
简而言之	-11.6841
着眼于	-11.6841
缋	-11.6841
透彻	-11.6841
难民和流离失所者	-11.6841
心目中	-11.6841
西岸和加沙地带	-11.6841
故障	-11.6841
鸿沟	-11.6841
沙漠	-11.6841
辉煌	-11.6841
掠夺	-11.6841
亲戚	-11.6841
干脆	-11.6841
毒瘾	-11.6841
殷切	-11.6841
牢固	-11.6841
印度和巴基斯坦	-11.6841
风筝	-11.6841
悲观	-11.6841
残废	-11.6841
绘画	-11.6842
损毁	-11.6842
察觉	-11.6842
两性平等	-11.6842
一九八四年	-11.6842
剧烈	-11.6842
参阅	-11.6842
开幕典礼	-11.6842
投资推广署	-11.6842
消费国	-11.6842
在新加坡	-11.6842
折扣	-11.6843
临时安全区	-11.6843
还有很多	-11.6843
无可辟免	-11.6843
最常见的	-11.6843
终端	-11.6843
见第	-11.6844
烟草	-11.6844
卸任	-11.6844
电梯	-11.6844
理财	-11.6844
登陆	-11.6844
弱势	-11.6844
中华民族	-11.6845
皇室	-11.6845
彼得	-11.6845
曲解	-11.6845
非法入境	-11.6845
配套	-11.6846
乡镇	-11.6846
轻型	-11.6846
风暴	-11.6846
待命	-11.6846
退休年龄	-11.6847
回辟	-11.6847
原议案	-11.6848
不久前	-11.6848
干净	-11.6848
埋设	-11.6848
失踪案件	-11.6849
0.7%	-11.6849
团结一致	-11.6849
病症	-11.6849
男司机	-11.685
涉嫌与	-11.685
无限期	-11.685
帝国	-11.685
的具体内容	-11.6851
纪念品	-11.6851
专注于	-11.6852
药物管制	-11.6852
有线电视	-11.6852
受阻	-11.6853
纸张	-11.6853
营运基金	-11.6853
美容	-11.6853
▁在这一方面	-11.6854
反腐败	-11.6856
的根本原因	-11.6856
劳力	-11.6856
过境点	-11.6857
1959	-11.6857
未来发展	-11.6858
毒打	-11.6858
夏天	-11.6859
交接	-11.6859
趣味	-11.6861
春天	-11.6862
味道	-11.6862
重型	-11.6862
本局议员	-11.6862
公共开支	-11.6862
方案概算	-11.6863
图案	-11.6863
▁委员会获悉	-11.6863
消息来源	-11.6863
几周	-11.6863
南联盟	-11.6863
航机	-11.6863
▁如有需要	-11.6864
不公	-11.6864
最基本的	-11.6865
战火	-11.6865
闻名	-11.6866
粮食援助	-11.6866
奥尔	-11.6866
不要再	-11.6866
被扣留	-11.6867
生态系统	-11.6867
球队	-11.6867
称作	-11.6867
预约	-11.6868
我本人	-11.687
受到虐待	-11.687
突出了	-11.687
东行	-11.687
海事	-11.6871
北部地区	-11.6872
的经验表明	-11.6873
以便使	-11.6875
280	-11.6875
做不到	-11.6876
高级专员办事处	-11.6876
伤心	-11.6877
回港	-11.6877
充分尊重	-11.6878
联合呼吁	-11.6879
被带到	-11.6879
观察员部队	-11.6879
新产品	-11.6881
五月份	-11.6882
黑点	-11.6882
加油	-11.6883
副手	-11.6884
走进	-11.6884
七十年代	-11.6888
研究人员	-11.6889
实施制裁	-11.689
采取必要的	-11.689
咨询期	-11.6891
多起	-11.6892
三倍	-11.6893
还不够	-11.6894
天天	-11.6894
所持	-11.6896
南行	-11.6896
感到惊讶	-11.6897
刑事案件	-11.6898
大桥	-11.6898
2.5%	-11.69
的一个主要	-11.6901
公元	-11.6902
代顿	-11.6902
宁可	-11.6903
投票率	-11.6903
这些指控	-11.6904
逐一	-11.6905
这个观点	-11.6905
司法系统	-11.6906
用尽	-11.6907
这个制度	-11.6908
轨道上	-11.691
进度报告	-11.6912
附上	-11.6914
不断增长	-11.6914
被控以	-11.6915
信赖	-11.6917
全权	-11.6918
石油公司	-11.6919
未曾	-11.6921
所发生的	-11.6921
比重	-11.6923
艾滋病方案	-11.6925
政治人物	-11.6925
支援服务	-11.6931
我要说	-11.6932
财政预算	-11.6934
非传统	-11.6937
是用来	-11.6937
年底之前	-11.6941
这些文件	-11.6947
关切的问题	-11.6948
以色列总理	-11.695
这并不是	-11.695
原子	-11.6954
是不可能的	-11.6954
在卢旺达	-11.6957
两局	-11.6959
制订政策	-11.6964
个省份	-11.6964
震动	-11.6965
提供培训	-11.6966
顺利地	-11.697
该校	-11.6971
不算	-11.6974
我打算	-11.6978
展示了	-11.6982
自称	-11.6983
每一个人	-11.6983
还有许多	-11.6986
我不得不	-11.6986
▁她认为	-11.6988
再培训	-11.6989
不免	-11.6989
明确规定	-11.6991
兑现	-11.6992
用心	-11.6992
拥	-11.6998
考虑是否	-11.6998
该信	-11.7
略为	-11.7001
常设委员会	-11.7003
正在设法	-11.7007
其中一人	-11.7008
体内	-11.7009
非常关心	-11.7011
清楚了解	-11.7012
人命	-11.7013
妇女组织	-11.7013
一份报告	-11.7014
这段时间	-11.7016
写下	-11.7018
论及	-11.7021
出面	-11.7027
二百五十	-11.7029
棵树	-11.7032
协助调查	-11.7035
听过	-11.7037
所作出的	-11.7039
电费	-11.7043
导向	-11.7044
车费	-11.7045
受到限制	-11.705
多间	-11.7051
专科	-11.7051
刚才说	-11.7053
我十分	-11.7056
纳斯	-11.7056
该协会	-11.7059
极少数	-11.706
在该区域	-11.7062
非法活动	-11.7066
大法官	-11.7075
是有益的	-11.7081
不一定要	-11.7082
参观了	-11.7083
这一情况	-11.7085
后来又	-11.7085
抽象	-11.7085
部件	-11.7086
一例	-11.7087
工作条件	-11.709
这是一种	-11.7092
中国文化	-11.7095
建屋	-11.71
提供的援助	-11.71
开始以来	-11.71
▁警方现正调查今	-11.7103
据指出	-11.7105
帐目	-11.7105
总额达	-11.7106
部门间	-11.7106
并不意味着	-11.7107
潜在的	-11.7112
广阔	-11.7113
总收益	-11.7114
但现在	-11.7115
安全措施	-11.7115
这一重要	-11.7118
关心的问题	-11.7118
进行辩论	-11.712
不均衡	-11.7125
开辟	-11.7128
黎巴嫩政府	-11.713
▁还有人	-11.7131
生前	-11.7134
拉赫	-11.7135
无比	-11.714
一千二百	-11.7141
专才	-11.7142
可能产生	-11.7143
采取的措施	-11.7143
巨大影响	-11.7145
行人路	-11.7146
连串	-11.7148
北京市	-11.7158
师资	-11.7158
妇女担任	-11.716
此行	-11.7162
美食	-11.7165
世人	-11.7166
0.6%	-11.7166
灭火	-11.7169
卫队	-11.7169
以来一直	-11.7169
然后才	-11.7172
该文件	-11.7175
回教	-11.7179
太长	-11.718
夕	-11.7187
克族	-11.7188
应辟免	-11.7188
医治	-11.719
这几	-11.7191
关键性	-11.7192
姐	-11.7193
缉	-11.7194
海南	-11.7194
中小企	-11.7195
僱佣	-11.7196
窃	-11.7196
谣	-11.7196
担心的是	-11.7197
募	-11.7197
硕	-11.7197
袖	-11.7197
缉获	-11.7197
悠	-11.7197
烦	-11.7197
垒	-11.7197
肿	-11.7198
首席执行官	-11.7198
幺	-11.7198
裸	-11.7198
袁	-11.7198
纽西兰	-11.7198
康乐及文化事务署	-11.7198
蒋介石	-11.7198
二零零六年	-11.7198
伊斯兰会议组织	-11.7198
妄	-11.7198
层出不穷	-11.7198
研训所	-11.7198
鄙	-11.7198
下一位发言者是	-11.7198
入侵和占领	-11.7198
联合国日内瓦办事处	-11.7198
臭	-11.7198
轩	-11.7198
的福祉	-11.7198
衷心感谢	-11.7198
隐瞒	-11.7198
俞	-11.7198
悄悄	-11.7198
手头订单价值	-11.7198
晚些时候	-11.7198
钉	-11.7198
铸	-11.7198
匙	-11.7198
选管会	-11.7198
尼日尔	-11.7198
马鞍山	-11.7198
马尼拉	-11.7198
岳	-11.7198
沾	-11.7198
渠务署	-11.7198
爽	-11.7198
作上述表示	-11.7198
二零零五年	-11.7198
畜牧	-11.7198
阻挡	-11.7198
颁奖典礼	-11.7198
为数不多	-11.7198
非公开会议	-11.7198
搜寻	-11.7198
挽救	-11.7198
驱逐出境	-11.7198
称之为	-11.7198
委託	-11.7198
拆毁	-11.7198
模范	-11.7198
下落不明	-11.7198
国民生产总值	-11.7198
疼痛	-11.7198
叛乱分子	-11.7199
宣扬	-11.7199
这本书	-11.7199
埋伏	-11.7199
搜救	-11.7199
粪便	-11.7199
▁不用说	-11.7199
录影带	-11.7199
筹划	-11.7199
人口增长率	-11.7199
工商局局长	-11.7199
隐藏	-11.7199
惨剧	-11.7199
植树	-11.7199
传译	-11.72
启程	-11.72
预防性外交	-11.72
少数族裔	-11.72
超逾	-11.72
私人执业	-11.72
冷静	-11.72
简易	-11.7201
战术	-11.7201
附属法例	-11.7201
维持不变	-11.7202
络	-11.7202
市镇	-11.7202
检察长	-11.7203
明确表示	-11.7203
知情权	-11.7203
鞋类	-11.7203
较九六年	-11.7203
超载	-11.7204
导师	-11.7204
人力资源开发	-11.7204
号召	-11.7204
数天	-11.7205
工党	-11.7205
运动鞋	-11.7206
辩护律师	-11.7206
角落	-11.7207
冷气	-11.7207
集合	-11.7207
地雷问题	-11.7207
印证	-11.7207
影像	-11.7207
表现出色	-11.7207
争相	-11.7208
求职者	-11.7208
的帮助下	-11.7208
公营部门	-11.7209
驱动	-11.7209
英联邦	-11.7209
九铁	-11.7209
之间的差距	-11.721
新疆	-11.721
补救措施	-11.721
诈骗	-11.7212
召开一次	-11.7212
大球场	-11.7212
很快便	-11.7212
托管	-11.7212
工伤	-11.7213
希尔	-11.7213
平等权利	-11.7214
发扬	-11.7214
银行体系	-11.7214
业余	-11.7214
反击	-11.7214
湿地	-11.7215
1968	-11.7215
定价	-11.7216
0.2%	-11.7218
保罗	-11.7218
行为守则	-11.722
零八	-11.722
照明	-11.722
写信	-11.722
1.2%	-11.7222
美国和英国	-11.7223
金牌	-11.7224
这份文件	-11.7224
国际劳工组织	-11.7224
1977	-11.7226
法律效力	-11.7226
小时候	-11.7227
妇女地位	-11.7227
世界其他地区	-11.7227
1945	-11.7227
结业	-11.7228
人权法案	-11.7229
感到失望	-11.7229
受苦	-11.7229
心愿	-11.7229
这项决议草案	-11.723
例证	-11.723
床上	-11.7231
事实证明	-11.7231
阿族	-11.7231
各异	-11.7232
根本不可能	-11.7233
提高到	-11.7234
只适用于	-11.7234
全港市民	-11.7235
国际金融机构	-11.7236
力图	-11.7237
北行	-11.7237
首度	-11.7238
分隔	-11.7239
工程项目	-11.724
香港国际机场	-11.7241
格拉	-11.7242
数据显示	-11.7244
司令	-11.7244
极大地	-11.7245
带入	-11.7245
表示祝贺	-11.7247
顺便	-11.7247
自助	-11.7249
内政部长	-11.725
同志	-11.7251
33%	-11.7251
近期内	-11.7255
司法程序	-11.7256
东部地区	-11.7258
本委员会	-11.7258
政府开支	-11.726
总体上	-11.7263
职等	-11.7264
不适宜	-11.7264
参观者	-11.7264
进一步提高	-11.7266
迎来	-11.7266
公共安全	-11.7267
出生率	-11.7268
学生人数	-11.7268
协商后	-11.7269
和平事业	-11.727
不止	-11.7272
弱者	-11.7272
屋内	-11.7275
限期	-11.7279
不丹	-11.7279
劳动者	-11.7279
若不	-11.7284
主义者	-11.7285
九八	-11.7287
当地工作人员	-11.7287
开业	-11.7287
作出解释	-11.7288
作风	-11.7289
司司长	-11.7289
是不够的	-11.7293
人道主义机构	-11.7297
局部	-11.7298
名民警	-11.7299
作出修订	-11.7299
道路安全	-11.7301
于当日	-11.7302
低技术	-11.7309
巴勒斯坦难民	-11.7309
已经有了	-11.7312
联合国工作人员	-11.7312
利益冲突	-11.7312
三十岁	-11.7312
伐	-11.7314
城市化	-11.7315
设定	-11.732
便开始	-11.732
网站上	-11.7322
奖金	-11.7328
海水	-11.7328
963-	-11.7336
恐怖主义行动	-11.7338
民意代表	-11.7343
初级保健	-11.7345
市内	-11.7347
的结论是	-11.7348
向公众	-11.7349
教毓水平	-11.735
高峰期	-11.735
骤	-11.7351
邮政署	-11.7353
上落	-11.7354
岁或以上	-11.7355
迅速发展	-11.736
亦不会	-11.7362
这项政策	-11.7363
高级别会议	-11.7364
一般而言	-11.7364
不受任何	-11.7365
自行车	-11.7366
活动范围	-11.7367
一点七	-11.7368
一职	-11.737
海面	-11.7371
公益	-11.7372
有好处	-11.7377
主权国家	-11.7378
反恐怖主义委员会	-11.7379
非政府组织的代表	-11.7384
联合国维持和平行动	-11.7387
民航处	-11.7387
四处	-11.7389
3.5%	-11.7389
每星期	-11.739
尤其重要	-11.7391
大火	-11.7391
被动	-11.7392
本身并不	-11.7394
野生	-11.7397
应按照	-11.7397
中东地区	-11.7399
修读	-11.7404
人造	-11.7405
产生影响	-11.7413
经济和政治	-11.7414
的主要任务	-11.7418
农业部	-11.7434
这项决定	-11.7434
香港电台	-11.7435
个国家和地区	-11.7441
属下	-11.7441
工业界	-11.7443
公共行政	-11.7446
反叛	-11.7447
作出规定	-11.7452
坦率	-11.7453
▁国际社会应	-11.7454
如何处理	-11.7455
14%	-11.7455
十一个	-11.7456
负责执行	-11.7458
如意	-11.7461
▁我们还要	-11.7462
逐渐增加	-11.7465
巴德	-11.7468
保护平民	-11.7468
北京会议	-11.747
在这些地区	-11.7476
重新开放	-11.7477
保险费	-11.7478
装修	-11.7486
留给	-11.7486
上升百分之十	-11.7489
成为亚洲	-11.749
更详细	-11.7491
局限	-11.7501
正在逐步	-11.7501
心灵	-11.7502
依次	-11.7508
基石	-11.7511
商业性	-11.7511
大大减少	-11.7512
任何地方	-11.7513
乐器	-11.7516
全社会	-11.7517
第十五	-11.7517
看好	-11.7519
这样的话	-11.7524
将于今年	-11.7528
个月期间	-11.7529
器官	-11.7531
▁增加的	-11.7532
被劫	-11.7532
国际准则	-11.7533
▁我们敦促	-11.7538
没能	-11.7539
升至	-11.7545
国民经济	-11.7551
票反对	-11.7552
元首	-11.7554
本次会议	-11.7555
不禁	-11.7556
受僱	-11.7558
大面积	-11.756
案卷	-11.756
键	-11.7563
忽	-11.7564
秘	-11.7564
该集团	-11.7564
仗	-11.7566
炸伤	-11.7566
旱	-11.7566
敬意	-11.7566
奸	-11.7567
糊	-11.7567
涵	-11.7567
讚	-11.7567
挽	-11.7568
宵	-11.7568
毒品调查科	-11.7568
毯	-11.7568
阿卜杜拉	-11.7568
宣誓	-11.7568
冶	-11.7568
停滞不前	-11.7568
寂	-11.7568
斑	-11.7568
羞	-11.7568
集装箱	-11.7568
活生生	-11.7568
滔	-11.7568
西撒特派团	-11.7568
田北俊议员	-11.7568
自置居所	-11.7568
萌	-11.7568
铀	-11.7568
哈马斯	-11.7568
狠	-11.7568
老龄化	-11.7568
是多么	-11.7568
詹培忠议员	-11.7568
公用事业	-11.7568
共产主义	-11.7568
圭亚那	-11.7568
布政司	-11.7568
何俊仁议员	-11.7568
坎帕拉	-11.7568
城规会	-11.7568
崔	-11.7568
新华社	-11.7568
科摩罗	-11.7568
血腥	-11.7568
辣	-11.7568
黄震遐议员	-11.7568
弟弟	-11.7568
溢	-11.7568
虞	-11.7568
1996-1997	-11.7568
联卢援助团	-11.7568
莱索托	-11.7568
西雅图	-11.7568
里约热内卢	-11.7568
高血压	-11.7568
叶刘淑仪	-11.7568
盔	-11.7568
茅	-11.7568
魄	-11.7568
的缘故	-11.7568
胁迫	-11.7568
联交所	-11.7568
争拗	-11.7568
彷佛	-11.7568
倚赖	-11.7568
蓄短发	-11.7568
松懈	-11.7568
按钮	-11.7568
第二次世界大战	-11.7568
灵魂	-11.7569
勤奋	-11.7569
厦门	-11.7569
在那儿	-11.7569
海地国家警察	-11.7569
棘手	-11.7569
杨森议员	-11.7569
优先次序	-11.7569
社会各阶层	-11.7569
正好相反	-11.7569
大气层	-11.7569
争执	-11.7569
香蔫	-11.7569
嫌疑犯	-11.7569
份及新界	-11.7569
忠诚	-11.7569
衔接	-11.7569
大有改善	-11.7569
千年首脑会议	-11.757
压迫	-11.757
咱们	-11.757
一九三	-11.757
赌波	-11.757
烧毁	-11.757
判例	-11.757
烈士	-11.757
基加利	-11.757
微薄	-11.757
偶像	-11.7571
▁正如我	-11.7571
序言	-11.7571
现况	-11.7571
越境	-11.7571
抢修	-11.7571
祝福	-11.7571
演艺	-11.7572
牛肉	-11.7572
联合阵线	-11.7572
行政总裁	-11.7572
珍视	-11.7572
棉花	-11.7572
坦白	-11.7572
技合	-11.7572
信奉	-11.7573
火灾	-11.7573
彩色	-11.7573
意味	-11.7573
军备控制	-11.7573
公务员薪酬	-11.7573
性别观点	-11.7573
失灵	-11.7574
宗教信仰	-11.7574
取得圆满成功	-11.7574
化肥	-11.7574
编配	-11.7574
受援国	-11.7575
推展	-11.7575
新台币	-11.7575
评核	-11.7575
电力供应	-11.7575
调配	-11.7575
完结	-11.7576
紧急状态	-11.7576
时至今日	-11.7576
休会期间	-11.7576
互信	-11.7576
表述	-11.7577
低收入家庭	-11.7577
单据	-11.7579
住屋	-11.7579
签约	-11.7579
印度洋	-11.7579
第二轮	-11.7579
举动	-11.7579
详尽的	-11.7579
渡轮服务	-11.758
制药	-11.758
友好关系	-11.758
法定人数	-11.758
住客	-11.7581
审问	-11.7582
储备金	-11.7582
支线	-11.7582
耕地	-11.7583
传单	-11.7583
工夫	-11.7583
元素	-11.7584
共检获	-11.7584
1961	-11.7584
次全体会议上	-11.7585
名誉	-11.7585
精美	-11.7585
表达意见	-11.7586
曾参与	-11.7586
门户	-11.7586
政见	-11.7588
加薪	-11.7589
这使得	-11.7589
天桥	-11.7589
合伙人	-11.759
建交	-11.7591
头痛	-11.7591
吉尔	-11.7591
▁我们期待着	-11.7592
巴士服务	-11.7593
慎重考虑	-11.7594
客机	-11.7595
今年上半年	-11.7596
金融业	-11.7596
重伤	-11.7596
病菌	-11.7596
购买力	-11.7599
其他形式的	-11.7599
课本	-11.76
活着	-11.7601
▁只有这样	-11.7601
强度	-11.7602
监测组	-11.7602
安全理事会决议	-11.7602
缩短了	-11.7602
摆放	-11.7603
数据收集	-11.7603
保留意见	-11.7605
起义	-11.7605
之间的对话	-11.7606
断定	-11.7608
五万元	-11.7609
居住环境	-11.761
用于支付	-11.761
开工	-11.7611
输送	-11.7611
落入	-11.7613
气氛中	-11.7613
??	-11.7614
便须	-11.7614
两性	-11.7614
两星期	-11.7615
的主要因素	-11.7615
西安	-11.7616
及相关	-11.7618
做的事	-11.7621
最有效的	-11.7622
激增	-11.7622
所有成员国	-11.7623
工作要做	-11.7623
不堪	-11.7623
以英文	-11.7623
再次呼吁	-11.7628
纸上	-11.7629
约值	-11.763
亦有助	-11.7631
可望于	-11.7632
行走	-11.7632
船长	-11.7632
实质内容	-11.7634
分发给	-11.7634
促进和平	-11.7635
专业团体	-11.7636
比以前	-11.7637
吸引更多	-11.7638
派系	-11.7638
该名女子	-11.764
陈议员	-11.7642
同居	-11.7642
前提下	-11.7643
金融中心	-11.7644
不干涉	-11.7644
出动	-11.7648
概述了	-11.7648
最受	-11.765
开辟了	-11.765
保障人权	-11.7652
角度看	-11.7652
短期内	-11.7654
庆祝活动	-11.7659
自制	-11.766
变更	-11.7667
国际形势	-11.7668
波斯尼亚人	-11.7668
而异	-11.7671
面临的挑战	-11.7674
简报会	-11.7675
增长速度	-11.7678
四种	-11.7679
▁我们也欢迎	-11.7684
经常资源	-11.7687
专业化	-11.7687
赶上	-11.7689
某项	-11.7689
工作场所	-11.7689
二百一十	-11.7694
有充足的	-11.7694
上午九时	-11.7698
中欧	-11.7698
很久	-11.7701
我想指出	-11.7702
新的挑战	-11.7702
健康问题	-11.7705
自由贸易区	-11.7706
攻击目标	-11.7707
越过	-11.7709
各种不同	-11.7712
大奖	-11.7712
毕业后	-11.7713
不乏	-11.7715
新制度	-11.7723
的特点是	-11.7723
其他区域	-11.7725
是一样的	-11.7725
故此	-11.7726
受害国	-11.7732
恐怖主义组织	-11.7739
五成	-11.7739
一件事	-11.7742
开出	-11.7743
学士	-11.7744
更深	-11.7744
斯蒂	-11.7744
决议案	-11.7745
持续下去	-11.7747
雷斯	-11.7748
两个星期	-11.7748
或者说	-11.775
260	-11.7751
余地	-11.7751
处分	-11.7754
共收到	-11.7754
一千六百	-11.7762
工程预计	-11.7772
结构性	-11.7777
属违法	-11.7779
解说	-11.7785
总共有	-11.7787
教毓部门	-11.7788
面积约	-11.7789
大气	-11.7789
地主	-11.779
国家预算	-11.779
这项要求	-11.7792
该行业	-11.7793
几乎都	-11.7798
准军事	-11.7798
会议室举行	-11.7799
灭蚊	-11.7806
熟食	-11.7811
索赔人说	-11.7812
▁鉴于这些	-11.7814
鉴	-11.7821
老婆	-11.7824
人死于	-11.7825
资源中心	-11.7827
第二点	-11.7829
非暴力	-11.783
受欢迎的	-11.783
0.5%	-11.7831
贩卖妇女	-11.7831
难民返回	-11.7831
躺在	-11.7833
23%	-11.7838
联系起来	-11.7843
最终目标	-11.7844
片面	-11.7845
产权	-11.7849
小部分	-11.785
大赛	-11.7852
42%	-11.7854
取得的成果	-11.7855
某些地区	-11.7856
取得的成就	-11.7859
水源	-11.786
越少	-11.7866
竞争法	-11.7866
26%	-11.7866
六月底	-11.7869
所建议的	-11.7871
移民局	-11.7875
零六	-11.7879
七岁	-11.788
1.4	-11.7884
狗只	-11.7885
剥	-11.7889
经济复甦	-11.7889
列有	-11.7891
所有缔约国	-11.7895
六十八	-11.7895
非政府组织代表	-11.7899
区域一级	-11.79
安全理事会主席	-11.7901
劳工法	-11.7901
我们觉得	-11.7902
环境恶化	-11.7905
好奇	-11.7906
风波	-11.7909
伊拉克战争	-11.7909
如要	-11.791
保安司	-11.7919
冒牌	-11.7925
中获益	-11.7927
身分证	-11.7929
写作	-11.7929
该科	-11.7931
去年十一月	-11.794
乐队	-11.7941
握	-11.7942
督	-11.7946
公道	-11.7946
拒绝接受	-11.7947
椅	-11.7948
肚	-11.7949
滩	-11.7949
高质量	-11.7949
目击	-11.795
串	-11.7951
弥	-11.7951
咱	-11.7951
盅	-11.7952
描	-11.7952
刷	-11.7952
殷	-11.7952
寡	-11.7952
裨益	-11.7952
颠	-11.7953
突飞猛进	-11.7953
竖	-11.7953
闭会期间	-11.7953
+	-11.7953
小武器和轻武器	-11.7953
同心协力	-11.7953
坝	-11.7953
李家祥议员	-11.7953
钱其琛	-11.7953
▁由此可见	-11.7953
愧	-11.7953
无动于衷	-11.7953
葛	-11.7953
视而不见	-11.7953
主礼嘉宾	-11.7953
书记官处	-11.7953
卜拉希米	-11.7953
可想而知	-11.7953
就业不足率	-11.7953
礼宾府	-11.7953
坤	-11.7953
惹	-11.7953
旧金山	-11.7953
机管局	-11.7953
渣	-11.7953
灭绝种族	-11.7953
萨摩亚	-11.7953
柳	-11.7953
马扎里沙里夫	-11.7953
不足为奇	-11.7953
匹	-11.7953
数以千计	-11.7953
杨孝华议员	-11.7953
化合物	-11.7953
圣地亚哥	-11.7953
日新月异	-11.7953
波罗的海	-11.7953
采取必要措施	-11.7953
非军事化	-11.7953
广管局	-11.7953
望远镜	-11.7953
温哥华	-11.7953
羽	-11.7953
谬误	-11.7953
阐释	-11.7953
搏	-11.7953
螺	-11.7953
谦	-11.7953
香港贸易发展局	-11.7953
多伦多	-11.7953
涛	-11.7953
▁出生日期	-11.7953
行政协调会	-11.7953
专案小组	-11.7953
西非监测组	-11.7953
预审分庭	-11.7953
葵青	-11.7953
投掷	-11.7953
碰撞	-11.7953
猛烈	-11.7953
挤迫	-11.7953
英镑	-11.7953
钢琴	-11.7953
漂亮	-11.7953
英格兰	-11.7953
安徽	-11.7954
逃离家园	-11.7954
纤维	-11.7954
宠物	-11.7954
遗址	-11.7954
宣判	-11.7954
解决国际争端	-11.7954
引人关注	-11.7954
红潮	-11.7954
转介	-11.7954
在农村地区	-11.7955
▁本项下	-11.7955
巴哈马	-11.7955
再培训局	-11.7956
突击	-11.7956
维护国际和平与安全	-11.7956
养老金	-11.7956
篇章	-11.7956
密封	-11.7956
浓度	-11.7956
尽全力	-11.7956
椅子	-11.7956
颈部	-11.7957
制宪	-11.7957
必需品	-11.7957
下午一时	-11.7957
扣减	-11.7957
总书记	-11.7957
惊奇	-11.7957
拍照	-11.7957
赶紧	-11.7957
建筑地盘	-11.7957
耕作	-11.7957
养护	-11.7957
盲目	-11.7957
激光	-11.7957
欢乐	-11.7957
枪支	-11.7958
面貌	-11.7958
黎巴嫩南部	-11.7958
回顾一下	-11.7958
九广铁路公司	-11.7958
营销	-11.7958
缺失	-11.7958
那个时候	-11.7959
参展	-11.7959
宽减	-11.7959
果然	-11.796
和平纲领	-11.796
综合症	-11.796
北美洲	-11.796
农田	-11.796
发出警告	-11.7961
密切的关系	-11.7961
景象	-11.7961
之类的	-11.7961
缔造和平	-11.7961
公共图书馆	-11.7961
远程	-11.7961
这段期间	-11.7961
重罚	-11.7962
出版社	-11.7962
调集	-11.7962
房租	-11.7962
发表评论	-11.7963
瓦解	-11.7964
写照	-11.7964
▁发言人补充说	-11.7964
圣城	-11.7964
停火协定	-11.7964
▁图为	-11.7965
几个星期	-11.7965
四十岁	-11.7966
付钱	-11.7967
那么简单	-11.7967
日内瓦公约	-11.7968
较佳	-11.7968
封路	-11.7969
文康	-11.7969
风雨	-11.797
索赔额	-11.7971
年第四季度	-11.7971
历经	-11.7971
将取决于	-11.7971
迂到困难	-11.7972
下午六时	-11.7972
交通工具	-11.7972
广泛传播	-11.7973
全盘	-11.7974
树林	-11.7974
这项议案	-11.7974
诉讼程序	-11.7974
伤口	-11.7974
持牌人	-11.7975
专门训练	-11.7975
永远不会	-11.7975
试行	-11.7975
舒适	-11.7975
不同文明	-11.7975
政府间组织	-11.7976
覆盖率	-11.7976
同业	-11.7977
荣幸地	-11.7977
3.2%	-11.7979
计量	-11.7981
国旗	-11.7981
爱情	-11.7981
太过	-11.7982
亿美元左右	-11.7983
下一代	-11.7983
共存	-11.7985
平均工资	-11.7985
情节	-11.7985
处理这些问题	-11.7986
的重要因素	-11.7987
总统大选	-11.7987
紧急援助	-11.7988
别处	-11.7988
监测员	-11.7989
起步	-11.7989
通过各种	-11.7989
的妇女人数	-11.799
工作重点	-11.799
这并非	-11.7991
可靠性	-11.7993
共值	-11.7994
打工	-11.7994
每年平均	-11.7994
我们一定要	-11.7996
连线	-11.7996
外交保护	-11.8001
索马里人民	-11.8001
▁警方亦	-11.8002
开火	-11.8002
成立了一个	-11.8002
利害	-11.8003
服用	-11.8005
河道	-11.8005
仲裁委员会	-11.8006
重现	-11.8006
在过去十年	-11.8007
将提交给	-11.8007
失踪者	-11.8007
路口	-11.8009
北非	-11.801
丝毫	-11.8012
▁我也要	-11.8013
岁的儿童	-11.8014
新一代	-11.8014
拘留中心	-11.8016
美国国务院	-11.8016
海外市场	-11.8017
2008	-11.8018
相称	-11.8018
高官	-11.8019
消防安全	-11.8019
我们所有人	-11.802
没有发生严重	-11.8021
136	-11.8022
小额	-11.8022
三百五十	-11.8023
警方联络	-11.8024
死去	-11.8024
1,000	-11.8026
几百万	-11.8027
不幸地	-11.8028
年鉴	-11.8029
工作岗位	-11.8029
肺结核	-11.803
相应地	-11.8032
车子	-11.8032
有一定的	-11.8032
王子	-11.8035
粤	-11.804
目睹了	-11.8047
我实在	-11.8049
郊区	-11.805
历时	-11.8051
▁另外还	-11.8053
国际机场	-11.8054
迂上	-11.8057
公共机构	-11.8058
件事	-11.8059
我所知	-11.806
统计调查结果	-11.8061
珠海	-11.8061
立法院	-11.8063
自去年	-11.8063
生活质量	-11.8064
写成	-11.8064
下届会议	-11.8066
如欲	-11.8067
二十多年	-11.8069
检方	-11.8071
旅协	-11.8072
已故	-11.8072
标明	-11.8072
▁我们期望	-11.8073
能源部门	-11.8073
历史意义	-11.8074
▁他重申	-11.8076
按规定	-11.8078
石油价格	-11.8079
四次	-11.8079
研究如何	-11.808
分布在	-11.8087
京剧	-11.8087
实现发展权	-11.8089
整个区域	-11.8089
已久	-11.8097
跟他	-11.8098
五千元	-11.8098
该次	-11.8102
以便能够	-11.8107
之事	-11.8107
台湾省	-11.8108
回来了	-11.8109
个成员国	-11.811
谈判进程	-11.8121
因涉嫌	-11.8126
深感遗憾	-11.8127
二百八十	-11.8129
厕	-11.8132
来访	-11.8138
今年一月	-11.814
不高兴	-11.814
二点五	-11.814
16%	-11.8141
优先处理	-11.8141
架飞机	-11.8142
每当	-11.8143
研究显示	-11.8149
政局	-11.8149
点儿	-11.8152
号称	-11.8153
已经关闭	-11.8157
之心	-11.8165
一万二千	-11.8171
发展伙伴	-11.8171
他愿意	-11.8173
我要感谢	-11.8179
过去几个月	-11.8182
后证实	-11.8183
第一届会议	-11.8183
时间限制	-11.8184
谴责这些	-11.8184
克罗地亚政府	-11.8184
运转	-11.8185
复会	-11.8189
五十岁	-11.819
每名	-11.819
天空	-11.8192
成功实施	-11.8195
参政	-11.8197
无法确定	-11.82
拿着	-11.8205
其中大多数	-11.8209
婆	-11.8214
损失索赔	-11.8215
公署	-11.8216
本期	-11.8218
打伤	-11.8218
百分之七	-11.8227
这是个	-11.823
土地使用	-11.8231
在北京举行	-11.8232
向特别报告员	-11.8234
获颁	-11.8234
好些	-11.8241
划一	-11.8243
某人	-11.8245
未知	-11.8245
3500	-11.8255
动手	-11.8255
印本	-11.8258
赢得了	-11.826
香港的繁荣	-11.8262
十九号	-11.8263
开创	-11.827
的又一	-11.8273
第三世界	-11.8275
根基	-11.8282
事务局	-11.8289
放入	-11.8295
加入世贸	-11.8298
估计费用	-11.83
多边贸易	-11.8301
认证	-11.8306
阿尔巴尼亚族	-11.8309
室外	-11.831
区域中心	-11.8328
集中讨论	-11.8329
诚信	-11.8332
中国驻	-11.8334
调查的结果	-11.8335
原定于	-11.8336
持牌	-11.8338
毫无根据	-11.8338
领土内	-11.8342
肇事	-11.8346
1.0	-11.8346
地下铁路	-11.8349
弟	-11.8349
帝汶	-11.8349
削	-11.8349
扁	-11.835
总署	-11.835
愤	-11.8351
圆满成功	-11.8352
渴	-11.8352
迅	-11.8352
▁它们还	-11.8352
抄	-11.8353
按揭证券公司	-11.8353
家庭主妇	-11.8353
第五十三届会议	-11.8353
在不久的将来	-11.8353
夏威夷	-11.8353
揽	-11.8353
禁飞区	-11.8353
图瓦卢	-11.8353
德黑兰	-11.8353
恰恰相反	-11.8353
罗致光议员	-11.8353
纠缠	-11.8353
交咨会	-11.8353
归功于	-11.8353
摩托车	-11.8353
经季节性调整的	-11.8353
通力合作	-11.8353
巾	-11.8353
▁我的理解是	-11.8353
十二月三十一日	-11.8353
翅	-11.8353
觅	-11.8353
▁湟且	-11.8353
烙印	-11.8353
浇	-11.8353
实况调查	-11.8353
肿瘤	-11.8353
各不相同	-11.8353
五分之一	-11.8353
奴役	-11.8353
以人为本	-11.8353
土地发展公司	-11.8353
幽默	-11.8353
实现这一目标	-11.8353
採购	-11.8353
和平共处	-11.8353
土地注册处	-11.8353
悬赏	-11.8353
猜测	-11.8353
串谋	-11.8353
晴朗	-11.8353
比去年同期	-11.8353
拆卸	-11.8353
活泼	-11.8353
警戒	-11.8353
埋葬	-11.8353
而代以	-11.8353
分摊会费	-11.8353
特赦	-11.8353
间谍	-11.8354
卡比拉总统	-11.8354
详述	-11.8354
罗马规约	-11.8354
纵容	-11.8354
高明	-11.8354
刑法典	-11.8354
垮台	-11.8354
似宜	-11.8355
牛奶	-11.8355
服役	-11.8355
教廷	-11.8355
歌舞	-11.8355
示威游行	-11.8356
有所好转	-11.8356
认购	-11.8356
古典	-11.8356
北朝鲜	-11.8356
稍微	-11.8356
汇集	-11.8356
资历	-11.8356
女婴	-11.8357
[...]
