<unk>	0
<s>	0
</s>	0
▁the	-2.66471
.	-3.14237
,	-3.32583
▁of	-3.3273
▁to	-3.7107
▁in	-3.87088
▁and	-3.9071
s	-3.99928
▁a	-4.27242
-	-4.6597
▁that	-4.7094
▁is	-4.71317
▁for	-4.72499
▁be	-4.9956
▁on	-5.01627
▁	-5.12202
ing	-5.18291
▁by	-5.28514
▁it	-5.28598
▁was	-5.35162
▁as	-5.35981
▁with	-5.36655
▁are	-5.36924
▁this	-5.46735
▁"	-5.48305
▁have	-5.49104
▁has	-5.54271
▁at	-5.55518
▁will	-5.55763
ed	-5.57116
▁not	-5.59882
▁we	-5.76776
▁i	-5.79694
'	-5.8222
▁been	-5.83393
▁from	-5.83997
▁an	-5.91957
▁also	-5.9636
)	-6.00693
▁were	-6.0227
▁(	-6.05245
d	-6.08456
▁their	-6.10452
▁which	-6.13643
▁all	-6.15824
▁had	-6.17287
▁he	-6.19412
▁its	-6.21803
▁government	-6.21914
▁there	-6.24589
ly	-6.2557
▁would	-6.27219
▁or	-6.27764
▁united	-6.31857
▁kong	-6.33069
▁hong	-6.34007
▁they	-6.36469
▁should	-6.37862
▁people	-6.39874
▁more	-6.5275
▁these	-6.55876
▁no	-6.56724
▁international	-6.58621
▁other	-6.63842
▁our	-6.645
▁but	-6.66172
▁one	-6.66789
▁nations	-6.66989
▁his	-6.67174
▁time	-6.68555
▁mr	-6.6858
▁1	-6.6889
▁new	-6.70428
▁states	-6.71647
e	-6.72453
▁can	-6.72773
▁development	-6.74458
▁some	-6.75109
t	-6.7583
▁year	-6.76509
▁such	-6.77108
▁countries	-6.77159
▁said	-6.7722
▁per	-6.80087
n	-6.83266
▁council	-6.84787
▁over	-6.8541
▁out	-6.85853
▁made	-6.86426
▁years	-6.87499
▁than	-6.88645
▁about	-6.89356
▁who	-6.89399
▁so	-6.89951
▁public	-6.90554
▁committee	-6.93299
y	-6.93914
▁may	-6.94278
▁only	-6.94388
▁up	-6.94392
:	-6.97085
▁however	-6.9718
▁number	-6.9915
▁if	-6.9933
▁under	-6.99357
▁world	-7.01262
▁members	-7.02994
▁many	-7.03329
al	-7.03684
▁into	-7.03869
▁work	-7.04896
▁those	-7.07693
▁two	-7.09349
▁any	-7.09551
▁cent	-7.10212
▁2	-7.10943
▁after	-7.13395
▁very	-7.13396
▁security	-7.13482
▁law	-7.1367
▁do	-7.13864
▁between	-7.14331
▁most	-7.14936
▁secretary	-7.16387
▁well	-7.17535
▁now	-7.18358
▁when	-7.18507
▁women	-7.18723
▁police	-7.19336
▁dur	-7.19827
▁must	-7.1985
▁rights	-7.20235
c	-7.20493
er	-7.20733
▁$	-7.20894
▁economic	-7.21514
▁them	-7.22283
▁us	-7.23349
▁human	-7.23511
▁3	-7.24178
▁special	-7.24932
▁china	-7.24961
▁department	-7.25547
▁state	-7.26357
▁information	-7.27812
▁support	-7.28824
▁report	-7.3046
▁today	-7.30846
▁re	-7.31489
▁country	-7.31976
▁president	-7.32189
▁could	-7.32668
▁general	-7.33665
▁take	-7.33992
▁national	-7.35139
▁you	-7.35895
▁system	-7.36173
g	-7.3742
▁community	-7.37581
▁being	-7.38324
a	-7.38583
es	-7.39411
▁my	-7.39637
m	-7.40146
▁situation	-7.40331
▁since	-7.41568
o	-7.42003
▁non	-7.42236
▁need	-7.43876
▁through	-7.4517
▁peace	-7.45568
▁same	-7.46116
▁first	-7.4671
▁services	-7.47426
▁group	-7.48132
▁process	-7.48363
▁like	-7.50064
r	-7.51549
▁total	-7.51675
▁against	-7.52213
▁long	-7.52433
▁high	-7.52611
▁end	-7.52642
▁both	-7.52843
i	-7.53569
general	-7.54389
▁she	-7.5494
▁further	-7.54948
▁children	-7.55064
▁still	-7.5564
▁make	-7.5565
f	-7.55773
▁right	-7.56378
▁'	-7.56395
▁social	-7.56525
▁part	-7.58063
▁period	-7.59375
▁last	-7.59493
▁important	-7.59517
▁activities	-7.59595
▁chinese	-7.59685
▁use	-7.59835
▁what	-7.59912
in	-7.61128
▁present	-7.61507
▁even	-7.61597
▁financial	-7.61904
k	-7.62746
p	-7.6304
▁before	-7.63509
▁programme	-7.63587
▁education	-7.63629
▁political	-7.65439
▁10	-7.65461
▁meeting	-7.65506
▁un	-7.65761
▁commission	-7.66353
▁continue	-7.66419
▁order	-7.66629
▁4	-7.67086
ers	-7.67478
b	-7.67901
▁efforts	-7.68222
▁service	-7.68235
▁de	-7.68465
▁market	-7.69461
▁republic	-7.70307
▁office	-7.70639
▁place	-7.70968
▁increase	-7.7099
▁view	-7.71156
▁areas	-7.71641
▁provide	-7.72664
▁case	-7.72926
▁5	-7.73505
▁where	-7.74232
▁health	-7.74619
▁fact	-7.74659
▁taken	-7.74966
▁trade	-7.76254
▁held	-7.76353
▁area	-7.77078
▁her	-7.77093
▁working	-7.77407
▁therefore	-7.7764
▁while	-7.79234
▁day	-7.7927
▁shall	-7.79338
▁way	-7.79456
▁level	-7.79495
▁resources	-7.79508
▁regard	-7.79808
▁persons	-7.7993
ation	-7.80463
▁three	-7.8095
▁among	-7.81425
▁because	-7.81995
▁future	-7.82496
▁member	-7.82683
l	-7.8293
▁policy	-7.82949
▁issue	-7.83003
▁rate	-7.83216
▁me	-7.83835
▁possible	-7.84066
re	-7.8467
▁past	-7.85174
ion	-7.85234
▁population	-7.85244
▁point	-7.8542
▁cooperation	-7.85773
▁each	-7.86234
▁parties	-7.86254
▁result	-7.86594
▁region	-7.86625
▁co	-7.86805
▁am	-7.86946
▁court	-7.87726
▁within	-7.87735
▁assembly	-7.88131
▁local	-7.88153
▁including	-7.88203
▁2000	-7.88325
▁party	-7.8888
▁measures	-7.90123
u	-7.90408
▁6	-7.90423
▁set	-7.90538
▁cases	-7.90737
▁question	-7.90786
▁just	-7.91422
▁given	-7.91561
▁good	-7.92183
▁provided	-7.9248
▁assistance	-7.92764
▁large	-7.92796
▁conference	-7.93967
▁respect	-7.9455
▁problem	-7.94918
▁staff	-7.9518
▁already	-7.95523
▁much	-7.95529
▁life	-7.95766
▁foreign	-7.96049
th	-7.96603
▁own	-7.96716
▁particular	-7.9689
▁organizations	-7.97187
it	-7.97255
▁representative	-7.97622
able	-7.97656
▁addition	-7.97974
ic	-7.98177
w	-7.98209
▁become	-7.98401
▁help	-7.98451
▁war	-7.98575
▁nuclear	-7.98636
▁sector	-7.98921
▁force	-7.98968
▁east	-7.99288
en	-7.9954
▁taiwan	-7.99968
▁full	-8.00181
an	-8.00444
▁did	-8.00865
▁water	-8.01965
▁developing	-8.02108
▁c	-8.0252
▁great	-8.0285
▁major	-8.02858
ri	-8.02992
▁19	-8.03119
▁1998	-8.03821
on	-8.03905
▁business	-8.04317
▁action	-8.04423
▁1999	-8.04446
▁south	-8.04924
▁basis	-8.04943
▁concerned	-8.05205
▁used	-8.05398
▁see	-8.05659
▁issues	-8.05991
▁road	-8.0615
or	-8.06289
▁then	-8.06591
▁hope	-8.06641
▁africa	-8.0676
le	-8.06931
▁far	-8.06969
▁course	-8.07401
▁20	-8.07438
▁organization	-8.07712
▁industry	-8.0775
▁implementation	-8.07762
▁legal	-8.08636
▁available	-8.08791
▁found	-8.09084
▁training	-8.09149
▁problems	-8.09288
▁school	-8.09459
▁man	-8.09736
▁economy	-8.09908
ment	-8.10249
▁few	-8.10576
▁1997	-8.11108
▁12	-8.11254
▁7	-8.11589
▁review	-8.11599
▁civil	-8.1162
v	-8.11853
▁military	-8.11855
▁ensure	-8.12459
▁small	-8.12513
▁put	-8.12745
▁think	-8.13122
▁without	-8.13277
▁does	-8.13426
ity	-8.1365
▁recent	-8.14118
▁another	-8.14163
▁private	-8.14231
▁different	-8.14579
▁come	-8.14585
▁board	-8.14641
▁various	-8.14647
▁growth	-8.14652
▁how	-8.14786
to	-8.15244
ll	-8.15559
li	-8.16187
▁management	-8.1627
▁15	-8.16365
▁land	-8.1693
▁delegation	-8.1723
▁increased	-8.17458
▁matter	-8.18107
▁according	-8.18374
ar	-8.18525
▁central	-8.18551
ance	-8.19065
▁article	-8.19087
▁next	-8.19475
▁cannot	-8.19548
▁decision	-8.19948
▁necessary	-8.19986
▁concern	-8.20038
year	-8.20285
▁executive	-8.20513
▁hand	-8.20556
▁him	-8.20664
▁go	-8.20905
▁back	-8.20996
▁give	-8.20999
▁amount	-8.21095
▁session	-8.21114
▁resolution	-8.21236
▁society	-8.21608
▁role	-8.21625
▁30	-8.2168
▁several	-8.21682
▁administration	-8.21757
▁project	-8.22045
▁whether	-8.22055
▁regional	-8.22247
▁draft	-8.2277
▁p	-8.22905
▁able	-8.23042
▁agreement	-8.2375
▁upon	-8.23754
▁11	-8.23925
▁established	-8.23973
▁conflict	-8.24079
▁current	-8.24096
st	-8.24275
▁9	-8.24507
h	-8.24676
▁every	-8.24879
lo	-8.24981
▁serious	-8.25649
▁received	-8.25716
▁8	-8.266
▁example	-8.26731
▁officers	-8.2676
▁protection	-8.27121
▁value	-8.27153
▁yet	-8.27201
▁global	-8.27254
▁spokesman	-8.27501
▁environment	-8.27771
▁know	-8.27791
▁convention	-8.27829
▁democratic	-8.27907
▁particularly	-8.28077
▁control	-8.28098
▁believe	-8.2843
▁centre	-8.29184
▁e	-8.29237
▁continued	-8.29348
▁months	-8.29562
▁authorities	-8.29817
▁age	-8.29832
▁t	-8.30208
▁progress	-8.30438
▁visit	-8.3049
▁following	-8.30782
▁mainland	-8.30956
▁power	-8.30966
▁cost	-8.31019
▁above	-8.31113
▁attention	-8.31195
▁down	-8.31588
▁act	-8.32479
▁family	-8.32761
▁home	-8.33447
▁means	-8.33512
▁affairs	-8.33595
▁importance	-8.33604
▁say	-8.33697
▁required	-8.33796
▁men	-8.33802
▁again	-8.33819
▁account	-8.33996
▁2002	-8.3436
▁access	-8.34394
▁programmes	-8.34872
▁expressed	-8.35083
▁clear	-8.35152
▁technology	-8.35213
▁iraq	-8.35263
▁mission	-8.35368
ive	-8.35649
▁days	-8.35794
▁less	-8.35946
▁representatives	-8.36032
▁food	-8.36094
▁post	-8.3639
▁too	-8.36441
▁wish	-8.37
ce	-8.37183
ra	-8.37201
▁chief	-8.37352
▁authority	-8.38243
▁september	-8.3847
▁ma	-8.3883
ro	-8.38887
▁fund	-8.39332
▁budget	-8.39743
▁might	-8.39909
▁interest	-8.39978
▁noted	-8.39985
ma	-8.40189
▁chairman	-8.40656
▁early	-8.4082
▁relevant	-8.41255
▁conditions	-8.4127
▁weapons	-8.41328
▁2001	-8.41386
▁air	-8.42005
il	-8.42039
▁li	-8.42055
▁north	-8.42086
▁operation	-8.42189
ate	-8.42262
▁expected	-8.42272
▁asia	-8.42285
▁needs	-8.42755
▁minister	-8.42887
▁effective	-8.42943
▁director	-8.43147
▁often	-8.43722
▁labour	-8.43727
▁june	-8.43808
▁open	-8.43978
▁once	-8.44358
▁look	-8.44376
▁person	-8.44473
▁13	-8.44601
▁main	-8.44811
▁took	-8.44812
▁forces	-8.4499
▁free	-8.45028
▁july	-8.45044
▁groups	-8.45062
▁inter	-8.45196
▁bring	-8.45314
▁pay	-8.45625
▁october	-8.45752
▁currently	-8.45931
▁due	-8.45964
▁city	-8.46023
▁later	-8.4603
▁self	-8.46052
▁forward	-8.46104
▁reported	-8.46131
▁proposed	-8.46217
old	-8.46288
term	-8.46482
▁18	-8.4658
se	-8.46613
▁let	-8.46681
▁plan	-8.46744
▁anti	-8.46801
up	-8.47035
▁care	-8.47059
▁terms	-8.4708
▁european	-8.4725
▁together	-8.47796
▁responsibility	-8.48183
▁establishment	-8.48498
▁14	-8.48731
▁return	-8.48786
▁difficult	-8.49243
3	-8.49315
▁housing	-8.49451
▁impact	-8.49649
▁basic	-8.49734
▁operations	-8.49917
▁always	-8.50042
▁lack	-8.50152
▁subject	-8.50668
▁district	-8.50944
▁african	-8.50998
▁young	-8.51288
▁whole	-8.51293
▁consideration	-8.51313
▁change	-8.51354
▁considered	-8.51583
▁criminal	-8.51635
ated	-8.52046
▁bank	-8.5206
▁effect	-8.52249
▁quality	-8.5236
▁investment	-8.52381
▁involved	-8.52385
▁environmental	-8.52398
▁thus	-8.52649
▁japan	-8.52842
▁justice	-8.52948
▁better	-8.5342
na	-8.53471
▁results	-8.53791
▁march	-8.53937
▁approach	-8.54009
▁december	-8.54032
▁accord	-8.5413
▁dis	-8.54273
▁january	-8.54326
▁projects	-8.54389
▁position	-8.54492
▁students	-8.54827
▁reports	-8.55403
▁humanitarian	-8.55419
▁four	-8.555
▁pre	-8.55531
▁here	-8.5557
▁21	-8.55696
▁union	-8.55714
▁capacity	-8.55836
at	-8.55923
ta	-8.55928
▁added	-8.55944
▁50	-8.55975
▁soon	-8.56157
▁november	-8.56209
▁fully	-8.56306
▁secretariat	-8.56466
▁developed	-8.56516
▁f	-8.56663
▁around	-8.56783
▁exchange	-8.57033
▁date	-8.57397
ness	-8.57552
▁your	-8.57595
▁poverty	-8.57738
▁short	-8.57747
▁reform	-8.57787
est	-8.57839
▁capital	-8.5809
us	-8.58154
▁1996	-8.58171
▁carried	-8.58273
ary	-8.58311
▁half	-8.58595
▁domestic	-8.58703
▁production	-8.58823
▁include	-8.58954
▁sub	-8.59204
▁near	-8.59242
▁appropriate	-8.59243
▁legislative	-8.59351
▁consider	-8.59545
▁death	-8.59626
▁university	-8.59677
▁workers	-8.59749
▁o	-8.59913
ck	-8.6008
▁light	-8.60106
▁institutions	-8.60425
▁find	-8.60513
▁hospital	-8.60631
▁additional	-8.60634
▁certain	-8.60689
▁based	-8.60761
▁although	-8.6088
un	-8.6102
▁medical	-8.61101
▁experience	-8.61193
▁common	-8.61241
▁25	-8.61735
te	-8.61928
▁data	-8.61993
▁companies	-8.62322
▁property	-8.62325
000	-8.62362
▁address	-8.6255
ent	-8.62641
▁five	-8.628
co	-8.62836
▁related	-8.62924
▁transport	-8.63179
ur	-8.63373
▁company	-8.63671
▁especially	-8.63671
▁research	-8.63897
▁st	-8.63998
▁april	-8.64188
▁technical	-8.64466
▁towards	-8.64598
▁meet	-8.64626
▁child	-8.6473
▁significant	-8.64744
▁provision	-8.64762
▁field	-8.64901
▁individual	-8.64962
▁taking	-8.65249
x	-8.65303
▁ho	-8.65303
▁building	-8.65327
▁face	-8.65513
▁done	-8.65651
▁po	-8.65776
▁dr	-8.66286
▁focus	-8.66395
▁s	-8.66457
▁space	-8.66572
▁close	-8.66655
mo	-8.6674
▁participation	-8.67008
▁paragraph	-8.67338
▁16	-8.67534
▁best	-8.67545
▁indeed	-8.67602
▁crime	-8.67684
▁august	-8.67785
▁average	-8.68304
▁estimated	-8.68472
▁statement	-8.68529
min	-8.68636
ia	-8.68766
▁panel	-8.68905
▁low	-8.68952
▁old	-8.68983
▁traffic	-8.69256
▁demand	-8.69288
▁strong	-8.69352
▁17	-8.69446
2	-8.69457
▁having	-8.69737
▁words	-8.69756
▁study	-8.69777
▁car	-8.69783
mi	-8.7005
ted	-8.70287
▁rule	-8.70373
▁adopted	-8.70401
▁month	-8.70437
▁left	-8.70585
▁form	-8.70676
▁schools	-8.7074
▁exercise	-8.70967
▁conduct	-8.71057
▁response	-8.71068
▁conducted	-8.71082
▁called	-8.71306
▁middle	-8.71313
▁violence	-8.71313
▁costs	-8.71314
▁real	-8.71325
▁cause	-8.71908
is	-8.71957
▁itself	-8.72008
▁remain	-8.72027
▁themselves	-8.72048
▁principle	-8.72097
▁meetings	-8.72214
▁making	-8.72296
▁construction	-8.72299
▁establish	-8.72305
as	-8.72459
▁want	-8.72579
▁k	-8.72637
▁1995	-8.72671
▁practice	-8.72729
▁unit	-8.72752
▁media	-8.72956
▁living	-8.73038
▁scheme	-8.73114
ch	-8.73159
▁responsible	-8.73162
▁affected	-8.73394
▁armed	-8.73593
z	-8.73614
▁call	-8.74086
ve	-8.74156
▁hours	-8.74164
▁completed	-8.74191
▁con	-8.7448
▁24	-8.74688
▁recently	-8.74764
▁greater	-8.7482
rs	-8.74842
et	-8.74997
▁least	-8.75049
▁safety	-8.75052
▁former	-8.75128
▁brought	-8.75174
▁rapporteur	-8.75189
▁views	-8.75415
▁performance	-8.75564
▁specific	-8.76095
▁others	-8.76392
▁officials	-8.76394
▁bill	-8.76441
▁governments	-8.76493
▁employment	-8.7651
▁ministry	-8.7658
▁status	-8.7658
▁sea	-8.76689
▁quarter	-8.76748
▁existing	-8.76786
ting	-8.76822
▁g	-8.7694
▁investigation	-8.76981
ci	-8.77063
▁improve	-8.77101
▁issued	-8.77153
▁legislation	-8.77356
▁limited	-8.77393
▁territory	-8.77616
▁ha	-8.77657
▁live	-8.77758
▁provisions	-8.77839
▁election	-8.77844
▁never	-8.77882
▁changes	-8.77896
▁elections	-8.77982
▁treatment	-8.78219
▁money	-8.7829
▁majority	-8.78331
▁stage	-8.78515
▁agreed	-8.78653
governmental	-8.79298
▁israel	-8.79312
▁get	-8.79402
▁official	-8.79632
▁ex	-8.79678
▁america	-8.79748
▁line	-8.79769
▁compar	-8.79823
▁nature	-8.79853
▁reason	-8.80295
▁28	-8.80305
▁vote	-8.80411
▁term	-8.80492
▁poor	-8.80537
ver	-8.80637
▁comprehensive	-8.80654
▁higher	-8.80655
▁equipment	-8.80656
▁lead	-8.80784
▁income	-8.80819
ul	-8.80862
▁levels	-8.81164
▁d	-8.81193
▁lo	-8.81383
la	-8.81497
ne	-8.81697
▁direct	-8.8198
▁team	-8.82158
▁success	-8.82235
▁key	-8.82331
▁deal	-8.82418
ling	-8.82461
ist	-8.82504
▁play	-8.82548
▁along	-8.8266
▁opportunity	-8.82825
ies	-8.82872
▁1994	-8.82968
▁fire	-8.83015
▁stated	-8.83092
▁planning	-8.83664
▁promote	-8.83702
▁systems	-8.83719
▁victims	-8.8386
0000	-8.83904
▁welcome	-8.83989
▁section	-8.84133
▁rates	-8.84265
▁moreover	-8.84393
▁february	-8.84397
▁turn	-8.84711
the	-8.84931
▁rules	-8.85026
▁culture	-8.85042
el	-8.85163
▁positive	-8.85182
▁refugees	-8.85205
▁history	-8.85205
▁personnel	-8.85321
▁list	-8.85342
▁share	-8.85621
▁announced	-8.85646
▁division	-8.85745
▁debate	-8.85746
▁price	-8.85833
▁seen	-8.85867
▁off	-8.85883
▁committed	-8.85925
de	-8.86105
▁follow	-8.8614
▁policies	-8.86169
▁oil	-8.86219
▁primary	-8.86453
▁bo	-8.86454
▁administrative	-8.86595
▁times	-8.86759
5	-8.86886
me	-8.87028
▁relations	-8.87101
▁natural	-8.87118
▁treaty	-8.87184
▁final	-8.87251
▁export	-8.87323
▁products	-8.87397
▁allow	-8.8741
▁arms	-8.87478
nt	-8.87568
▁author	-8.87684
▁included	-8.87751
▁recommendations	-8.87775
▁remains	-8.88111
▁really	-8.88173
▁terrorism	-8.88299
ang	-8.88374
▁throughout	-8.88501
▁tung	-8.88543
▁until	-8.88608
▁move	-8.88896
▁hard	-8.88916
▁context	-8.89045
▁families	-8.89045
▁offices	-8.89208
▁head	-8.89336
▁di	-8.89355
▁met	-8.89605
▁press	-8.89671
▁little	-8.89777
▁leave	-8.89777
▁israeli	-8.89818
ism	-8.89913
▁palestinian	-8.89916
▁purpose	-8.90064
▁urban	-8.90071
▁madam	-8.90072
age	-8.90227
▁ago	-8.90319
▁prices	-8.90329
▁step	-8.90703
am	-8.90824
▁commitment	-8.91564
▁table	-8.91655
▁crisis	-8.91856
▁note	-8.91969
tic	-8.92029
▁drug	-8.92071
▁overall	-8.92157
▁freedom	-8.92174
▁show	-8.92495
ke	-8.92587
▁morning	-8.9261
▁experts	-8.92766
▁application	-8.92778
▁si	-8.92779
▁russian	-8.92953
▁prevention	-8.93399
▁principles	-8.9346
▁request	-8.93481
▁annual	-8.93481
▁competition	-8.93521
▁arrested	-8.9355
▁task	-8.93557
▁island	-8.93584
▁cross	-8.93723
▁pro	-8.93758
▁bureau	-8.93961
▁effort	-8.94017
ha	-8.94119
▁decided	-8.94281
▁facilities	-8.9444
▁cultural	-8.94474
▁monitoring	-8.94602
▁proposal	-8.94646
▁side	-8.94712
▁west	-8.94734
▁reduction	-8.94748
▁reached	-8.94946
▁23	-8.94971
$	-8.95156
▁statements	-8.95237
▁outside	-8.95246
▁agenda	-8.95368
▁opportunities	-8.95523
▁six	-8.95547
▁feel	-8.95601
▁increasing	-8.95644
▁rather	-8.95679
▁lower	-8.95787
ally	-8.96179
▁works	-8.9634
▁continues	-8.96429
▁caused	-8.9656
▁framework	-8.96777
▁europe	-8.96902
▁territories	-8.96934
▁appeal	-8.97135
▁came	-8.97237
▁goods	-8.97309
▁sha	-8.97399
▁deputy	-8.97567
▁statistics	-8.97567
▁democracy	-8.9758
▁furthermore	-8.97886
▁needed	-8.97895
▁led	-8.98164
▁relationship	-8.98367
▁risk	-8.98387
▁interests	-8.98863
7	-8.99102
ant	-8.99158
▁tribunal	-8.99492
▁express	-8.99512
▁thank	-8.99557
▁achieve	-8.99618
▁connection	-8.99659
▁finally	-8.99708
ti	-8.99911
▁26	-8.99981
▁korea	-9.00037
line	-9.00115
▁dialogue	-9.00142
▁31	-9.00208
▁energy	-9.00305
▁almost	-9.00468
vi	-9.00591
im	-9.00604
▁potential	-9.00632
▁supply	-9.00632
▁disarmament	-9.00796
▁survey	-9.00812
▁enterprises	-9.01074
um	-9.0108
▁start	-9.01112
▁bodies	-9.01125
▁civilian	-9.01164
▁acts	-9.01246
▁implemented	-9.01263
▁street	-9.01372
▁40	-9.01446
▁leaders	-9.0158
▁essential	-9.01759
▁evidence	-9.01785
▁beginning	-9.01792
▁ground	-9.02037
▁reach	-9.02215
▁serve	-9.02228
▁questions	-9.0224
time	-9.02299
▁benefit	-9.02783
pa	-9.028
▁week	-9.02915
man	-9.02973
▁citizens	-9.02975
ating	-9.02987
▁negotiations	-9.03043
▁independent	-9.0312
▁industrial	-9.03171
▁paid	-9.0318
▁document	-9.03295
▁clearly	-9.03329
▁achieved	-9.03335
▁concerning	-9.03395
ol	-9.03423
▁beijing	-9.03456
▁permanent	-9.03531
and	-9.03547
▁requirements	-9.03603
▁earlier	-9.03625
▁why	-9.03629
▁commercial	-9.03638
ty	-9.03669
▁incident	-9.03857
▁reasons	-9.03867
▁contributions	-9.03876
▁la	-9.03963
▁v	-9.04107
▁extreme	-9.04132
▁develop	-9.04133
less	-9.0427
▁travel	-9.04287
▁second	-9.04288
▁submitted	-9.04655
▁points	-9.0475
▁requested	-9.05067
▁successful	-9.05322
▁motion	-9.05334
▁site	-9.05422
▁similar	-9.0548
▁provides	-9.05542
▁promotion	-9.05671
▁lot	-9.05672
▁illegal	-9.05843
▁don	-9.05956
▁22	-9.06013
▁arrangements	-9.06141
▁funds	-9.06229
6	-9.06283
▁timor	-9.06358
▁joint	-9.06438
▁previous	-9.06519
di	-9.06823
▁agencies	-9.06884
▁27	-9.07003
▁quite	-9.07061
▁rise	-9.07135
ian	-9.07212
▁woman	-9.07237
id	-9.07447
▁loss	-9.07563
▁reduce	-9.07712
▁actions	-9.07716
▁going	-9.07716
▁century	-9.07787
▁either	-9.07936
ful	-9.08079
▁tax	-9.08102
▁longer	-9.08114
▁priority	-9.08129
▁declaration	-9.08293
▁manner	-9.08486
▁chen	-9.08546
▁vehicles	-9.0863
▁body	-9.08648
▁al	-9.08731
▁informed	-9.08786
▁understand	-9.08972
ton	-9.09022
▁hu	-9.0904
▁standards	-9.09182
▁kind	-9.09255
▁discussion	-9.09373
ry	-9.09375
▁proposals	-9.09653
ter	-9.0968
▁personal	-9.09691
▁mind	-9.09712
▁american	-9.09798
▁maintain	-9.09851
▁stability	-9.10082
ence	-9.10082
▁western	-9.10106
▁delegations	-9.10112
▁went	-9.10135
ca	-9.10188
▁remained	-9.10266
▁understanding	-9.10662
▁says	-9.10688
▁keep	-9.10779
▁strengthen	-9.10784
▁ten	-9.1083
ts	-9.10905
▁1990	-9.10946
▁investigations	-9.1096
▁internal	-9.10968
▁range	-9.11058
▁providing	-9.11159
▁exports	-9.11227
▁procedures	-9.11459
▁complete	-9.11657
▁text	-9.11706
▁sent	-9.11753
▁assist	-9.11802
▁afghanistan	-9.1189
▁kosovo	-9.12073
▁reference	-9.12078
▁run	-9.12341
9	-9.12352
▁rural	-9.12443
ors	-9.12453
▁encourage	-9.12556
▁opinion	-9.12866
▁round	-9.13
▁w	-9.13092
▁actually	-9.13119
▁se	-9.13153
▁design	-9.13214
▁conflicts	-9.13285
▁known	-9.13363
▁asked	-9.13448
▁prevent	-9.13482
▁regular	-9.13548
▁hold	-9.13615
ad	-9.13651
▁improvement	-9.13665
▁phase	-9.13741
▁mandate	-9.13845
▁station	-9.13877
▁markets	-9.13999
▁despite	-9.14114
▁sanctions	-9.14114
▁debt	-9.14127
▁sectors	-9.1435
▁mentioned	-9.14355
▁ba	-9.14476
po	-9.14569
▁residents	-9.14592
▁participate	-9.14642
▁places	-9.14655
▁employees	-9.14753
▁trial	-9.14834
▁senior	-9.14867
iv	-9.14979
▁wan	-9.15014
▁airport	-9.15064
▁circumstances	-9.1512
▁contribution	-9.15351
▁things	-9.15364
▁volume	-9.15435
▁difficulties	-9.15464
▁prime	-9.15627
▁india	-9.15811
ous	-9.15935
▁away	-9.15995
▁kingdom	-9.16007
▁forum	-9.16056
ized	-9.16118
▁using	-9.16221
▁regions	-9.1642
▁indicated	-9.16539
▁facilitate	-9.16581
▁plans	-9.16735
▁lives	-9.16738
0	-9.16753
▁1993	-9.16975
▁receive	-9.17128
▁amendment	-9.17158
▁opening	-9.17162
▁house	-9.17274
▁agency	-9.17292
▁customs	-9.17328
▁material	-9.17492
▁abuse	-9.17551
▁generally	-9.17587
▁mid	-9.1759
▁nor	-9.17666
▁regime	-9.17742
▁base	-9.17752
▁m	-9.17874
▁applications	-9.17911
▁prepared	-9.18232
▁contract	-9.1833
▁parents	-9.1837
▁killed	-9.18408
▁entire	-9.18526
▁sides	-9.18639
▁parts	-9.18979
led	-9.19167
▁matters	-9.19305
▁attacks	-9.19312
be	-9.19463
▁ordinance	-9.19505
▁b	-9.19623
ization	-9.19632
making	-9.19703
▁u	-9.19717
▁approved	-9.19736
▁avoid	-9.19869
▁ever	-9.19893
▁referred	-9.19905
▁approximately	-9.20129
▁professional	-9.20178
▁event	-9.20207
▁elderly	-9.203
▁attack	-9.20315
▁heart	-9.20323
▁standard	-9.20334
ish	-9.20339
▁knowledge	-9.20499
▁internet	-9.20504
▁29	-9.2061
▁published	-9.20612
▁active	-9.20623
way	-9.20641
▁hk	-9.20652
▁compensation	-9.20705
▁commissioner	-9.2071
▁answer	-9.20721
▁job	-9.20724
▁mo	-9.20787
▁immediately	-9.20839
▁pressure	-9.20911
▁objective	-9.20915
▁zone	-9.20926
▁federation	-9.211
▁2001.	-9.2127
▁advisory	-9.2131
▁movement	-9.21362
▁wide	-9.215
▁enhance	-9.21506
▁concerns	-9.21601
▁honour	-9.2183
▁source	-9.21932
▁aware	-9.21964
op	-9.21972
sh	-9.22008
▁released	-9.2206
▁events	-9.22186
▁seek	-9.22229
▁asian	-9.2225
no	-9.22378
▁mrs	-9.22409
▁supported	-9.22483
▁participants	-9.22643
▁assessment	-9.22781
▁60	-9.22926
▁became	-9.22926
▁extent	-9.23131
▁apply	-9.23187
▁language	-9.2321
▁addressed	-9.2321
pp	-9.23336
▁analysis	-9.23336
▁strategy	-9.23336
▁single	-9.23339
▁allowed	-9.23514
▁red	-9.23524
▁implement	-9.23592
▁behalf	-9.23748
▁english	-9.23955
▁iraqi	-9.24216
▁fundamental	-9.24369
▁mainly	-9.24585
▁confidence	-9.24604
▁enforcement	-9.24615
▁procedure	-9.24651
▁departments	-9.24676
▁raised	-9.24736
▁build	-9.2485
▁relating	-9.24994
▁challenges	-9.25061
▁lu	-9.25072
▁growing	-9.25088
▁headquarters	-9.25203
▁welfare	-9.25203
4	-9.25265
▁late	-9.25321
▁record	-9.25562
▁100	-9.25588
▁coming	-9.25779
▁external	-9.25834
▁stressed	-9.26057
▁behind	-9.26256
▁aids	-9.26387
▁lee	-9.26519
▁presented	-9.2653
▁funding	-9.26531
▁constitution	-9.26559
▁ra	-9.26618
▁balance	-9.26675
▁front	-9.26719
▁claim	-9.26893
▁started	-9.26966
ical	-9.27169
▁defence	-9.27232
ial	-9.27233
ize	-9.27274
▁institute	-9.27288
▁expenditure	-9.2745
▁association	-9.27451
▁shown	-9.27467
▁consultation	-9.27677
▁continuing	-9.27749
▁federal	-9.27749
ac	-9.27823
▁combat	-9.27868
▁began	-9.27881
▁network	-9.27892
▁doing	-9.2798
per	-9.2803
▁electronic	-9.28179
▁below	-9.2818
▁solution	-9.28326
▁agricultural	-9.28395
▁occurred	-9.28399
▁arab	-9.28403
▁rest	-9.28425
ph	-9.28501
▁require	-9.28533
▁name	-9.28609
▁enjoy	-9.28635
▁nevertheless	-9.28829
▁code	-9.28839
▁traditional	-9.28925
▁protect	-9.28938
▁peaceful	-9.28956
ut	-9.29195
▁bar	-9.29214
▁civilians	-9.29248
▁globalization	-9.29292
▁contribute	-9.2936
▁closed	-9.29465
▁create	-9.29477
▁ca	-9.2948
based	-9.29549
▁pa	-9.29623
▁million	-9.29663
▁r	-9.29697
▁enough	-9.29708
▁j	-9.29732
▁sales	-9.29794
▁centres	-9.29846
▁favour	-9.29886
▁thought	-9.29889
▁youth	-9.29942
▁chan	-9.29973
▁border	-9.30005
▁ethnic	-9.30029
▁carry	-9.30042
▁annex	-9.3014
▁counter	-9.30288
▁mi	-9.30296
▁speak	-9.30339
▁officer	-9.30366
▁condition	-9.30466
▁individuals	-9.30508
▁benefits	-9.30524
▁spirit	-9.30581
▁leading	-9.30619
▁reduced	-9.30651
▁agreements	-9.30717
▁conclusion	-9.31004
▁er	-9.31004
▁teachers	-9.31011
out	-9.31016
▁search	-9.31024
▁en	-9.31074
▁news	-9.31081
▁pm	-9.31176
ni	-9.31205
▁waste	-9.31234
▁enquiries	-9.31246
▁medium	-9.31246
▁laws	-9.31279
ning	-9.31321
▁multi	-9.31463
▁overseas	-9.31469
▁directly	-9.31559
▁undertaken	-9.31964
▁scene	-9.32141
▁factors	-9.32209
▁industries	-9.32365
▁respectively	-9.32469
▁enable	-9.32548
▁true	-9.32592
▁unemployment	-9.32597
▁1992	-9.326
▁sp	-9.32625
▁transfer	-9.32811
▁female	-9.32816
▁stay	-9.32816
▁initiative	-9.32826
▁effects	-9.32993
▁floor	-9.33042
▁sustainable	-9.33057
▁fall	-9.33378
▁introduced	-9.33419
▁affect	-9.33466
▁maintenance	-9.33496
▁though	-9.3353
ir	-9.3357
▁decisions	-9.33614
▁duty	-9.33963
▁su	-9.34027
▁recorded	-9.34134
▁host	-9.34367
▁stand	-9.34381
▁returned	-9.34383
▁adoption	-9.34445
▁wong	-9.3447
ng	-9.34605
▁mutual	-9.3464
▁japanese	-9.3471
der	-9.34864
▁concept	-9.35156
▁crimes	-9.35159
▁settlement	-9.35162
▁peoples	-9.35283
▁trust	-9.35333
▁coordination	-9.35341
▁congo	-9.35348
▁peacekeeping	-9.35358
▁aspects	-9.35419
▁useful	-9.35513
▁yesterday	-9.35565
▁credit	-9.35609
▁consultations	-9.35657
▁prison	-9.35751
▁activity	-9.35798
▁critical	-9.35798
da	-9.35804
▁governor	-9.35813
▁payment	-9.35817
▁2003	-9.35819
▁discuss	-9.35846
▁communities	-9.36031
▁charter	-9.36053
▁vice	-9.36067
▁resulted	-9.36081
▁details	-9.36106
▁paper	-9.36121
▁class	-9.36149
▁reflect	-9.36154
▁documents	-9.36192
▁york	-9.36264
▁equal	-9.36278
ie	-9.36306
▁elected	-9.36366
ine	-9.36378
▁room	-9.36631
▁closely	-9.36648
▁injured	-9.36783
▁sc	-9.36794
▁organized	-9.36902
building	-9.37036
os	-9.37039
▁talk	-9.37221
▁launched	-9.37235
▁whose	-9.37236
erra	-9.37265
▁ways	-9.37324
▁daily	-9.37443
ag	-9.37469
▁finance	-9.37501
▁drugs	-9.37671
▁ceremony	-9.37678
pe	-9.37678
▁secondary	-9.37704
▁broad	-9.37808
▁improved	-9.37851
▁parliament	-9.37946
▁largest	-9.38035
▁lost	-9.38203
▁contact	-9.38266
▁economies	-9.38392
▁simply	-9.38392
▁presence	-9.38393
▁deep	-9.38451
▁items	-9.38471
▁stock	-9.38515
mb	-9.38544
▁followed	-9.38553
▁practical	-9.38631
▁sense	-9.38632
▁appointed	-9.38769
▁certainly	-9.38808
▁agree	-9.38857
su	-9.39095
▁initiatives	-9.39103
▁science	-9.39112
▁materials	-9.39179
ct	-9.39189
he	-9.39222
▁proceed	-9.39276
▁na	-9.39278
for	-9.39305
▁suggested	-9.39336
▁chi	-9.39402
▁ta	-9.3946
▁degree	-9.39487
▁test	-9.3964
▁add	-9.3966
▁troops	-9.39717
ot	-9.39733
▁aid	-9.39746
▁recognized	-9.3979
▁choice	-9.39841
▁discrimination	-9.3992
▁physical	-9.40079
▁join	-9.40079
▁decline	-9.40098
▁moment	-9.40104
va	-9.40107
▁units	-9.40202
▁hoped	-9.40207
▁fair	-9.4037
▁likely	-9.40383
ure	-9.4045
▁dollar	-9.40474
oc	-9.40505
▁something	-9.40569
▁placed	-9.40624
▁highest	-9.4069
go	-9.40691
▁province	-9.40725
▁threat	-9.40939
▁doubt	-9.40976
▁cut	-9.40987
▁sources	-9.41026
▁studies	-9.41056
▁operating	-9.4106
ator	-9.41064
▁intention	-9.41074
▁tai	-9.41074
▁talks	-9.41196
▁0	-9.41219
▁buildings	-9.41229
▁structure	-9.41265
ge	-9.41373
▁forms	-9.41382
▁mechanism	-9.41473
▁damage	-9.41573
▁judicial	-9.41616
▁te	-9.41647
▁immigration	-9.41795
▁item	-9.41796
▁nothing	-9.41805
cu	-9.41845
▁stop	-9.41911
▁net	-9.41999
▁begin	-9.42037
▁l	-9.42051
▁girls	-9.42179
▁notes	-9.42437
▁seems	-9.4248
▁eastern	-9.42663
▁elements	-9.42668
▁registered	-9.42787
▁reportedly	-9.42798
▁located	-9.42809
day	-9.42912
▁trend	-9.42993
▁kowloon	-9.43039
▁canada	-9.43039
▁reporting	-9.43204
sa	-9.43329
▁normal	-9.43349
▁offer	-9.4361
▁direction	-9.4367
▁sure	-9.43673
▁died	-9.43749
ho	-9.43767
▁indigenous	-9.43792
▁television	-9.43792
▁adopt	-9.43879
00	-9.43888
▁cover	-9.43911
if	-9.44009
▁communication	-9.44014
▁sufficient	-9.44067
▁appear	-9.44117
▁mass	-9.44131
▁measure	-9.44132
▁du	-9.44166
▁discussed	-9.44203
▁regulations	-9.44324
om	-9.44386
▁signed	-9.44555
tion	-9.44615
▁seven	-9.44814
▁terrorist	-9.4487
▁accept	-9.45132
mp	-9.4517
▁claims	-9.45177
▁fine	-9.45189
▁expert	-9.45291
▁northern	-9.45317
▁river	-9.45318
tu	-9.45465
▁submit	-9.45557
▁gender	-9.45574
▁created	-9.4558
▁urge	-9.45592
▁steps	-9.45857
▁goal	-9.45878
red	-9.45905
▁cold	-9.45943
▁extend	-9.45966
▁heavy	-9.46089
▁1991	-9.461
▁assets	-9.46125
▁told	-9.46279
▁operational	-9.46314
▁felt	-9.4641
▁import	-9.46419
pro	-9.46478
▁obtain	-9.46485
▁objectives	-9.46598
ring	-9.46711
▁pakistan	-9.46759
end	-9.46775
▁french	-9.46865
▁discussions	-9.46883
▁infrastructure	-9.46895
▁vehicle	-9.46915
▁initial	-9.46935
▁ad	-9.46938
▁believed	-9.47075
▁shows	-9.47098
▁consensus	-9.47126
▁independence	-9.47126
▁failure	-9.47132
▁big	-9.47195
che	-9.47202
▁considerable	-9.47207
con	-9.47227
▁rich	-9.47319
▁applied	-9.47387
▁perhaps	-9.47387
▁index	-9.47391
▁everyone	-9.47404
▁british	-9.47485
▁comments	-9.47577
ba	-9.47588
ite	-9.47633
▁afternoon	-9.47649
▁emergency	-9.47649
▁france	-9.47649
▁port	-9.47667
▁cities	-9.47679
▁disease	-9.47684
▁accepted	-9.47776
hi	-9.47839
▁speech	-9.47847
▁unable	-9.47858
▁leadership	-9.47915
▁safe	-9.4798
ner	-9.47993
▁scheduled	-9.48032
▁army	-9.48204
▁decrease	-9.48214
▁increasingly	-9.48234
▁figures	-9.48302
qui	-9.48316
▁developments	-9.48352
▁modern	-9.4843
by	-9.4845
ou	-9.48485
of	-9.48634
▁remind	-9.48698
em	-9.48859
▁dead	-9.49008
volving	-9.49234
▁tsang	-9.49235
▁engaged	-9.49334
▁distribution	-9.49502
▁holding	-9.49503
▁series	-9.49506
▁park	-9.49506
▁estate	-9.49514
▁premises	-9.49626
▁target	-9.49732
▁yu	-9.49749
▁completion	-9.49768
ping	-9.49805
tr	-9.49909
▁detailed	-9.49955
▁san	-9.49958
▁gr	-9.49963
▁complex	-9.49968
▁opened	-9.50056
ig	-9.50288
▁aircraft	-9.50305
▁approval	-9.50305
▁southern	-9.50305
▁imp	-9.50468
▁gu	-9.50469
▁banks	-9.50511
▁night	-9.50579
men	-9.50628
cy	-9.50856
▁urged	-9.51081
▁speed	-9.51116
▁fight	-9.51182
▁sar	-9.51224
▁promoting	-9.51388
▁registration	-9.51388
▁strengthening	-9.51412
▁ka	-9.51454
▁--	-9.51568
ious	-9.5157
▁mis	-9.51622
▁monitor	-9.51646
les	-9.51663
▁immediate	-9.51742
related	-9.51895
▁principal	-9.51933
▁gave	-9.51946
ap	-9.51979
▁substantial	-9.52016
▁campaign	-9.52053
▁le	-9.52073
▁provisional	-9.52124
level	-9.52159
gu	-9.52198
8	-9.52208
▁australia	-9.52377
ung	-9.52379
▁iran	-9.52411
▁adequate	-9.52566
▁aged	-9.52606
▁ro	-9.52632
▁notice	-9.52663
▁across	-9.52757
▁ask	-9.52814
▁rapid	-9.52842
▁70	-9.52853
▁victim	-9.52889
▁bus	-9.52975
▁charges	-9.53018
▁trafficking	-9.53063
▁invited	-9.5314
que	-9.53183
▁letter	-9.53212
q	-9.53291
▁spread	-9.53311
▁soldiers	-9.53362
▁figure	-9.53454
rd	-9.53476
▁chamber	-9.53588
▁tomorrow	-9.53588
▁ch	-9.53663
▁heard	-9.53669
▁appointment	-9.53712
land	-9.53842
▁negative	-9.53867
▁encouraged	-9.53927
▁original	-9.54029
▁strength	-9.54113
▁owing	-9.54149
▁purchase	-9.54202
▁mine	-9.54313
ill	-9.5437
▁diseases	-9.54389
▁sexual	-9.54427
▁passed	-9.5448
▁functions	-9.54531
▁honourabl	-9.54538
▁h	-9.5455
▁attend	-9.54583
▁sir	-9.54652
▁agriculture	-9.54707
▁ban	-9.5478
fi	-9.5479
▁leone	-9.54994
▁tourism	-9.54996
▁sw	-9.55013
▁contained	-9.55017
▁web	-9.55051
lic	-9.55057
art	-9.5507
bo	-9.5507
ah	-9.55097
▁entitled	-9.55272
▁insurance	-9.55272
▁mother	-9.5545
▁art	-9.55468
ao	-9.5547
▁enter	-9.55484
▁whom	-9.55595
▁corruption	-9.55603
▁inside	-9.55627
▁accordingly	-9.55744
▁penalty	-9.55842
▁town	-9.55924
▁ready	-9.55925
▁nation	-9.55941
▁challenge	-9.56033
ities	-9.56039
▁efficiency	-9.56124
▁sale	-9.56286
weapon	-9.56382
ga	-9.56395
▁ambassador	-9.5641
ong	-9.56519
▁pacific	-9.56601
ff	-9.5661
▁displaced	-9.56696
▁emphasis	-9.56696
▁satellite	-9.56696
▁yugoslavia	-9.5671
▁actual	-9.56792
▁posts	-9.56885
▁preparation	-9.57203
▁character	-9.57257
▁candidates	-9.57439
▁decide	-9.57771
▁alone	-9.5786
▁outcome	-9.57873
▁welcomed	-9.58028
▁word	-9.58097
▁foundation	-9.58115
▁purposes	-9.58198
▁transition	-9.58326
▁radio	-9.58433
▁relief	-9.58444
▁percent	-9.58481
▁model	-9.58484
▁entered	-9.58532
ee	-9.58563
free	-9.58715
▁identified	-9.58725
-19	-9.588
▁evaluation	-9.588
▁instruments	-9.58835
▁financing	-9.59018
▁guidelines	-9.59019
50	-9.59051
▁communications	-9.59054
▁ah	-9.59138
▁confirmed	-9.59162
▁covered	-9.59166
▁limit	-9.59199
our	-9.59294
▁exhibition	-9.59324
mm	-9.59375
▁recommended	-9.59455
▁speaking	-9.5959
▁protocol	-9.59607
▁religious	-9.59607
gr	-9.59624
▁attended	-9.59711
▁saying	-9.59807
▁beyond	-9.59903
▁scope	-9.59903
▁entry	-9.59904
▁scale	-9.59909
▁count	-9.59913
▁practices	-9.60048
scale	-9.60199
▁sh	-9.602
▁music	-9.60226
▁won	-9.60232
islamic	-9.60232
▁friends	-9.60275
▁amendments	-9.60294
pi	-9.60309
▁prior	-9.60464
▁forced	-9.60472
▁weather	-9.60498
▁eight	-9.60516
▁highly	-9.60531
▁release	-9.60572
▁computer	-9.60791
▁leung	-9.60804
▁revealed	-9.60911
▁concluded	-9.61193
wa	-9.613
uc	-9.61303
▁gas	-9.61365
▁violations	-9.61379
▁mean	-9.61508
▁el	-9.61623
bi	-9.61864
▁determined	-9.61881
▁ja	-9.61922
▁universal	-9.6197
▁bilateral	-9.61999
▁raise	-9.62087
▁charge	-9.62224
▁black	-9.62302
▁meanwhile	-9.62302
▁calls	-9.62388
▁complaints	-9.62554
▁separate	-9.62565
▁dollars	-9.62721
off	-9.62788
▁membership	-9.62943
▁accident	-9.62943
ign	-9.62959
▁looking	-9.63081
▁audit	-9.63206
▁destruction	-9.63217
ations	-9.6325
▁wu	-9.63269
▁love	-9.63418
fer	-9.63477
▁decreased	-9.63477
▁bu	-9.63633
▁ni	-9.63672
ps	-9.63712
▁judges	-9.6376
called	-9.63785
▁zealand	-9.63831
▁easy	-9.63831
▁consumer	-9.63894
▁subsequently	-9.63928
▁incidents	-9.64025
pr	-9.6409
1%	-9.6414
▁extensive	-9.6414
▁cheung	-9.64146
▁remaining	-9.64305
▁sites	-9.64311
▁courts	-9.64336
▁manufacturing	-9.6445
▁summit	-9.6445
▁arrived	-9.64543
▁suffering	-9.6457
eh	-9.64611
com	-9.64637
ka	-9.64655
▁employers	-9.64684
ard	-9.64709
▁recovery	-9.64794
▁shui	-9.648
▁hands	-9.64919
000000000	-9.64967
▁shanghai	-9.65072
▁burden	-9.65074
▁attempt	-9.65078
▁judge	-9.65387
▁instance	-9.65467
▁comment	-9.6547
au	-9.6556
▁hiv	-9.65566
▁attitude	-9.65698
▁railway	-9.65702
▁sought	-9.65705
▁minutes	-9.65854
▁patients	-9.65874
▁constitutional	-9.65913
▁intended	-9.65984
▁proportion	-9.6601
▁reply	-9.66013
▁sometimes	-9.66016
▁offence	-9.66131
▁changed	-9.66133
▁book	-9.6616
▁articles	-9.66228
und	-9.66233
2%	-9.66257
so	-9.66262
do	-9.66313
▁diplomatic	-9.66329
▁vi	-9.66398
bu	-9.66434
▁80	-9.66463
▁loans	-9.66526
▁stations	-9.66544
▁arrest	-9.66582
▁undp	-9.66645
▁fear	-9.66673
▁read	-9.66797
▁type	-9.66843
operation	-9.66961
▁popular	-9.66962
▁pass	-9.66986
ably	-9.6704
▁resource	-9.67069
▁ability	-9.67165
▁partners	-9.6717
hu	-9.67211
▁possibility	-9.6728
▁improving	-9.67281
▁goals	-9.67285
▁reality	-9.67357
1	-9.67359
▁expect	-9.67492
▁significantly	-9.67494
lu	-9.67508
▁35	-9.67598
▁gross	-9.676
▁injuries	-9.67602
▁ms	-9.67675
▁ga	-9.67693
▁200	-9.67757
▁advance	-9.67791
▁weeks	-9.67819
▁otherwise	-9.6792
fa	-9.6793
▁miss	-9.67978
ep	-9.67982
▁product	-9.6799
▁described	-9.68018
ab	-9.68057
▁size	-9.68081
▁thing	-9.68217
▁takes	-9.68226
▁fighting	-9.68263
ise	-9.68304
ji	-9.68336
▁content	-9.68377
▁aim	-9.68416
▁instead	-9.68564
▁designed	-9.68572
▁imposed	-9.68647
▁singapore	-9.68888
▁metres	-9.68906
▁participated	-9.68949
▁kuwait	-9.69018
▁includes	-9.69083
du	-9.69109
▁becoming	-9.69128
▁acting	-9.6914
▁actively	-9.69198
▁retail	-9.69212
▁fuel	-9.69231
▁setting	-9.69309
son	-9.69311
▁effectiveness	-9.69368
▁offered	-9.69397
▁wang	-9.69457
rc	-9.69682
ber	-9.69698
▁mu	-9.6981
▁lau	-9.69823
▁educational	-9.69903
▁latest	-9.69915
▁seriously	-9.70018
▁successfully	-9.70237
rt	-9.70311
▁bad	-9.70333
▁village	-9.70364
nd	-9.70495
▁effectively	-9.70547
▁failed	-9.70567
▁chang	-9.70748
▁explain	-9.70803
▁bear	-9.70815
res	-9.70822
▁apart	-9.70822
▁missions	-9.70858
▁origin	-9.70861
▁contributed	-9.70983
▁makes	-9.71006
▁extended	-9.71008
▁moved	-9.7103
▁occasion	-9.71047
▁warm	-9.71154
▁fi	-9.71221
▁strongly	-9.7138
▁colleagues	-9.71461
▁fail	-9.71481
responsibilities	-9.71515
▁influence	-9.71515
▁requires	-9.71637
rr	-9.71752
▁causes	-9.71758
▁wrong	-9.71851
▁kept	-9.71856
▁000	-9.71914
▁mechanisms	-9.7195
ster	-9.71992
▁visited	-9.72066
▁core	-9.72115
▁academic	-9.72183
▁latin	-9.72183
▁cash	-9.72213
▁consequences	-9.72322
cl	-9.72331
eg	-9.72335
▁produced	-9.7239
gh	-9.72477
▁(19	-9.72506
▁message	-9.72518
▁taipei	-9.72518
▁planned	-9.7254
▁gradually	-9.72586
▁launch	-9.72589
▁ship	-9.72631
▁revenue	-9.72739
▁methods	-9.72756
▁sound	-9.72808
▁suffered	-9.72835
▁creation	-9.72855
▁homes	-9.72876
▁standing	-9.72908
▁brief	-9.7293
▁inflation	-9.73193
▁trading	-9.73194
▁chung	-9.73292
av	-9.73297
ak	-9.73301
▁saw	-9.73319
cc	-9.73323
▁severe	-9.73343
▁yuan	-9.73381
▁recognize	-9.7345
▁pollution	-9.73532
▁himself	-9.73544
▁outstanding	-9.73576
▁hit	-9.73609
▁recommends	-9.73632
▁simple	-9.73872
▁tin	-9.74015
▁allegedly	-9.74023
▁plant	-9.74064
▁requests	-9.74136
▁mar	-9.74193
▁accounts	-9.74304
cr	-9.74349
▁jobs	-9.7455
▁detention	-9.74556
▁sudan	-9.74556
▁maintained	-9.74594
▁represented	-9.74606
▁proceedings	-9.74711
▁believes	-9.74717
▁rwanda	-9.74802
▁charged	-9.74809
▁prosecution	-9.74899
▁integration	-9.74906
▁draw	-9.74922
▁1,	-9.75005
▁showed	-9.75076
▁korean	-9.75121
ction	-9.75125
▁resulting	-9.75126
▁served	-9.75213
▁contain	-9.75229
▁participating	-9.75244
▁tell	-9.75311
▁accused	-9.75396
▁clean	-9.7558
▁strategic	-9.7559
▁green	-9.75591
▁fell	-9.75624
▁detained	-9.75642
▁aimed	-9.75664
▁users	-9.75676
ft	-9.757
▁thousands	-9.75782
▁disaster	-9.75875
▁islands	-9.7588
▁supplies	-9.75938
▁licence	-9.75938
▁opposition	-9.75938
5%	-9.75948
▁delivery	-9.75999
ned	-9.76152
▁resolutions	-9.76335
▁bl	-9.76373
▁taxi	-9.76481
▁reflected	-9.76503
▁wishes	-9.76542
▁occupation	-9.76588
▁courses	-9.76876
▁exist	-9.76888
▁refugee	-9.76964
▁sa	-9.76966
▁picture	-9.76987
▁written	-9.76987
▁maximum	-9.76989
▁father	-9.76989
▁sustained	-9.77241
▁mexico	-9.77339
▁voice	-9.77341
▁obligations	-9.77439
▁ill	-9.77471
▁offences	-9.77591
▁break	-9.77628
▁white	-9.77698
chi	-9.77775
▁ku	-9.77784
▁observers	-9.77825
▁values	-9.77925
ex	-9.77967
▁congress	-9.78049
▁collective	-9.78064
▁factor	-9.78147
▁idea	-9.78173
▁cha	-9.78243
▁weak	-9.78348
▁delay	-9.78383
▁geneva	-9.78403
ru	-9.78421
▁appears	-9.78441
▁increases	-9.78626
▁top	-9.78699
▁expansion	-9.7876
▁identify	-9.7876
7%	-9.7876
rn	-9.78763
▁involvement	-9.78781
▁awareness	-9.78793
▁male	-9.78796
▁tons	-9.78888
▁reforms	-9.79045
▁stress	-9.79098
▁numerous	-9.79118
▁inspection	-9.79126
▁teaching	-9.79256
▁owners	-9.79271
ral	-9.79278
▁path	-9.7938
▁grant	-9.79502
0,000	-9.79512
▁sentence	-9.79641
▁buy	-9.79671
ven	-9.7978
▁built	-9.79839
▁examination	-9.79847
▁formal	-9.79921
▁fo	-9.80074
ze	-9.80165
▁multilateral	-9.80201
ability	-9.80234
▁che	-9.804
ten	-9.80441
ell	-9.80486
tor	-9.80497
▁alternative	-9.80565
▁blood	-9.80565
▁giving	-9.80565
▁earth	-9.80577
▁violation	-9.8059
▁ki	-9.80644
▁respond	-9.80716
▁bomb	-9.80758
▁ti	-9.80765
▁types	-9.80811
▁indonesia	-9.80825
▁happy	-9.8093
▁scientific	-9.8093
▁burundi	-9.8093
cs	-9.81
fu	-9.81116
▁carrying	-9.81132
▁fees	-9.81195
ified	-9.81259
▁appreciation	-9.81296
▁dealing	-9.8134
▁produce	-9.81368
▁positions	-9.81428
ger	-9.81454
▁skills	-9.81471
▁heads	-9.81492
▁slow	-9.81524
▁angola	-9.81559
▁jurisdiction	-9.81664
▁protest	-9.81671
▁experienced	-9.81672
▁determine	-9.81808
▁45	-9.81826
▁guarantee	-9.81853
▁probably	-9.82033
▁marine	-9.8205
▁medicine	-9.82081
▁learn	-9.82084
▁requirement	-9.82131
99	-9.82202
▁municipal	-9.82396
▁crucial	-9.82403
▁cancer	-9.8241
▁drop	-9.82432
tra	-9.82434
▁try	-9.82638
rg	-9.82738
▁dangerous	-9.82785
▁germany	-9.82826
▁prosecutor	-9.82837
▁collection	-9.82846
▁got	-9.82848
ward	-9.82851
▁flow	-9.82945
▁sign	-9.82983
▁percentage	-9.83165
ip	-9.83203
▁reasonable	-9.83243
relatively	-9.83262
▁passengers	-9.83265
▁resolve	-9.8335
▁servants	-9.83454
▁faced	-9.83502
▁program	-9.83508
▁perspective	-9.83522
▁completely	-9.83539
izing	-9.83563
▁film	-9.83602
▁ongoing	-9.83634
▁moral	-9.83709
▁evening	-9.83792
▁sun	-9.8382
▁consumption	-9.83898
▁illicit	-9.83898
▁imprisonment	-9.83898
▁strategies	-9.83898
▁deployment	-9.83907
pl	-9.83909
▁granted	-9.83916
▁taiwanese	-9.83928
▁prisoners	-9.83976
▁worked	-9.8399
▁n	-9.83991
▁hearing	-9.84
▁ministers	-9.84078
▁decades	-9.84116
▁ahead	-9.84224
▁sex	-9.84242
▁anniversary	-9.84276
▁voluntary	-9.84276
▁festival	-9.84288
▁quickly	-9.84354
▁cuba	-9.8438
▁integrated	-9.84406
▁...	-9.84425
▁welcomes	-9.8463
▁absence	-9.84655
▁grave	-9.84655
▁seem	-9.84669
af	-9.84743
▁focused	-9.84751
▁fu	-9.84783
gen	-9.84832
▁da	-9.84846
▁train	-9.85014
▁fa	-9.85031
▁allocation	-9.85035
▁ensuring	-9.85036
▁arrangement	-9.85147
ja	-9.85201
▁records	-9.85223
j	-9.8532
▁award	-9.85361
▁explanation	-9.85416
▁businesses	-9.85422
▁efficient	-9.855
▁method	-9.85525
▁observed	-9.85542
▁obtained	-9.85595
▁fields	-9.85667
▁russia	-9.85695
▁claimed	-9.85715
▁employed	-9.85733
▁preparatory	-9.858
ship	-9.85824
▁suspected	-9.85961
▁wind	-9.85966
▁worth	-9.86129
▁contrary	-9.86184
▁enormous	-9.86184
▁estimates	-9.86336
sp	-9.86478
▁electoral	-9.8657
▁recognition	-9.8657
▁90	-9.86618
▁equality	-9.86622
▁lin	-9.86633
▁stable	-9.86707
▁ii	-9.86919
▁advice	-9.86958
▁unfortunately	-9.87016
▁birth	-9.87093
▁corporation	-9.87101
ea	-9.87167
▁goes	-9.87293
▁square	-9.87354
▁tv	-9.8749
▁correct	-9.87511
▁32	-9.87556
▁lam	-9.87562
▁urgent	-9.87568
east	-9.87617
one	-9.87633
▁professor	-9.87738
▁torture	-9.87738
▁visitors	-9.87791
▁gap	-9.87904
▁learning	-9.8794
▁older	-9.87986
▁mere	-9.88046
▁linked	-9.88097
▁danger	-9.88123
▁extension	-9.8813
▁introduction	-9.88131
▁mun	-9.88161
▁nine	-9.88163
▁th	-9.88192
▁interested	-9.88222
▁decade	-9.88296
▁implementing	-9.88413
▁operate	-9.88468
▁identity	-9.88523
▁besides	-9.88533
▁bush	-9.88607
see	-9.88737
▁selected	-9.88757
▁findings	-9.88806
▁impossible	-9.88919
▁prosperity	-9.88919
▁guide	-9.88978
▁relation	-9.89095
▁cheng	-9.89187
▁pe	-9.89228
▁numbers	-9.89271
▁vital	-9.89317
▁existence	-9.89328
▁usually	-9.89402
▁expression	-9.8941
▁gain	-9.8942
▁killing	-9.89566
▁deeply	-9.89634
▁disputes	-9.89703
▁definition	-9.89714
her	-9.89721
▁latter	-9.89725
▁happen	-9.89733
▁hall	-9.89836
▁forest	-9.89846
ec	-9.89853
▁games	-9.89865
▁neighbour	-9.89912
▁introduce	-9.89929
ow	-9.90092
▁marriage	-9.90114
ran	-9.90244
▁meaning	-9.90346
▁minimum	-9.90516
▁murder	-9.90516
▁facing	-9.90522
▁pleased	-9.90739
▁check	-9.90748
▁suffer	-9.90786
▁perform	-9.90804
▁turned	-9.90804
30	-9.90862
bound	-9.91123
▁informal	-9.91192
▁technologies	-9.91324
ld	-9.9136
▁rose	-9.91379
▁situations	-9.91509
▁please	-9.91509
▁trying	-9.91531
▁proper	-9.91548
▁advantage	-9.91555
▁partnership	-9.91558
tter	-9.91586
ists	-9.91645
▁suggest	-9.9172
▁technological	-9.9173
▁wife	-9.9173
▁coast	-9.91731
ight	-9.91896
ory	-9.91899
▁permit	-9.91953
▁joined	-9.91959
over	-9.91967
▁comp	-9.92033
▁attached	-9.92088
▁thailand	-9.9214
▁seized	-9.92162
▁greatly	-9.92178
▁leader	-9.92192
▁cr	-9.92194
▁trip	-9.92206
▁shortly	-9.92462
▁warning	-9.92616
10	-9.9275
▁instrument	-9.92804
▁function	-9.92876
▁dealt	-9.92904
▁era	-9.92925
▁respective	-9.92938
▁transparency	-9.9296
▁rehabilitation	-9.92966
▁gone	-9.93061
xi	-9.93254
▁center	-9.93276
▁ge	-9.93371
▁residential	-9.93378
▁sovereignty	-9.93378
▁super	-9.93391
▁send	-9.93431
▁mention	-9.93449
▁link	-9.93451
▁firm	-9.93578
▁adjustment	-9.93656
▁claimant	-9.93671
▁fish	-9.93707
▁duties	-9.93793
▁door	-9.93813
▁z	-9.93867
▁chance	-9.93874
▁listen	-9.9389
▁depend	-9.93906
▁sum	-9.94005
▁generation	-9.9418
ative	-9.94227
▁master	-9.94233
▁33	-9.94249
▁intend	-9.94252
▁secondly	-9.94257
▁explained	-9.94266
▁yuen	-9.94283
▁regards	-9.94309
▁fan	-9.94335
▁presentation	-9.94431
▁changing	-9.94498
▁processes	-9.94528
▁powers	-9.9458
▁36	-9.94587
▁malaysia	-9.94623
500	-9.94653
▁register	-9.94663
▁constitute	-9.94715
▁greatest	-9.94751
▁hoc	-9.94781
▁tests	-9.94806
▁watch	-9.94901
▁obligation	-9.94928
▁achiev	-9.94938
▁comes	-9.9494
governing	-9.94955
▁missing	-9.94958
▁bi	-9.95009
▁worse	-9.95044
▁image	-9.95045
▁begun	-9.95046
▁associated	-9.95134
▁represents	-9.95157
▁represent	-9.95175
▁em	-9.95197
▁interpretation	-9.95278
▁bosnia	-9.9536
rat	-9.95433
vis	-9.95435
▁attract	-9.95445
▁consist	-9.95456
▁temporary	-9.95465
▁season	-9.95487
▁interview	-9.95508
ny	-9.95522
▁occupied	-9.95543
ud	-9.95841
▁imports	-9.95865
▁widely	-9.95867
▁afford	-9.95889
▁chapter	-9.95889
▁lebanon	-9.95889
▁unique	-9.95889
▁waiting	-9.96125
▁recommendation	-9.96238
▁pain	-9.9631
▁census	-9.96314
▁currency	-9.96314
▁struggle	-9.96314
▁speakers	-9.96406
▁determination	-9.96452
▁brazil	-9.9673
▁governance	-9.96752
▁losses	-9.96897
▁born	-9.97068
▁britain	-9.97171
98	-9.97273
▁drawn	-9.97301
▁historical	-9.97343
▁mines	-9.9736
▁propose	-9.97378
▁amp	-9.97389
load	-9.97453
▁criteria	-9.97602
▁walk	-9.97602
▁wealth	-9.97604
▁hence	-9.9762
▁ju	-9.97679
ko	-9.97819
▁alleged	-9.97882
▁marked	-9.97961
▁ko	-9.9798
▁indicate	-9.98219
▁starting	-9.98226
mentioned	-9.9831
▁bridge	-9.98357
▁forecast	-9.9847
▁operators	-9.98478
▁institutional	-9.98575
▁sports	-9.98687
▁mon	-9.9869
▁34	-9.98845
▁substantive	-9.98906
▁para	-9.98928
use	-9.9896
▁representing	-9.99049
▁writing	-9.99345
▁savings	-9.99349
▁strengthened	-9.99386
▁revised	-9.99386
▁regulation	-9.99405
ants	-9.99561
▁hi	-9.99626
ron	-9.99743
▁length	-9.99785
pt	-9.99795
20	-9.9985
we	-9.99857
▁grow	-9.99985
▁arrival	-10.0023
▁safeguard	-10.0023
ised	-10.0024
▁race	-10.003
▁sl	-10.0035
▁votes	-10.0038
sc	-10.0045
▁differences	-10.0056
▁hopes	-10.0059
▁encouraging	-10.0067
▁vulnerable	-10.0067
▁electricity	-10.0069
▁wanted	-10.0074
ble	-10.0076
▁photo	-10.0081
▁declared	-10.0082
▁ru	-10.0089
proliferation	-10.0097
▁card	-10.0101
▁played	-10.0102
0%	-10.011
▁liberal	-10.0111
▁commitments	-10.0112
▁refer	-10.0117
▁unicef	-10.0118
hk	-10.0118
▁rent	-10.013
▁emphasized	-10.0131
▁advanced	-10.0143
▁lay	-10.0147
▁visits	-10.0152
▁category	-10.0157
▁flu	-10.016
▁representation	-10.0166
▁block	-10.0171
▁hear	-10.0173
▁appeared	-10.0179
▁solve	-10.018
▁wage	-10.018
determination	-10.0187
▁hour	-10.0201
▁regret	-10.0201
▁millennium	-10.0202
▁mortality	-10.0202
▁museum	-10.0202
▁denied	-10.0202
▁pick	-10.0204
▁recall	-10.0209
▁achievement	-10.0211
▁cooperate	-10.0218
ei	-10.0222
▁college	-10.0247
▁unhcr	-10.0247
▁version	-10.0247
▁innocent	-10.0247
▁dispute	-10.0248
▁etc	-10.025
▁pace	-10.0252
▁tender	-10.0255
▁restrictions	-10.0261
▁proved	-10.0264
ese	-10.0266
▁wear	-10.0269
▁arts	-10.027
▁tasks	-10.0282
▁continent	-10.0284
▁variety	-10.0292
▁output	-10.0292
▁ya	-10.0294
▁ideas	-10.0295
▁uh	-10.0299
▁lands	-10.0299
▁improvements	-10.0321
▁shared	-10.0321
istic	-10.0332
▁minority	-10.0341
▁mark	-10.0347
▁assistant	-10.0353
▁helped	-10.0357
▁obvious	-10.0365
▁eu	-10.0383
▁ocean	-10.0384
▁ukraine	-10.0384
▁procurement	-10.0384
▁anything	-10.0384
▁camp	-10.0385
▁vision	-10.0386
▁indicators	-10.0386
▁hotel	-10.0386
▁assess	-10.0389
▁(1)	-10.0394
▁frequently	-10.0398
40	-10.0414
▁signs	-10.0421
▁mobile	-10.043
▁societies	-10.043
▁moving	-10.043
▁compliance	-10.0442
▁trans	-10.0445
arian	-10.0446
▁destroyed	-10.0449
▁extra	-10.0453
▁theme	-10.0464
▁reading	-10.0466
▁neither	-10.0476
▁cease	-10.0477
▁wait	-10.0477
▁foot	-10.0477
▁submission	-10.0478
▁root	-10.0484
▁deaths	-10.0498
▁treated	-10.0509
▁directed	-10.0513
▁statute	-10.0523
▁vast	-10.0523
▁everything	-10.0523
▁poll	-10.0525
lan	-10.0548
▁institution	-10.056
▁earn	-10.0561
▁zones	-10.0565
▁caus	-10.0565
▁reconciliation	-10.057
200	-10.0572
▁boat	-10.0579
▁rain	-10.0584
▁secure	-10.0594
▁unita	-10.0594
▁invest	-10.0598
▁comply	-10.06
▁enhanced	-10.0601
ban	-10.0601
▁concrete	-10.0617
▁repair	-10.0617
▁except	-10.0619
▁distributed	-10.0622
ification	-10.0622
war	-10.0641
▁fixed	-10.0664
▁voting	-10.0665
▁liu	-10.0666
▁shortage	-10.067
▁seminar	-10.0673
▁allowance	-10.0673
▁names	-10.0681
▁eyes	-10.0688
▁tang	-10.0696
▁chemical	-10.0711
▁1980	-10.0714
▁maintaining	-10.0717
▁thanks	-10.0717
ya	-10.0721
▁commerce	-10.0734
ler	-10.0736
▁seeking	-10.0747
▁inform	-10.0754
▁accidents	-10.0754
▁option	-10.0762
pc	-10.0767
▁occasions	-10.0778
▁ratio	-10.0789
▁consistent	-10.0789
friday	-10.0795
▁egypt	-10.0805
▁achievements	-10.0806
▁easily	-10.0807
▁pi	-10.0807
▁spring	-10.0808
▁arise	-10.0809
▁eat	-10.0811
table	-10.0818
▁difference	-10.0819
ology	-10.0828
▁bur	-10.0829
▁300	-10.0832
▁appreciate	-10.0832
▁yes	-10.084
▁languages	-10.0843
▁examples	-10.0845
▁equally	-10.0846
▁occur	-10.0853
▁gaza	-10.0855
▁climate	-10.0856
▁collect	-10.0859
▁huge	-10.0867
pu	-10.0881
▁star	-10.0883
▁religion	-10.0903
▁guard	-10.0903
▁intervention	-10.0909
▁hksar	-10.0914
air	-10.0921
▁banking	-10.0929
set	-10.0932
▁customers	-10.0936
wide	-10.0942
hy	-10.0942
▁integrity	-10.0952
▁turkey	-10.0952
▁leaving	-10.0952
▁rice	-10.0952
▁coverage	-10.0954
▁fast	-10.0955
▁objection	-10.0955
▁gold	-10.096
▁object	-10.0961
tan	-10.0963
▁schedule	-10.0978
▁undertake	-10.099
side	-10.0994
▁telephone	-10.1
▁disabled	-10.1
▁suitable	-10.1003
dy	-10.1005
▁prize	-10.1008
▁worldwide	-10.1009
▁contracts	-10.101
▁commend	-10.1011
▁shi	-10.1016
ming	-10.1019
▁demonstrate	-10.1027
▁write	-10.105
▁ballot	-10.105
▁track	-10.1051
owned	-10.1052
▁sold	-10.1074
▁tried	-10.1079
▁expenses	-10.1086
▁profit	-10.1089
▁branch	-10.1092
▁minor	-10.1096
▁counsel	-10.1097
▁collaboration	-10.11
▁withdrawal	-10.1104
▁ob	-10.1108
▁laid	-10.1116
11	-10.1123
▁son	-10.1127
▁38	-10.1133
▁monetary	-10.1148
▁receiving	-10.1148
▁eligible	-10.1149
▁manpower	-10.1149
▁sessions	-10.1153
▁loan	-10.1179
being	-10.1181
▁involve	-10.1192
▁lies	-10.1195
▁comparison	-10.1198
▁pension	-10.1198
▁dropped	-10.1198
▁learned	-10.1199
eng	-10.1202
cing	-10.1205
▁cast	-10.1206
hand	-10.1228
od	-10.1235
▁feeling	-10.1246
▁transit	-10.1248
sponsor	-10.1248
▁afghan	-10.1248
▁legitimate	-10.1248
▁plenary	-10.1248
▁palestinians	-10.1257
▁threats	-10.1265
▁defined	-10.1266
▁demonstrated	-10.1271
ki	-10.1272
▁pu	-10.1276
▁monthly	-10.1277
▁fe	-10.128
▁subjected	-10.1288
month	-10.1289
▁reserve	-10.1294
▁remarks	-10.1296
▁flats	-10.1297
▁spent	-10.1302
▁consequently	-10.1302
▁getting	-10.1304
▁covers	-10.1304
rap	-10.1305
▁display	-10.131
▁workshop	-10.132
▁fee	-10.1326
lying	-10.1331
▁briefing	-10.1331
bb	-10.1343
▁nationality	-10.1345
▁concession	-10.1349
▁washington	-10.1349
▁pilot	-10.1349
▁story	-10.1353
▁specifically	-10.1354
▁orders	-10.1356
.1	-10.1359
▁houses	-10.1364
▁girl	-10.1371
ible	-10.1386
long	-10.1388
▁sai	-10.1389
▁caribbean	-10.1399
▁landmines	-10.1399
▁rev	-10.1403
ple	-10.1406
▁teams	-10.1408
▁thinking	-10.141
▁carefully	-10.1415
▁huang	-10.1421
ov	-10.1424
▁profession	-10.1432
going	-10.1442
▁wai	-10.1444
▁allegations	-10.1448
▁sin	-10.145
▁invitation	-10.145
▁netherlands	-10.145
▁securities	-10.145
▁amounts	-10.1455
▁previously	-10.1456
▁deployed	-10.1466
▁xi	-10.1469
▁element	-10.1473
port	-10.1474
▁valid	-10.1502
▁valuable	-10.1502
▁ireland	-10.1502
▁admission	-10.1502
▁execution	-10.1503
▁transferred	-10.1504
▁looked	-10.1504
▁pan	-10.1511
▁tra	-10.1531
▁payments	-10.154
▁stands	-10.1542
bian	-10.1548
▁broadcast	-10.1549
▁confident	-10.1552
▁recruitment	-10.1554
▁transactions	-10.1555
▁considering	-10.1561
▁unless	-10.1568
▁location	-10.158
za	-10.1591
lin	-10.1593
▁monday	-10.1601
▁elimination	-10.1605
▁succeed	-10.1605
▁taliban	-10.1605
▁patrol	-10.1605
▁phone	-10.1606
▁sino	-10.1609
▁expand	-10.1615
▁transportation	-10.1624
▁publication	-10.1632
▁delivered	-10.1642
▁container	-10.1642
▁53	-10.1646
▁explosion	-10.1657
▁guangdong	-10.1657
▁preliminary	-10.1657
▁primarily	-10.1657
▁software	-10.1657
▁wages	-10.1657
▁awarded	-10.1658
▁admitted	-10.1658
▁slightly	-10.1667
ped	-10.1669
▁managed	-10.1673
▁lose	-10.1673
▁donor	-10.1696
▁installation	-10.1713
▁eventually	-10.1715
▁allocated	-10.1716
ide	-10.1718
▁solutions	-10.1726
▁sustain	-10.1728
▁ne	-10.173
hold	-10.1732
cent	-10.1737
▁bay	-10.1746
▁declined	-10.1758
▁tend	-10.176
▁ourselves	-10.1762
▁reducing	-10.1762
▁bird	-10.1763
▁somalia	-10.1766
▁seats	-10.177
tri	-10.1772
▁pursue	-10.1792
▁reviewed	-10.1795
▁emphasize	-10.1799
▁timely	-10.1801
▁farm	-10.1808
▁ng	-10.1812
▁investors	-10.1812
▁provincial	-10.1815
▁reconstruction	-10.1815
rel	-10.1824
▁estimate	-10.1825
▁bound	-10.184
▁500	-10.1841
▁song	-10.1851
▁hon	-10.1852
▁demands	-10.1854
▁judiciary	-10.1868
▁adverse	-10.1869
▁expertise	-10.1872
▁breach	-10.1873
15	-10.1874
▁mental	-10.1875
nc	-10.1876
▁risks	-10.1879
▁suggestions	-10.1882
▁touch	-10.1888
ren	-10.1895
▁philippines	-10.1897
▁prepare	-10.1899
▁aspect	-10.1902
▁command	-10.1904
▁rapidly	-10.1905
▁resolved	-10.1917
je	-10.1919
▁husband	-10.1922
▁saudi	-10.1922
▁peak	-10.1922
▁package	-10.1923
▁iranian	-10.1924
▁remember	-10.1925
▁jointly	-10.1927
▁similarly	-10.1928
▁deliver	-10.1928
▁kok	-10.193
▁wto	-10.193
▁75	-10.1932
▁1000	-10.196
▁observer	-10.1961
keeping	-10.1964
▁liberia	-10.1965
80	-10.1967
▁fulfil	-10.1971
▁chee	-10.1975
▁fresh	-10.1975
▁punishment	-10.1978
▁2004	-10.1978
ear	-10.198
▁advised	-10.1982
▁save	-10.1984
800	-10.1985
state	-10.1987
▁shan	-10.1992
▁initiated	-10.1992
▁testing	-10.1993
▁fare	-10.1993
▁refused	-10.1996
▁properly	-10.2001
▁protected	-10.2016
▁detail	-10.2028
▁accompanied	-10.2029
▁colombia	-10.2029
▁grateful	-10.2029
▁intelligence	-10.2029
▁platform	-10.2029
▁truth	-10.203
▁investigating	-10.203
▁competitive	-10.2035
wi	-10.2035
rb	-10.2039
▁tea	-10.204
▁anyone	-10.2041
▁households	-10.2046
▁fra	-10.2051
▁expenditures	-10.2051
▁doctors	-10.206
▁passenger	-10.2067
▁student	-10.2067
▁55	-10.2068
▁roads	-10.2078
▁supporting	-10.2078
economic	-10.2079
▁entirely	-10.2083
▁categories	-10.2084
▁deficit	-10.2084
▁ordinary	-10.2084
▁(2)	-10.2084
▁shot	-10.2085
▁wall	-10.2086
▁disposal	-10.2089
▁preventive	-10.2091
▁defendant	-10.2092
▁visa	-10.2102
68	-10.2106
▁ideal	-10.2117
▁household	-10.2123
▁yi	-10.2129
▁ph	-10.2135
▁happened	-10.2136
▁summer	-10.2138
▁indication	-10.214
si	-10.2146
ai	-10.2151
▁serving	-10.2159
▁hang	-10.2167
▁choose	-10.2193
▁background	-10.2194
▁limits	-10.2198
▁drivers	-10.2199
60	-10.222
▁yang	-10.2231
yu	-10.2235
han	-10.2239
.5%	-10.2247
▁stood	-10.2249
▁guinea	-10.2249
▁worry	-10.2249
▁exploitation	-10.2251
▁humanity	-10.2251
▁cell	-10.2257
▁formed	-10.2262
▁appeals	-10.2267
▁aggression	-10.2304
▁palestine	-10.2304
▁creating	-10.2304
▁unctad	-10.2304
▁broke	-10.2315
▁44	-10.2338
▁witnessed	-10.2339
lam	-10.2345
▁defend	-10.2347
▁flight	-10.2349
ery	-10.2351
▁37	-10.2352
cap	-10.2357
▁topic	-10.2359
▁deposits	-10.2359
▁larger	-10.2359
▁fiscal	-10.236
▁solidarity	-10.236
▁widespread	-10.236
▁dream	-10.236
▁farmers	-10.2365
lecommunications	-10.2371
▁obviously	-10.2383
▁unity	-10.2386
▁reiterate	-10.2394
▁continuous	-10.2397
▁third	-10.2406
tru	-10.2407
ever	-10.2407
▁prospects	-10.2416
▁shift	-10.2417
ying	-10.2418
▁wonder	-10.2418
▁kinds	-10.242
▁interim	-10.2424
500000	-10.2425
▁contains	-10.2429
▁structures	-10.2434
▁corresponding	-10.2436
▁wounded	-10.2443
▁cur	-10.2449
▁socio	-10.2472
▁necessarily	-10.2473
▁uganda	-10.2473
▁violent	-10.2473
▁exception	-10.2474
▁announcement	-10.2474
▁devoted	-10.248
▁couple	-10.2487
ily	-10.2489
▁schemes	-10.2495
▁donors	-10.2501
▁resume	-10.2507
▁designat	-10.2518
▁contrast	-10.253
▁hotline	-10.2531
▁selection	-10.2534
▁belong	-10.255
▁signing	-10.2558
des	-10.2566
▁settlements	-10.2574
▁jo	-10.2579
▁coordinator	-10.2587
▁summary	-10.2587
▁tunnel	-10.2587
▁racial	-10.2587
▁pending	-10.2587
nan	-10.2598
dge	-10.2602
▁ip	-10.2607
▁br	-10.2609
▁undermine	-10.261
▁relative	-10.2627
▁atmosphere	-10.2644
▁phenomenon	-10.2644
▁video	-10.2644
▁adapt	-10.2644
▁treaties	-10.2645
▁painting	-10.2646
▁tuen	-10.2648
▁arabia	-10.2648
▁chairperson	-10.2652
▁actors	-10.2652
▁depends	-10.2663
▁wished	-10.2666
▁associations	-10.2667
▁wood	-10.2671
.8	-10.2676
▁processing	-10.2679
▁hundreds	-10.2679
▁accounting	-10.2681
▁lines	-10.2685
▁namely	-10.2695
▁engine	-10.2702
▁definitely	-10.2702
▁excellent	-10.2702
▁intellectual	-10.2702
▁photograph	-10.2702
▁universities	-10.2702
▁rescue	-10.2702
▁crop	-10.2705
▁1989	-10.2705
▁spend	-10.2706
45	-10.2709
chung	-10.271
▁surface	-10.2711
▁ce	-10.2711
▁geographical	-10.2715
▁hung	-10.2729
▁um	-10.274
▁originally	-10.2744
▁consumers	-10.2751
▁fruit	-10.2752
▁remote	-10.276
▁italy	-10.2763
▁sole	-10.2767
▁spot	-10.2778
ken	-10.2784
▁attach	-10.2789
▁100000	-10.2791
▁invite	-10.2796
ku	-10.2802
▁route	-10.2814
▁56	-10.2817
▁abroad	-10.2819
▁cambodia	-10.2819
▁statistical	-10.2819
▁driver	-10.2819
▁41	-10.282
▁retirement	-10.2825
rm	-10.2827
▁wing	-10.2828
▁totally	-10.2828
▁cap	-10.283
▁tu	-10.2832
▁42	-10.2837
▁considers	-10.2844
▁opinions	-10.286
▁57	-10.2865
▁grounds	-10.2866
▁observation	-10.2874
▁performed	-10.2874
▁conviction	-10.2877
▁ratification	-10.2877
▁resort	-10.2877
▁firms	-10.2898
▁organisations	-10.2899
▁feature	-10.2911
ries	-10.2916
▁boy	-10.2918
▁flows	-10.2928
▁deposit	-10.293
▁residence	-10.2937
▁periods	-10.2939
▁accountability	-10.2941
▁harm	-10.2945
▁keeping	-10.2949
ham	-10.2962
▁tan	-10.2963
▁refuse	-10.2974
▁characteristics	-10.2991
▁prove	-10.2992
.4%	-10.2996
.9%	-10.2996
▁strike	-10.2996
▁tsui	-10.2996
▁truly	-10.2996
▁internally	-10.2999
▁healthy	-10.2999
ier	-10.3004
▁seat	-10.3005
▁specialized	-10.3018
▁conferences	-10.3019
▁exceed	-10.3021
▁highlight	-10.3023
▁gun	-10.3025
press	-10.3029
▁engage	-10.3031
▁sentenced	-10.3033
▁43	-10.304
▁spare	-10.3049
.6%	-10.3056
▁harbour	-10.3056
▁hectares	-10.3056
▁tsuen	-10.3056
▁driving	-10.3056
▁engineering	-10.3056
personnel	-10.3056
▁assert	-10.3057
▁regularly	-10.3058
▁expectations	-10.3059
▁overcome	-10.3061
▁convinced	-10.3061
▁quot	-10.3068
▁speaker	-10.3076
ular	-10.309
▁none	-10.3092
▁48	-10.3098
▁listed	-10.3099
▁didn	-10.31
▁39	-10.3103
ins	-10.3106
▁ethiopia	-10.3106
▁covenant	-10.3116
▁politics	-10.3116
secretary	-10.3117
▁parking	-10.3122
▁lift	-10.3125
▁witness	-10.3132
▁provinces	-10.3137
ien	-10.3138
▁reiterated	-10.314
late	-10.3143
▁degrees	-10.3143
unt	-10.3145
▁applicants	-10.3154
▁king	-10.3154
▁facts	-10.3161
▁drinking	-10.3164
▁assessed	-10.3166
▁49	-10.3177
▁corporate	-10.3177
▁eritrea	-10.3177
▁incidence	-10.3177
▁supervision	-10.3177
oriented	-10.3177
▁micro	-10.3177
▁merit	-10.3177
▁ownership	-10.3177
▁unemployed	-10.3178
▁grand	-10.318
▁1988	-10.318
▁flood	-10.3182
▁rental	-10.3189
▁handling	-10.3189
▁flat	-10.3189
▁suspended	-10.3191
pec	-10.3194
▁fishing	-10.3198
▁conventional	-10.3204
▁chai	-10.3207
▁removed	-10.3208
▁desire	-10.3215
▁investments	-10.3217
▁subsequent	-10.3219
▁drive	-10.3233
▁difficulty	-10.3236
▁compromise	-10.3238
▁shock	-10.3238
▁constructive	-10.3239
▁winter	-10.3239
flow	-10.3241
▁cargo	-10.3242
▁firmly	-10.3266
▁tour	-10.3268
▁meant	-10.3277
▁expanded	-10.3283
▁returning	-10.3283
.4	-10.3286
▁audience	-10.3299
▁behaviour	-10.3299
▁addressing	-10.33
▁minorities	-10.33
▁certificate	-10.3303
▁2005	-10.3304
▁fallen	-10.3308
▁fill	-10.3333
▁tradition	-10.3351
▁obstacles	-10.3355
▁districts	-10.3355
▁hot	-10.3355
▁database	-10.3361
▁evident	-10.3361
▁supreme	-10.3361
▁priorities	-10.3362
▁forth	-10.3363
▁running	-10.3364
▁teacher	-10.337
▁divided	-10.337
ium	-10.3371
win	-10.3375
▁amended	-10.3387
hai	-10.3398
▁bit	-10.3402
▁targets	-10.3405
▁chair	-10.3419
▁sad	-10.3419
▁inadequate	-10.3423
▁innovation	-10.3423
▁pursuan	-10.3423
▁unilateral	-10.3423
▁revision	-10.3423
▁rising	-10.3423
▁seemed	-10.3423
▁leg	-10.3425
point	-10.3425
▁cla	-10.3427
hua	-10.3428
▁channel	-10.343
▁shop	-10.3431
▁dance	-10.3442
ain	-10.3446
▁weight	-10.3456
▁drawing	-10.3462
shed	-10.3465
▁rely	-10.3469
88	-10.3475
ire	-10.3479
▁qu	-10.3484
▁belief	-10.3486
▁spanish	-10.3486
▁chu	-10.3488
▁virtually	-10.3488
▁chosen	-10.3489
▁hair	-10.3491
▁availability	-10.3492
▁wo	-10.3495
▁fly	-10.3496
▁committees	-10.3498
▁god	-10.3498
▁authorized	-10.3501
▁hospitals	-10.3502
▁documentation	-10.3502
▁publicity	-10.3514
▁closer	-10.3515
▁approaches	-10.3524
▁profits	-10.3527
▁secret	-10.3546
▁kilometres	-10.3548
▁consultative	-10.3549
shi	-10.3561
▁naturally	-10.357
ju	-10.3579
▁dimension	-10.3582
▁components	-10.359
▁frequent	-10.3593
▁spending	-10.361
▁machine	-10.3611
▁lasting	-10.3611
▁bearing	-10.3611
▁afraid	-10.3612
▁closing	-10.3612
▁implications	-10.3612
▁shelter	-10.3612
▁sample	-10.3612
▁agents	-10.3613
fl	-10.3617
▁indian	-10.3619
▁ye	-10.362
test	-10.3631
cul	-10.3635
regulatory	-10.3637
▁sort	-10.3637
▁preced	-10.3674
▁familiar	-10.3675
▁reaction	-10.3678
▁playing	-10.3681
tel	-10.3684
▁tri	-10.3693
▁complaint	-10.3693
▁organised	-10.3694
gi	-10.3695
▁select	-10.3699
▁offers	-10.3727
.3%	-10.374
▁certified	-10.374
▁identification	-10.374
▁tribute	-10.374
▁excise	-10.374
▁casualties	-10.374
▁title	-10.374
▁match	-10.374
▁turning	-10.374
▁excessive	-10.3741
▁prohibition	-10.3742
▁rebel	-10.3746
▁books	-10.3751
▁covering	-10.3754
▁billion	-10.3759
▁47	-10.3764
▁villages	-10.377
▁comprise	-10.3777
▁54	-10.378
▁smooth	-10.3785
▁supports	-10.379
▁mode	-10.3791
▁organs	-10.3792
▁suit	-10.3796
▁criticism	-10.3804
▁suicide	-10.3804
▁inhabitants	-10.3804
▁nu	-10.3807
work	-10.3808
▁putting	-10.3819
▁rid	-10.3832
tat	-10.3833
▁locations	-10.3835
rew	-10.3845
▁dedicated	-10.3869
▁genuine	-10.3869
▁profound	-10.3869
▁premier	-10.3869
▁website	-10.3869
laundering	-10.3869
bri	-10.3871
▁salary	-10.3871
▁tam	-10.3888
▁links	-10.3892
▁powerful	-10.3892
▁win	-10.3894
▁deserve	-10.3896
▁immigrants	-10.39
▁interior	-10.3906
▁historic	-10.3908
▁streets	-10.3912
▁reflects	-10.3914
▁options	-10.392
▁publications	-10.3924
▁manufacture	-10.3933
▁closure	-10.3934
▁disabilities	-10.3934
▁equivalent	-10.3934
▁signature	-10.3934
▁understood	-10.3934
▁segment	-10.3934
▁clause	-10.3935
▁undertaking	-10.3938
har	-10.394
▁judgement	-10.3941
▁organ	-10.3941
▁remove	-10.3948
▁signal	-10.395
▁progressive	-10.3953
5000000	-10.3955
▁county	-10.3956
▁discovered	-10.3958
ua	-10.3964
▁replaced	-10.3964
▁promoted	-10.3975
▁commit	-10.3985
light	-10.3989
▁freedoms	-10.3994
▁wave	-10.3994
▁defense	-10.4
▁hygiene	-10.4
▁imperative	-10.4
▁restructuring	-10.4
▁territorial	-10.4
like	-10.4017
▁constantly	-10.4019
ties	-10.4019
can	-10.4028
94	-10.4034
▁store	-10.4045
▁sharp	-10.4047
▁lawyers	-10.4049
▁career	-10.4058
▁applicable	-10.4066
▁cycle	-10.4066
▁guilty	-10.4066
▁mountain	-10.4073
monday	-10.4073
▁qi	-10.4074
▁accession	-10.4097
▁newly	-10.41
▁65	-10.4105
25	-10.4128
▁capacities	-10.4133
▁emerging	-10.4133
▁jerusalem	-10.4133
▁reunification	-10.4133
▁screen	-10.4133
▁seizure	-10.4133
producing	-10.4133
▁motor	-10.4134
▁ruling	-10.4135
▁euro	-10.4136
▁witnesses	-10.414
lit	-10.4144
▁enterprise	-10.4154
▁employer	-10.4161
▁reaffirm	-10.4162
▁publish	-10.4162
▁normally	-10.4184
▁replace	-10.4186
▁nt	-10.4195
▁entering	-10.4199
▁argentina	-10.42
▁tragedy	-10.42
▁vienna	-10.42
▁guidance	-10.4201
▁distinction	-10.4203
▁updated	-10.4211
▁bra	-10.4214
▁rushed	-10.4219
▁talking	-10.4224
may	-10.4228
▁tong	-10.423
▁corporations	-10.4243
bur	-10.4245
▁constant	-10.4249
▁ended	-10.4257
▁tackle	-10.4267
pped	-10.4267
government	-10.4267
▁collapse	-10.4268
▁double	-10.4268
▁embargo	-10.4268
▁georgia	-10.4268
▁somewhat	-10.4268
▁structural	-10.4268
▁trouble	-10.4268
▁liaison	-10.4269
▁tickets	-10.4272
▁considerably	-10.4272
ees	-10.4272
▁broadcasting	-10.4274
▁whatever	-10.4274
let	-10.4275
wednesday	-10.4276
▁london	-10.4277
▁enhanc	-10.4279
▁disasters	-10.428
▁friday	-10.4284
▁component	-10.4291
2000	-10.4296
▁alia	-10.4299
▁partner	-10.4304
▁eliminate	-10.4313
▁examine	-10.4313
ib	-10.4327
▁contingent	-10.4336
▁livelihood	-10.4336
▁significance	-10.4336
▁mistake	-10.4336
▁passport	-10.4337
vested	-10.4338
▁features	-10.434
▁rail	-10.4342
▁ease	-10.4343
board	-10.4346
house	-10.4348
▁style	-10.4355
▁pla	-10.4356
care	-10.4365
.8%	-10.4374
▁missiles	-10.4378
fire	-10.4382
▁sal	-10.4382
▁awards	-10.439
fully	-10.4396
▁channels	-10.4397
mission	-10.4398
▁camps	-10.4399
▁commodities	-10.4404
▁daughter	-10.4404
▁fisheries	-10.4404
▁shenzhen	-10.4404
▁temperature	-10.4404
▁unprecedented	-10.4404
▁entities	-10.4404
▁escape	-10.4404
▁timorese	-10.4406
eu	-10.4407
▁reservations	-10.4418
▁commander	-10.4427
▁condemn	-10.4428
▁missile	-10.443
▁realized	-10.4437
▁observe	-10.4444
▁400	-10.445
▁conclude	-10.4451
▁substantially	-10.4452
▁finding	-10.4457
▁uses	-10.4458
▁seeks	-10.4462
▁battle	-10.4473
▁diversity	-10.4473
▁species	-10.4473
▁venue	-10.4473
▁competitiveness	-10.4476
▁infection	-10.4477
water	-10.4486
200000	-10.4487
▁networks	-10.4497
▁dark	-10.4498
93	-10.4505
▁threaten	-10.4514
▁owner	-10.452
▁vessels	-10.4523
▁mari	-10.4531
down	-10.4533
▁german	-10.4533
exports	-10.4535
▁haiti	-10.4539
▁grants	-10.4539
▁explore	-10.4543
▁brother	-10.4543
▁oversight	-10.4543
▁norms	-10.4543
▁strip	-10.4544
▁anticipated	-10.4548
▁syrian	-10.455
▁preserve	-10.4552
terrorism	-10.4553
▁inspector	-10.456
73	-10.4563
▁ming	-10.4566
▁mostly	-10.4572
▁candidate	-10.4572
▁contacts	-10.458
ker	-10.4585
▁push	-10.4586
▁stages	-10.4586
▁die	-10.4586
▁crossing	-10.4589
▁pledge	-10.459
▁assume	-10.459
▁punish	-10.461
typical	-10.4613
▁heavily	-10.4613
▁preparing	-10.4613
▁satisfied	-10.4613
▁storage	-10.4613
▁surplus	-10.4613
▁jiang	-10.4613
▁pose	-10.4618
▁cards	-10.4618
▁renewal	-10.4618
▁plane	-10.4633
89	-10.4634
▁thirdly	-10.4636
87	-10.4637
▁targeted	-10.4642
▁doctor	-10.4643
▁drafting	-10.4644
▁chau	-10.465
▁severely	-10.4652
▁papers	-10.4663
▁patient	-10.4676
95	-10.4677
▁professionals	-10.468
▁ec	-10.4683
▁famous	-10.4683
▁garden	-10.4683
▁crowd	-10.4683
▁responded	-10.4686
▁routes	-10.4688
▁populations	-10.4689
▁massive	-10.469
▁adviser	-10.4698
▁presidential	-10.4705
77	-10.4707
▁calling	-10.4715
▁compet	-10.4715
▁negotiation	-10.4715
▁affecting	-10.4716
▁($	-10.472
▁resident	-10.4727
▁feelings	-10.473
▁duration	-10.4732
▁fit	-10.4733
shan	-10.4735
▁careful	-10.4743
▁insist	-10.4745
▁myanmar	-10.4754
▁textile	-10.4754
kin	-10.4754
▁persist	-10.4756
▁envisaged	-10.476
92	-10.476
▁civilization	-10.4765
▁emerged	-10.4766
▁absolutely	-10.4766
june	-10.4767
▁indicates	-10.4767
▁repeatedly	-10.4768
▁drink	-10.4769
▁someone	-10.4775
96	-10.4779
▁functioning	-10.478
▁tourist	-10.4811
rate	-10.4821
law	-10.4822
▁militia	-10.4825
▁asylum	-10.4825
▁satisfaction	-10.4825
▁copies	-10.4825
▁arising	-10.4825
▁stopped	-10.4827
▁specified	-10.4828
▁sight	-10.483
▁borders	-10.4839
▁ultimately	-10.4839
▁employ	-10.4843
ition	-10.485
▁hwa	-10.4854
▁reject	-10.486
▁troop	-10.4861
▁reserves	-10.4862
▁delet	-10.4871
▁holds	-10.4872
▁regarded	-10.4876
▁77	-10.4877
▁strict	-10.4878
▁realize	-10.4885
▁flag	-10.4894
▁celebrate	-10.4897
▁fashion	-10.4897
▁statutor	-10.4897
▁distance	-10.4897
▁relatives	-10.4897
▁movie	-10.4897
▁nomination	-10.4897
▁transmitted	-10.4899
▁bond	-10.4901
▁boys	-10.4901
▁permitted	-10.4904
▁catch	-10.4905
thursday	-10.491
▁grown	-10.4914
hour	-10.4921
▁australian	-10.4925
▁retain	-10.4932
▁restricted	-10.4933
▁demonstration	-10.4934
▁eye	-10.4937
▁ching	-10.494
▁respected	-10.4946
▁lived	-10.4949
▁aims	-10.4952
▁ordered	-10.4954
▁interpret	-10.4961
70	-10.4961
duct	-10.4962
▁deterioration	-10.497
▁satisfactory	-10.497
▁blue	-10.497
▁worst	-10.497
▁es	-10.4975
act	-10.4976
▁herzegovina	-10.4976
▁topics	-10.4986
▁46	-10.4987
▁prohibited	-10.5002
▁han	-10.5034
▁possess	-10.5039
▁supplement	-10.5041
▁bangladesh	-10.5043
▁equity	-10.5043
▁jordan	-10.5043
▁legislature	-10.5043
▁manifest	-10.5043
▁repatriation	-10.5043
▁assigned	-10.5043
▁consent	-10.5043
▁blow	-10.5044
▁input	-10.5044
▁brand	-10.5045
▁1987	-10.5046
bre	-10.5046
▁unions	-10.5048
▁conclusions	-10.5049
las	-10.5056
▁generated	-10.5058
▁kam	-10.5063
den	-10.5063
▁constitutes	-10.5066
▁towns	-10.5067
▁proliferation	-10.5067
▁spoke	-10.5074
91	-10.5079
▁thursday	-10.5103
wo	-10.5116
▁baghdad	-10.5116
▁belarus	-10.5116
▁colonial	-10.5116
▁facility	-10.5116
▁narrow	-10.5116
▁yield	-10.5116
▁(3)	-10.5117
▁infant	-10.5119
▁deriv	-10.5125
▁trends	-10.513
▁substance	-10.5158
66	-10.5158
▁rank	-10.5162
▁pr	-10.5166
▁thereby	-10.5173
▁croatia	-10.5181
▁dan	-10.5185
▁belonging	-10.519
▁biggest	-10.519
▁embassy	-10.519
▁incurred	-10.519
▁drought	-10.5191
▁iii	-10.5192
▁dependent	-10.5193
▁rica	-10.5198
97	-10.5198
▁acceptance	-10.5198
▁endorsed	-10.5199
▁cater	-10.5207
▁fung	-10.5209
▁offering	-10.5214
▁file	-10.5215
▁plants	-10.5217
head	-10.5219
nch	-10.5224
▁transitional	-10.5224
▁van	-10.5233
90	-10.5234
▁consequence	-10.5234
▁fired	-10.5239
▁arrive	-10.5243
▁contractor	-10.5246
▁bills	-10.5257
▁movements	-10.5258
▁convicted	-10.5265
▁equitable	-10.5265
▁presidency	-10.5265
▁tragic	-10.5265
▁labor	-10.5265
▁alliance	-10.5265
▁penalties	-10.5265
▁predict	-10.5265
▁foster	-10.5266
▁machinery	-10.5266
▁cooperative	-10.5268
▁spain	-10.527
lay	-10.5275
yan	-10.5281
▁buses	-10.5283
▁highway	-10.5285
▁acknowledged	-10.5289
78	-10.5294
▁congratulate	-10.5294
▁deliberations	-10.5303
▁ball	-10.5303
▁employee	-10.5311
▁proceeding	-10.533
▁flexibility	-10.534
▁guatemala	-10.534
▁150	-10.5342
▁acceptable	-10.535
tuesday	-10.5356
september	-10.5356
▁rational	-10.536
self	-10.5367
▁boundary	-10.5385
▁constraints	-10.5385
▁cru	-10.5388
▁game	-10.5391
▁iron	-10.5394
▁withdraw	-10.5397
▁cd	-10.5404
sized	-10.5411
▁becomes	-10.5411
og	-10.5416
▁courage	-10.5416
▁epidemic	-10.5416
▁mandatory	-10.5416
▁outbreak	-10.5416
▁suspension	-10.5416
▁temple	-10.5416
▁heritage	-10.5416
▁trained	-10.5416
▁elsewhere	-10.5416
▁perpetrators	-10.5416
▁lung	-10.5422
▁kung	-10.5422
para	-10.5433
▁shape	-10.5433
▁interesting	-10.5436
▁assumed	-10.544
▁sit	-10.5441
▁opposed	-10.5448
▁bid	-10.5455
▁selling	-10.5462
▁acc	-10.5462
▁endeavour	-10.5464
▁organisation	-10.5467
▁raising	-10.5468
▁collected	-10.5476
▁appr	-10.548
▁cars	-10.5482
▁licensing	-10.5492
▁saddam	-10.5492
▁sphere	-10.5492
▁storm	-10.5492
▁salaries	-10.5492
▁norway	-10.5496
▁capable	-10.5497
▁experiences	-10.5503
class	-10.551
▁band	-10.5517
▁revenues	-10.5519
▁resumed	-10.5523
▁officially	-10.5526
▁52	-10.5554
▁kai	-10.5556
▁barriers	-10.5558
▁medicines	-10.5559
▁wednesday	-10.556
▁compulsory	-10.5569
▁productivity	-10.5569
▁convey	-10.5569
▁hsi	-10.557
▁2006	-10.5572
▁prefer	-10.5572
rac	-10.5575
▁mayor	-10.5576
south	-10.5587
300000	-10.559
▁examined	-10.5595
▁confirm	-10.5604
▁restrict	-10.5605
▁bombing	-10.561
▁fat	-10.5613
▁fled	-10.5613
▁rape	-10.5614
▁serb	-10.562
▁piece	-10.5634
▁sections	-10.5637
▁gained	-10.5643
▁ascertain	-10.5647
▁quantity	-10.5647
▁ancient	-10.5647
▁liquid	-10.5647
▁detainees	-10.5647
▁1985	-10.5647
▁roll	-10.5655
▁cpi	-10.5655
▁preparations	-10.5665
▁insufficient	-10.5671
▁tools	-10.5672
ept	-10.5674
▁fate	-10.5675
8%	-10.5681
sis	-10.5686
▁highlighted	-10.5696
▁har	-10.5719
▁christian	-10.5725
▁conducive	-10.5725
▁dynamic	-10.5725
▁impression	-10.5725
▁perfect	-10.5725
▁reinforce	-10.5725
▁resumption	-10.5725
▁invasion	-10.5725
▁mankind	-10.5725
▁false	-10.5725
▁migration	-10.5726
▁sitting	-10.5726
▁characterized	-10.5728
▁expresse	-10.5728
▁beaten	-10.5729
▁injury	-10.5729
▁smaller	-10.5733
▁destination	-10.5734
▁recommend	-10.5738
19	-10.5738
▁occupying	-10.5745
rom	-10.5748
▁treat	-10.5752
▁artist	-10.5765
▁tourists	-10.5767
▁1000000	-10.5769
▁metal	-10.5773
▁techniques	-10.5781
tory	-10.5784
rry	-10.5799
▁grass	-10.5803
▁jintao	-10.5804
▁olympic	-10.5804
▁overwhelming	-10.5804
▁tremendous	-10.5804
▁warrant	-10.5804
▁liberalization	-10.5805
▁modest	-10.5808
▁possession	-10.5808
▁governmental	-10.5812
▁directors	-10.5823
▁finds	-10.5823
▁clearance	-10.5841
▁lai	-10.5845
▁operated	-10.585
▁objects	-10.5858
lien	-10.5859
▁enjoyed	-10.5863
▁apparent	-10.5864
▁commence	-10.5865
west	-10.5869
▁map	-10.5873
ict	-10.5875
▁switzerland	-10.5883
▁deceased	-10.5883
▁oppose	-10.5884
▁momentum	-10.5887
▁observations	-10.5888
▁precisely	-10.5894
▁wider	-10.5905
▁willing	-10.591
ended	-10.5914
▁sri	-10.5918
empt	-10.5921
ade	-10.5922
▁friend	-10.5923
eva	-10.5923
▁wants	-10.5925
▁wound	-10.5926
▁lastly	-10.5944
▁notification	-10.5946
▁suggestion	-10.595
01	-10.5957
▁dissemination	-10.5963
▁inclusion	-10.5963
▁royal	-10.5963
▁turkish	-10.5963
▁eradication	-10.5964
hal	-10.5966
▁sister	-10.5966
▁myself	-10.5969
▁hkma	-10.5972
▁exists	-10.5977
saturday	-10.5984
▁graduates	-10.5987
eous	-10.5988
▁controlled	-10.6011
▁km	-10.6018
▁tree	-10.6025
▁communist	-10.6044
▁cyprus	-10.6044
▁explosive	-10.6044
▁innovative	-10.6044
▁cloud	-10.6044
▁departure	-10.6044
▁manufacturers	-10.6046
▁proud	-10.6046
▁parent	-10.6047
▁pair	-10.6051
▁qualified	-10.6057
700000	-10.6058
▁61	-10.6062
▁indonesian	-10.6067
▁hardly	-10.6069
▁generations	-10.607
▁consult	-10.607
▁pieces	-10.607
▁sets	-10.6074
▁appealed	-10.6076
▁letters	-10.6083
▁risen	-10.6092
▁involves	-10.6093
▁ping	-10.61
rich	-10.6101
▁promise	-10.6102
▁describe	-10.6102
▁via	-10.6109
▁manage	-10.6109
▁acknowledge	-10.6112
mar	-10.6116
ix	-10.6119
▁accommodation	-10.6125
▁uniform	-10.6125
▁soviet	-10.6125
▁crises	-10.6125
▁verification	-10.6125
▁respondents	-10.6125
▁confine	-10.6125
▁transparent	-10.6125
▁acute	-10.6125
▁tsim	-10.6125
▁lanka	-10.6125
standing	-10.6127
▁replacement	-10.6129
▁else	-10.6131
▁hill	-10.6133
▁whenever	-10.6136
▁51	-10.6138
io	-10.6147
income	-10.615
▁controls	-10.6154
▁grade	-10.6155
▁animals	-10.6158
▁periodic	-10.6164
▁shu	-10.6164
tric	-10.6164
.30	-10.6168
▁ones	-10.6179
▁strive	-10.618
3000000	-10.6206
▁journal	-10.6206
▁azerbaijan	-10.6207
▁cabinet	-10.6207
▁utmost	-10.6207
▁pleasure	-10.6207
▁sweden	-10.6207
▁resistance	-10.6209
36	-10.6209
▁willingness	-10.6211
▁confrontation	-10.6212
18	-10.6212
▁transformation	-10.6214
▁businessmen	-10.6217
▁voters	-10.6218
▁quota	-10.622
▁qua	-10.6221
itu	-10.6234
▁depending	-10.6235
▁permits	-10.6241
▁lie	-10.6247
67	-10.6247
▁condemned	-10.6252
▁workshops	-10.6254
▁instances	-10.6268
400000	-10.6274
▁councils	-10.6289
▁capabilities	-10.6289
▁clothing	-10.6289
▁commodity	-10.6289
▁club	-10.6289
▁nigeria	-10.629
▁james	-10.629
▁window	-10.6291
▁computers	-10.6291
▁terrorists	-10.6294
▁pool	-10.6298
▁millions	-10.6306
▁strictly	-10.6312
mu	-10.6315
35	-10.6316
▁alarm	-10.6316
▁organiz	-10.6319
▁outline	-10.632
▁sharing	-10.6323
▁compris	-10.6324
▁recovered	-10.6325
tech	-10.6326
▁checks	-10.6328
▁glo	-10.633
made	-10.6333
▁investigate	-10.635
▁argument	-10.6359
▁holidays	-10.6365
▁gains	-10.637
▁attending	-10.6373
▁accurate	-10.6373
▁helicopter	-10.6373
▁likewise	-10.6373
▁formulation	-10.6373
700	-10.6377
▁survival	-10.6378
meter	-10.638
▁paragraphs	-10.6388
zi	-10.6391
▁trees	-10.6392
▁receipts	-10.6419
▁discharge	-10.642
▁protecting	-10.6421
▁offenders	-10.6435
▁coordinate	-10.6438
▁citizen	-10.6445
▁cope	-10.6445
▁opera	-10.645
▁formation	-10.6453
▁assault	-10.6457
▁biennium	-10.6457
▁composition	-10.6457
▁morocco	-10.6457
▁leisure	-10.6457
▁aviation	-10.6457
▁forget	-10.6458
▁multiple	-10.6458
▁passage	-10.646
▁cook	-10.6461
▁emb	-10.6461
▁assisted	-10.6463
▁discipline	-10.6463
▁stone	-10.6464
▁combined	-10.6466
matic	-10.6467
▁broken	-10.6473
▁flights	-10.6476
isation	-10.6478
▁ties	-10.6479
▁classes	-10.648
▁busy	-10.6487
▁factory	-10.6489
▁prohibit	-10.65
▁attempts	-10.6521
kh	-10.6522
▁seminars	-10.6525
▁pattern	-10.6531
▁distinct	-10.6538
▁asset	-10.654
▁caught	-10.6542
▁clarification	-10.6542
▁library	-10.6542
▁vocation	-10.6542
▁queen	-10.6542
▁systematic	-10.6542
▁inquiry	-10.6542
▁grew	-10.6544
86	-10.6544
▁existed	-10.6549
▁basically	-10.6553
▁mixed	-10.6565
zhou	-10.6567
dh	-10.6569
▁mothers	-10.6571
▁arm	-10.6577
▁advantages	-10.6578
▁advances	-10.6594
▁58	-10.6597
▁guarantees	-10.6617
▁restaurant	-10.6618
hong	-10.6624
▁revolution	-10.6625
▁affirm	-10.6627
▁worried	-10.6627
▁64	-10.6628
▁vary	-10.6637
▁electrical	-10.664
02	-10.6642
▁conventions	-10.666
▁consistently	-10.6661
right	-10.6664
▁imported	-10.6667
▁saturday	-10.6691
▁stall	-10.6698
▁internationally	-10.6705
▁outer	-10.6707
▁accus	-10.6708
▁peninsula	-10.6713
▁tolerance	-10.6713
▁armenia	-10.6713
▁coalition	-10.6714
▁transmission	-10.6714
▁capability	-10.6714
▁delays	-10.6718
▁projected	-10.6718
▁beaches	-10.6719
lm	-10.6722
▁chile	-10.6729
▁installed	-10.6729
▁meaningful	-10.6738
▁wa	-10.6739
▁bail	-10.6739
agency	-10.674
american	-10.674
▁ngos	-10.674
▁productive	-10.6742
▁yan	-10.6748
▁faith	-10.6751
▁ran	-10.6752
trial	-10.6759
▁repeat	-10.6762
▁shares	-10.6764
ye	-10.6768
▁thorough	-10.6781
▁user	-10.6792
▁church	-10.68
▁negotiating	-10.68
▁relax	-10.68
▁mongolia	-10.68
▁conservation	-10.6802
▁nationals	-10.6802
▁tenants	-10.6803
▁assisting	-10.6806
▁clients	-10.6807
▁luck	-10.6808
ana	-10.681
59	-10.6814
▁bosnian	-10.6822
▁dated	-10.6828
raising	-10.6829
▁serbs	-10.6829
▁paris	-10.6829
▁prevail	-10.6832
▁liable	-10.6833
▁moderate	-10.6834
▁stocks	-10.6843
▁contents	-10.6851
500000000	-10.6861
▁impose	-10.6866
▁usual	-10.6869
▁elect	-10.6879
▁attacked	-10.6879
▁habit	-10.6879
▁migrants	-10.6885
▁applies	-10.6888
▁custody	-10.6888
▁veto	-10.6888
▁knew	-10.6889
▁halt	-10.6889
▁soil	-10.6898
▁briefed	-10.6899
▁favourable	-10.6902
▁raw	-10.6902
▁oh	-10.6913
jo	-10.6915
▁auto	-10.6923
▁accountable	-10.6923
▁recover	-10.6929
▁contractors	-10.693
▁3000	-10.6931
▁concert	-10.6938
▁filled	-10.6942
▁nam	-10.6944
▁prevailing	-10.6945
▁1970	-10.6959
63	-10.6964
▁subjects	-10.6965
ordinate	-10.6973
▁transaction	-10.6974
▁tension	-10.6974
▁gratitude	-10.6976
▁surrounding	-10.6976
▁turmoil	-10.6976
▁sleep	-10.6976
▁throw	-10.6977
▁journalists	-10.6977
▁enrolment	-10.6978
▁albanian	-10.6983
ibility	-10.7
▁renewed	-10.7004
pacific	-10.7006
▁intensive	-10.701
▁falling	-10.7017
▁beat	-10.7022
uring	-10.7025
21	-10.7026
▁follows	-10.7029
▁mong	-10.7036
▁launching	-10.7036
ological	-10.7038
▁showing	-10.7039
rated	-10.7042
▁assessments	-10.7046
▁organizational	-10.7051
stream	-10.7064
▁compound	-10.7066
▁democratization	-10.7066
▁privilege	-10.7066
▁petition	-10.7066
▁prospect	-10.7066
▁supplementary	-10.7068
▁manager	-10.7069
▁complicated	-10.7072
▁kill	-10.7073
erial	-10.7079
▁fla	-10.7082
▁toward	-10.7085
▁tool	-10.7087
run	-10.7095
depth	-10.7096
ball	-10.7104
ica	-10.7116
▁suspect	-10.7118
▁formally	-10.7123
july	-10.7123
▁analyse	-10.7133
▁passing	-10.7134
▁heading	-10.714
well	-10.7144
▁pen	-10.7148
▁stamps	-10.7155
▁interference	-10.7156
▁kwai	-10.7156
▁terminal	-10.7156
▁adult	-10.7156
▁yeung	-10.7157
▁inspections	-10.7157
▁stamp	-10.7157
▁utilization	-10.7158
▁balanced	-10.7161
▁liability	-10.7161
▁advocate	-10.7166
ii	-10.7172
known	-10.7182
back	-10.7189
▁posed	-10.719
64	-10.72
▁threatened	-10.7205
▁prompt	-10.7228
saharan	-10.7229
▁electric	-10.723
clock	-10.7237
▁depart	-10.7243
▁organize	-10.7245
61	-10.7246
▁austria	-10.7247
▁borrow	-10.7247
▁venture	-10.7247
▁truck	-10.7247
▁shoes	-10.7247
▁psychological	-10.7247
▁gift	-10.7247
▁properties	-10.7247
▁color	-10.7247
▁hostage	-10.7252
▁squad	-10.7255
▁ministerial	-10.7256
▁returns	-10.7265
▁ying	-10.727
▁10%	-10.7272
▁adjustments	-10.7278
condition	-10.7278
▁lend	-10.7288
▁quick	-10.7319
net	-10.7328
▁sovereign	-10.7337
▁john	-10.7338
▁decisive	-10.7338
▁dignity	-10.7338
▁moscow	-10.7338
▁nicaragua	-10.7338
▁questionnaire	-10.7338
▁registry	-10.7338
▁subsidiary	-10.7338
▁frank	-10.7338
▁married	-10.7338
▁kenya	-10.7339
▁praise	-10.7339
▁concentration	-10.7339
▁consolidation	-10.7339
▁calm	-10.734
▁1986	-10.7342
▁proof	-10.7343
▁row	-10.7344
▁remark	-10.7346
▁exactly	-10.7349
▁partial	-10.7364
▁cat	-10.7367
▁gathering	-10.737
▁pursued	-10.7378
ook	-10.7379
cha	-10.7392
7000000	-10.7397
▁exceeded	-10.7397
▁capita	-10.7404
▁vo	-10.7408
▁define	-10.7409
▁restore	-10.7409
▁differ	-10.7428
▁pat	-10.743
▁administrator	-10.7431
▁beautiful	-10.7431
▁earthquake	-10.7431
▁imagine	-10.7431
▁prostitution	-10.7431
▁sentiment	-10.7431
▁digital	-10.7431
▁managing	-10.7431
▁sincere	-10.7431
▁arbitration	-10.7432
▁spite	-10.7434
▁page	-10.7435
▁kin	-10.7441
sembl	-10.7442
▁lowest	-10.7448
▁gate	-10.7453
▁apparently	-10.7453
▁adjusted	-10.7457
▁doubts	-10.7461
▁enabl	-10.7463
coming	-10.7473
▁annan	-10.7475
▁functional	-10.7475
▁exchanges	-10.7491
55	-10.7491
▁flower	-10.7493
▁costa	-10.7499
▁younger	-10.7501
▁concepts	-10.7502
600000	-10.7504
▁seeing	-10.7511
▁handle	-10.7517
▁beneficial	-10.7524
▁credibility	-10.7524
▁experiment	-10.7524
▁kabul	-10.7524
▁league	-10.7524
▁neglect	-10.7524
▁recreation	-10.7524
▁smuggling	-10.7524
▁steadily	-10.7524
▁studied	-10.7524
▁unido	-10.7525
▁ceasefire	-10.7525
form	-10.7525
▁cultivation	-10.7527
▁refers	-10.7528
▁yiu	-10.7531
▁milita	-10.7535
▁tariff	-10.7538
▁sell	-10.7539
▁bag	-10.754
▁assured	-10.7542
▁uphold	-10.7542
▁regardless	-10.7548
▁buyer	-10.755
▁consolidated	-10.7554
▁taxes	-10.7558
feng	-10.7573
▁destroy	-10.7581
door	-10.7588
▁aside	-10.759
▁initially	-10.7594
▁surely	-10.7596
17	-10.7598
▁films	-10.7599
dr	-10.7617
▁guests	-10.7618
▁illness	-10.7618
▁administering	-10.7619
▁circle	-10.7619
▁commemorat	-10.7619
▁discount	-10.7619
▁entrance	-10.7619
▁sensitive	-10.7619
▁tertiary	-10.7619
▁steel	-10.7619
▁solid	-10.7619
▁lessons	-10.762
▁managers	-10.7622
▁competent	-10.7623
yi	-10.7623
▁devices	-10.7624
▁holiday	-10.7628
▁obstacle	-10.7628
▁sick	-10.7631
▁prince	-10.7635
gue	-10.7637
▁react	-10.764
▁claimants	-10.7653
▁diamonds	-10.7654
book	-10.7667
▁compete	-10.767
▁coal	-10.7685
▁gradual	-10.7695
▁chao	-10.7697
▁exercised	-10.7699
▁instruct	-10.77
▁surveys	-10.7705
14	-10.7705
note	-10.7712
▁attorney	-10.7714
▁attributable	-10.7714
▁curriculum	-10.7714
▁czech	-10.7714
▁envoy	-10.7714
▁gazette	-10.7714
▁greek	-10.7714
▁mortgage	-10.7714
▁surprising	-10.7714
▁nepal	-10.7714
▁slope	-10.7714
cut	-10.7717
▁hardship	-10.7718
▁commencement	-10.7718
▁chow	-10.7719
▁insert	-10.7719
▁raid	-10.7721
▁reporters	-10.7734
▁concentrated	-10.7735
▁repeated	-10.7737
▁outlined	-10.774
79	-10.7753
▁urgently	-10.7761
▁height	-10.7762
▁mandates	-10.7762
▁symbol	-10.7767
▁campaigns	-10.7768
▁borne	-10.7771
▁colour	-10.7775
▁cuban	-10.7784
▁meal	-10.7786
▁63	-10.7796
fac	-10.7798
6000000	-10.7799
▁yugoslav	-10.7806
▁acquisition	-10.781
▁assumption	-10.781
▁pedestrian	-10.781
▁vicinity	-10.781
▁instability	-10.781
▁friendship	-10.7811
▁chiang	-10.7816
▁penal	-10.7818
▁yau	-10.7819
owed	-10.7819
▁hsu	-10.782
▁convened	-10.7821
▁smes	-10.7839
wan	-10.7839
▁fourth	-10.7842
▁discharged	-10.7844
▁whereas	-10.7847
october	-10.7848
▁rejected	-10.7861
▁attache	-10.7871
▁hosted	-10.7874
28	-10.7884
bel	-10.7905
▁examinations	-10.7905
disciplinary	-10.7907
▁culprit	-10.7907
▁excellency	-10.7907
▁phrase	-10.7907
▁vegetable	-10.7907
▁practis	-10.7907
▁incentive	-10.7907
▁calculation	-10.7909
▁contest	-10.791
▁meantime	-10.7911
▁crew	-10.7912
▁unknown	-10.7912
▁disability	-10.7913
▁recalled	-10.7913
33	-10.7918
▁rio	-10.7919
▁portion	-10.7922
▁reward	-10.7924
▁personally	-10.7927
▁coordinated	-10.7933
mark	-10.7943
august	-10.7946
gram	-10.7954
sector	-10.7954
▁mobilize	-10.7958
▁headed	-10.7965
bl	-10.7974
12	-10.7979
▁settle	-10.7979
march	-10.7988
▁contracting	-10.7992
▁10000	-10.7993
▁attracted	-10.7996
▁delegates	-10.7997
▁dar	-10.7999
▁lane	-10.8001
▁autonomy	-10.8005
▁disseminate	-10.8005
▁license	-10.8005
▁registrar	-10.8005
▁smoke	-10.8005
▁steer	-10.8006
▁diplomacy	-10.8006
▁preventing	-10.8007
▁bright	-10.8007
▁shipping	-10.8008
▁blame	-10.8008
▁limitations	-10.8008
▁volunteers	-10.8015
▁negotiated	-10.8023
december	-10.8045
far	-10.8046
▁chain	-10.8049
71	-10.8051
▁reveal	-10.8066
mail	-10.807
▁friendly	-10.8071
▁voted	-10.8073
▁ultimate	-10.8085
▁mail	-10.809
▁damaged	-10.8096
▁exhibit	-10.8101
▁excess	-10.8102
▁admit	-10.8103
▁copy	-10.8104
▁consecutive	-10.8104
▁declining	-10.8104
▁juvenile	-10.8104
▁literature	-10.8104
▁zhang	-10.8104
▁stories	-10.8104
▁racism	-10.8104
▁iaea	-10.8104
▁biological	-10.8105
▁expir	-10.8105
▁victory	-10.8108
▁freely	-10.8108
▁prevented	-10.8108
▁golden	-10.8111
▁unlikely	-10.8116
▁tide	-10.8119
▁tsing	-10.8119
▁suddenly	-10.8121
▁benefited	-10.8131
▁filed	-10.8138
town	-10.8144
party	-10.8145
▁connected	-10.8146
▁demonstrations	-10.8153
4000000	-10.8155
▁1983	-10.817
▁ling	-10.8183
▁consolidate	-10.8186
aries	-10.8199
44	-10.8201
▁assurance	-10.8204
▁combination	-10.8204
▁flexible	-10.8204
▁readiness	-10.8204
▁reception	-10.8204
▁temporarily	-10.8204
▁canadian	-10.8204
▁determining	-10.8204
▁harmony	-10.8204
▁gdp	-10.8204
▁suspects	-10.8205
▁restoration	-10.8205
zu	-10.8205
▁xiao	-10.8206
▁declare	-10.8207
▁preservation	-10.8207
▁theatre	-10.8209
▁box	-10.821
▁mao	-10.8212
▁arguments	-10.8221
24	-10.8222
▁deprived	-10.8224
▁helpful	-10.8224
▁workload	-10.8225
▁talent	-10.8225
▁muslim	-10.8238
cies	-10.8239
ware	-10.8244
defence	-10.8246
▁partnerships	-10.8248
▁dispos	-10.8251
▁correction	-10.8263
▁120	-10.8285
sheng	-10.8287
▁prosecutors	-10.8288
▁slight	-10.8292
▁magistrate	-10.8305
▁pursuit	-10.8305
▁rough	-10.8305
▁motive	-10.8305
▁prevalen	-10.8305
▁diesel	-10.8305
▁separation	-10.8307
▁persistent	-10.8308
▁alert	-10.831
▁resignation	-10.8312
zo	-10.8314
▁advancement	-10.8315
▁models	-10.8321
▁yen	-10.8323
▁congolese	-10.8327
▁attempted	-10.8327
▁violated	-10.8332
▁weapon	-10.8334
▁66	-10.834
▁firstly	-10.8346
treatment	-10.8348
"	-10.8348
president	-10.8349
▁600	-10.8375
▁founded	-10.8383
▁syria	-10.8397
▁beach	-10.8401
▁marks	-10.8402
ley	-10.8406
▁comfort	-10.8407
▁assignment	-10.8407
▁chronic	-10.8407
▁easier	-10.8407
▁embark	-10.8407
▁everybody	-10.8407
▁infected	-10.8407
▁lecture	-10.8407
▁shoot	-10.8407
▁workforce	-10.8407
▁wild	-10.8408
▁(4)	-10.8408
▁edition	-10.8408
▁rare	-10.8408
▁competence	-10.8409
▁attributed	-10.8414
▁withdrawn	-10.8422
ngue	-10.8425
▁annually	-10.8434
▁practitioners	-10.8441
easing	-10.8441
member	-10.8444
▁meat	-10.8446
current	-10.8452
▁contribut	-10.8457
▁funded	-10.8459
hood	-10.8471
▁discover	-10.8472
export	-10.8479
▁inspect	-10.848
600	-10.8486
▁associate	-10.8488
▁muslims	-10.8489
▁purchased	-10.849
▁chin	-10.8497
ility	-10.8508
▁sentences	-10.8509
▁academy	-10.8511
▁chicken	-10.8511
▁kindergarten	-10.8511
▁snow	-10.8511
▁blind	-10.8511
▁reliable	-10.8511
▁virus	-10.8511
▁deemed	-10.8511
▁carrier	-10.8511
▁dry	-10.8511
▁uncertainty	-10.8511
▁label	-10.8512
▁reproductive	-10.8513
▁upgrade	-10.8517
▁travelling	-10.852
▁realization	-10.852
▁introducing	-10.8526
▁permission	-10.8527
▁rein	-10.8529
▁acquired	-10.8532
▁expense	-10.8538
▁lawyer	-10.8538
▁lan	-10.8545
▁incorporated	-10.8548
looking	-10.8555
▁concerted	-10.8555
▁5000	-10.8555
▁tele	-10.8556
▁vol	-10.8558
▁requir	-10.8559
▁neighbours	-10.8562
▁fatal	-10.8565
▁bru	-10.8576
▁consultants	-10.858
69	-10.8586
▁format	-10.8586
▁vis	-10.8588
ching	-10.8591
▁amend	-10.8591
▁generate	-10.8592
▁argue	-10.8592
▁tuesday	-10.8593
▁talents	-10.8593
▁hui	-10.8603
▁shops	-10.8604
▁mountains	-10.8605
▁certificates	-10.8608
▁somali	-10.8608
▁adults	-10.8614
▁impartial	-10.8615
▁liberation	-10.8615
▁adjourn	-10.8615
▁unchanged	-10.8615
▁equipped	-10.8615
▁manual	-10.8615
▁breakdown	-10.8616
▁rocket	-10.8616
▁whi	-10.8618
▁sake	-10.8619
▁eradicate	-10.8622
▁appearance	-10.8626
800000	-10.863
▁enacted	-10.8634
▁pure	-10.8636
rum	-10.8637
▁newspaper	-10.8644
▁vessel	-10.8644
▁performing	-10.8656
border	-10.866
reaching	-10.8669
▁wah	-10.8677
▁relates	-10.8677
▁guaranteed	-10.8679
▁appoint	-10.8679
chen	-10.8694
▁2000000	-10.8699
52	-10.8704
▁resign	-10.8713
▁paying	-10.8714
▁complement	-10.8718
▁vietnam	-10.8719
▁alcohol	-10.872
▁counterfeit	-10.872
▁afterwards	-10.872
▁multinational	-10.8721
▁breast	-10.8721
▁classified	-10.8722
▁remarkable	-10.8724
▁industrialized	-10.8727
▁bal	-10.8727
300	-10.8736
▁coup	-10.8737
▁margin	-10.8744
▁criticized	-10.8746
▁handled	-10.8761
effective	-10.8765
▁named	-10.8769
▁births	-10.8787
▁85	-10.8788
▁instructions	-10.8793
▁fun	-10.8795
uff	-10.8803
▁acquire	-10.8804
▁recipients	-10.8811
48	-10.8813
▁ear	-10.8814
100000000	-10.8814
▁mpf	-10.882
▁transmit	-10.8825
▁accommodate	-10.8826
▁arrears	-10.8826
▁cypriot	-10.8826
▁defeat	-10.8826
▁exhaust	-10.8826
▁journey	-10.8826
▁robbery	-10.8826
▁tokyo	-10.8826
▁dinner	-10.8826
▁ratified	-10.8826
▁sanitation	-10.8826
▁capture	-10.8826
▁decree	-10.8826
▁unmik	-10.8826
▁issuance	-10.8826
▁intense	-10.8826
▁expo	-10.8829
▁heroin	-10.8829
▁qing	-10.8829
▁baby	-10.8831
▁deadline	-10.8831
▁exceptional	-10.8834
▁surprised	-10.8847
▁finished	-10.8856
▁announce	-10.8868
april	-10.8874
november	-10.8874
▁instruction	-10.8876
spoke	-10.8878
boundary	-10.8879
▁sunday	-10.8886
▁fighter	-10.8906
tergovernmental	-10.8917
▁answered	-10.8922
▁dramatic	-10.8933
▁celebration	-10.8934
▁clothes	-10.8934
▁displacement	-10.8934
▁logistics	-10.8934
▁neutral	-10.8934
▁prominent	-10.8934
▁steady	-10.8934
▁plastic	-10.8934
▁donald	-10.8934
▁visible	-10.8934
51	-10.894
▁expanding	-10.8943
▁zhu	-10.8946
▁regulate	-10.895
▁tien	-10.8956
▁gathered	-10.8959
▁pig	-10.896
▁consultant	-10.8972
▁customer	-10.8974
▁substances	-10.8981
▁intra	-10.8986
▁deter	-10.8994
▁narcotics	-10.8995
fil	-10.8998
▁stronger	-10.9002
▁studying	-10.9006
▁depth	-10.9006
▁scholars	-10.9007
▁newspapers	-10.9012
▁peru	-10.9028
41	-10.9039
▁collaborat	-10.9039
bar	-10.9041
▁hazard	-10.9041
▁description	-10.9043
▁dynasty	-10.9043
▁impetus	-10.9043
▁magazine	-10.9043
▁pupils	-10.9043
▁quantities	-10.9043
▁straight	-10.9043
▁civic	-10.9043
▁folk	-10.9043
▁translation	-10.9043
▁drove	-10.9043
▁exposed	-10.9043
served	-10.9044
▁subcommittee	-10.9044
▁1984	-10.9045
▁kwan	-10.9046
22	-10.905
▁slip	-10.9053
▁suppliers	-10.9053
▁honor	-10.9053
▁warned	-10.9054
▁contributor	-10.9055
▁spoken	-10.9058
▁roots	-10.9072
▁sham	-10.9076
▁players	-10.9081
row	-10.9086
▁upper	-10.9092
▁rock	-10.9097
yin	-10.9107
▁aspirations	-10.9112
16	-10.9123
hung	-10.9131
▁spa	-10.9132
▁84	-10.915
▁desirable	-10.9152
▁exclusion	-10.9152
▁foremost	-10.9152
▁sacrifice	-10.9152
▁evil	-10.9152
▁beauty	-10.9152
▁error	-10.9153
▁disappearance	-10.9154
▁winner	-10.9154
▁referring	-10.9154
▁dwell	-10.9155
▁deny	-10.9166
▁patterns	-10.9166
▁smoking	-10.9169
▁executed	-10.9171
▁siu	-10.9179
▁endeavours	-10.9193
▁applicant	-10.9194
▁ruf	-10.9196
▁eco	-10.9199
▁formula	-10.9204
sunday	-10.9204
nuclear	-10.9204
iii	-10.9213
room	-10.9214
▁mali	-10.9219
▁constituted	-10.9228
50000000	-10.9229
▁govern	-10.9236
▁tau	-10.924
▁sudden	-10.9244
▁absolute	-10.9244
hui	-10.9248
▁transform	-10.9255
▁concluding	-10.9264
▁exacerbat	-10.9264
▁facilitating	-10.9264
▁insolvency	-10.9264
▁kilograms	-10.9264
▁reputation	-10.9264
▁undoubtedly	-10.9264
▁focal	-10.9264
▁keen	-10.9264
▁childhood	-10.9265
▁realistic	-10.9268
▁removal	-10.9268
▁pull	-10.927
▁1,000	-10.9274
▁sy	-10.9275
▁reverse	-10.9277
▁puer	-10.9281
▁distinguished	-10.9288
▁holders	-10.9293
lv	-10.9293
▁logic	-10.9295
▁broader	-10.9299
58	-10.93
▁surge	-10.9302
▁hundred	-10.9307
cho	-10.9313
75	-10.9319
▁roc	-10.9336
▁flee	-10.9337
▁render	-10.9338
▁reporter	-10.936
epd	-10.9362
▁clinics	-10.9364
▁accompany	-10.9376
▁beneficiaries	-10.9376
▁conscious	-10.9376
▁hostilities	-10.9376
▁junction	-10.9376
▁parallel	-10.9376
▁valley	-10.9376
▁venezuela	-10.9376
▁craft	-10.9376
▁boundaries	-10.9376
▁diverse	-10.9377
▁tensions	-10.938
▁50%	-10.9387
▁wake	-10.9388
▁trace	-10.9392
▁doesn	-10.94
▁rwandan	-10.9412
▁relate	-10.9412
▁pledged	-10.9412
▁continuously	-10.9415
▁dam	-10.9415
place	-10.9416
oke	-10.942
commission	-10.9431
▁worker	-10.9442
▁feed	-10.9445
▁mei	-10.9449
▁opt	-10.9459
▁par	-10.9461
metre	-10.9475
ought	-10.9478
▁eve	-10.9479
47	-10.9479
0000000000	-10.9486
▁cluster	-10.949
▁disadvantage	-10.949
▁forgotten	-10.949
▁phoenix	-10.949
▁possibilities	-10.949
▁poultry	-10.949
▁treasure	-10.949
▁vacancies	-10.949
▁vacancy	-10.949
▁whereabouts	-10.949
▁disagree	-10.949
▁advertise	-10.949
▁tunisia	-10.949
▁forthcoming	-10.949
▁unacceptable	-10.949
▁ferry	-10.949
▁entertainment	-10.9491
▁communicate	-10.9491
▁hua	-10.9495
▁restaurants	-10.9502
▁arranged	-10.9507
▁exclusively	-10.9507
26	-10.9509
▁dog	-10.9517
pin	-10.9517
▁occupational	-10.9518
▁angolan	-10.9522
▁smoothly	-10.9524
05	-10.9527
list	-10.9541
mic	-10.9544
kwong	-10.9544
▁adequately	-10.9569
how	-10.9571
▁applying	-10.9574
▁surprise	-10.9582
▁earned	-10.9583
▁quo	-10.9585
▁condolences	-10.9604
▁continuation	-10.9604
▁kashmir	-10.9604
▁necessity	-10.9604
▁recognise	-10.9604
▁tobacco	-10.9604
▁denmark	-10.9605
▁exposure	-10.9605
▁tropical	-10.9605
▁glad	-10.9605
▁martin	-10.9605
▁stick	-10.9605
▁mainstream	-10.9607
▁survive	-10.9614
▁(1	-10.9622
▁reflection	-10.9624
▁alleviate	-10.9632
400	-10.9638
▁1960	-10.964
wah	-10.9642
▁meters	-10.9645
▁tak	-10.9649
▁receipt	-10.9656
▁thousand	-10.9656
nia	-10.9661
election	-10.9661
03	-10.9666
▁locally	-10.9672
62	-10.9681
▁pot	-10.969
▁lok	-10.9693
▁hub	-10.9699
uch	-10.97
seekers	-10.9704
▁pages	-10.9715
ordination	-10.9717
operative	-10.9717
▁salt	-10.9719
▁pregnancy	-10.9721
▁certification	-10.9721
▁clarify	-10.9721
▁frequency	-10.9721
▁obliged	-10.9721
▁politician	-10.9721
▁sewage	-10.9721
mortem	-10.9721
▁unfair	-10.9721
▁inmates	-10.9721
▁namibia	-10.9721
▁auction	-10.9721
▁tonight	-10.9722
▁fellow	-10.9722
▁earnings	-10.9723
▁delayed	-10.9729
▁justification	-10.973
▁justified	-10.9732
▁evolution	-10.9734
▁exit	-10.9751
8000000	-10.9755
▁payable	-10.9763
▁soft	-10.9763
▁ranks	-10.9772
▁ranging	-10.9776
▁responding	-10.9784
▁lending	-10.9793
▁chaired	-10.9794
300000000	-10.98
▁pop	-10.9807
38	-10.9811
▁foreigners	-10.9819
▁evaluate	-10.9826
train	-10.983
tern	-10.9832
▁exploit	-10.9834
▁memorandum	-10.9838
▁portfolio	-10.9838
▁pursuing	-10.9838
▁surveillance	-10.9838
▁dozen	-10.9838
▁inherent	-10.9839
▁wholesale	-10.9839
▁shopping	-10.984
▁adhere	-10.984
▁factions	-10.984
▁everywhere	-10.984
▁lease	-10.9841
▁detection	-10.9841
▁pride	-10.9842
▁thin	-10.9842
▁score	-10.9844
▁asking	-10.9852
▁enjoyment	-10.9855
worthy	-10.9855
▁croatian	-10.9856
▁essentially	-10.9857
▁polling	-10.9863
▁settled	-10.9866
▁utilized	-10.9866
▁encountered	-10.9867
▁feet	-10.987
13	-10.9872
date	-10.9878
▁nan	-10.9886
▁noise	-10.9891
week	-10.9897
82	-10.9899
payment	-10.99
▁attain	-10.9917
▁abandon	-10.9919
▁pun	-10.9924
▁commonly	-10.9925
9000000	-10.9928
▁terror	-10.9951
▁adolescent	-10.9957
▁commonwealth	-10.9957
▁dragon	-10.9957
▁macedonia	-10.9957
▁maternal	-10.9957
▁nobody	-10.9957
▁possibly	-10.9957
▁relevance	-10.9957
▁creative	-10.9957
▁quiet	-10.9958
▁transnational	-10.9958
▁novel	-10.9959
garet	-10.9959
▁winning	-10.9959
▁82	-10.9961
▁comparative	-10.9962
chang	-10.9964
▁nearby	-10.9966
▁mining	-10.9967
saving	-10.9968
▁farming	-10.9973
▁cool	-10.9987
▁rendered	-10.9998
▁providers	-11.0004
roa	-11.0015
school	-11.0018
ethnic	-11.0018
▁72	-11.002
direct	-11.0023
eastern	-11.0024
▁sport	-11.0024
▁dogs	-11.0034
▁recruit	-11.0037
▁skill	-11.004
▁stipulat	-11.004
some	-11.0041
5000	-11.0054
▁minute	-11.006
▁debtor	-11.007
▁entrusted	-11.0078
▁genocide	-11.0078
▁inevitably	-11.0078
▁magnitude	-11.0078
▁nonetheless	-11.0078
▁replied	-11.0078
▁subprogramme	-11.0078
▁swimming	-11.0078
▁ecuador	-11.0078
▁memory	-11.0078
▁opium	-11.0078
▁outlook	-11.0078
▁zambia	-11.0078
▁supervisor	-11.0078
▁bulk	-11.0078
▁fortune	-11.0078
▁indiscriminate	-11.0078
▁greet	-11.0078
▁prescribed	-11.0079
reliance	-11.008
▁1982	-11.0081
▁linkage	-11.0082
▁dump	-11.0082
▁honest	-11.0083
▁utilit	-11.0083
▁faster	-11.0099
▁detected	-11.0108
bat	-11.0117
▁watching	-11.0119
▁bio	-11.0124
▁strait	-11.0131
china	-11.0135
▁solved	-11.0139
▁resolv	-11.0145
▁separately	-11.0155
▁renew	-11.0158
▁chat	-11.0166
▁lakes	-11.017
▁guided	-11.0178
▁formulate	-11.0179
▁exclusive	-11.0181
▁interviewed	-11.0187
▁62	-11.0195
chairmen	-11.0198
▁advertising	-11.02
▁bahrain	-11.02
▁explicit	-11.02
▁firearms	-11.02
▁pillar	-11.02
▁portugal	-11.02
▁precaution	-11.02
▁refrain	-11.02
▁remuneration	-11.02
▁wrote	-11.02
▁david	-11.02
▁thereafter	-11.02
▁cairo	-11.02
▁tonnes	-11.02
▁brutal	-11.02
▁panama	-11.02
▁vietnamese	-11.02
23	-11.0209
▁95	-11.0216
▁kmt	-11.0218
▁formulated	-11.0224
wei	-11.0225
▁mounted	-11.0229
▁luna	-11.0245
combatants	-11.0255
omic	-11.0257
▁producers	-11.0258
commerce	-11.0263
held	-11.0266
▁semi	-11.0272
▁negotiate	-11.0301
▁assure	-11.0306
sect	-11.0309
▁chart	-11.0317
46	-11.0317
▁lock	-11.0318
gan	-11.0322
37	-11.0323
▁bulgaria	-11.0323
▁clashes	-11.0323
▁imbalance	-11.0323
▁scourge	-11.0323
▁twice	-11.0323
▁hamper	-11.0323
▁convert	-11.0324
▁harmoniz	-11.0324
▁strange	-11.0325
▁motherland	-11.0327
▁1979	-11.0327
▁haitian	-11.0329
shore	-11.0337
▁alter	-11.0346
▁argued	-11.035
▁mini	-11.0352
▁restored	-11.0354
29	-11.0361
under	-11.0367
▁commenced	-11.0372
▁consulted	-11.0383
▁frame	-11.0388
▁amongst	-11.0394
56	-11.0395
contribut	-11.0399
▁connect	-11.0406
▁complain	-11.0426
aged	-11.0426
▁pin	-11.0431
▁devastating	-11.0448
▁diminish	-11.0448
▁exemption	-11.0448
▁kazakhstan	-11.0448
▁regrettably	-11.0448
▁reimbursement	-11.0448
▁treasury	-11.0448
▁indebted	-11.0448
▁switch	-11.0448
▁hongkong	-11.0448
▁isolated	-11.0448
▁nurse	-11.0449
▁judgment	-11.045
▁triad	-11.0451
▁mobilization	-11.0451
▁factories	-11.0454
▁poland	-11.0456
▁curb	-11.0459
▁homeland	-11.0459
▁restraint	-11.046
76	-11.0461
▁complexity	-11.0462
▁disclosed	-11.0462
▁translated	-11.0464
▁peter	-11.0481
▁71	-11.0495
100	-11.0505
▁driven	-11.0506
minister	-11.0516
▁elaborate	-11.0516
▁chun	-11.052
▁cable	-11.0521
ranging	-11.0531
▁deploy	-11.0534
▁producer	-11.0539
31	-11.0543
▁unfortunate	-11.0556
chuan	-11.0556
▁59	-11.056
▁financed	-11.0568
▁notwithstanding	-11.0575
▁perception	-11.0575
▁suspicious	-11.0575
▁poison	-11.0575
▁interaction	-11.0575
▁unlawful	-11.0575
▁endanger	-11.0575
▁cited	-11.0575
▁distort	-11.0576
case	-11.0579
▁subregional	-11.0583
ional	-11.0586
▁broaden	-11.0593
▁promptly	-11.0602
▁76	-11.0614
▁crown	-11.0631
patient	-11.0643
pm	-11.0646
▁animal	-11.0651
▁emotional	-11.0652
▁commended	-11.0675
▁74	-11.0679
▁deliberate	-11.0684
▁surviv	-11.0684
▁traditionally	-11.0691
▁flooding	-11.0693
vian	-11.0698
▁intent	-11.0698
▁illustrate	-11.0699
▁christmas	-11.0703
▁conjunction	-11.0703
▁earliest	-11.0703
▁fifth	-11.0703
▁privatization	-11.0703
▁stolen	-11.0703
▁tajikistan	-11.0703
▁trigger	-11.0703
▁unanimous	-11.0703
▁undcp	-11.0703
▁yellow	-11.0703
▁shadow	-11.0703
▁oios	-11.0703
▁lunch	-11.0705
▁rmb	-11.0708
▁viet	-11.071
▁83	-11.0724
▁investing	-11.0727
200000000	-11.0727
▁proven	-11.0731
gar	-11.0739
▁eliminated	-11.0746
power	-11.077
january	-11.0773
controlled	-11.0774
▁qualifications	-11.0776
▁bin	-11.0786
▁displayed	-11.0801
▁73	-11.081
900000	-11.0811
▁resist	-11.0811
yang	-11.0817
▁aggravate	-11.0833
▁composed	-11.0833
▁demonstrators	-11.0833
▁extradition	-11.0833
▁feasibility	-11.0833
▁fragile	-11.0833
▁inaugura	-11.0833
▁indispensable	-11.0833
▁nutrition	-11.0833
▁prosperous	-11.0833
▁salvador	-11.0833
▁speculation	-11.0833
▁promulgat	-11.0833
▁sky	-11.0833
▁orbit	-11.0833
▁jump	-11.0836
▁intervene	-11.0836
▁stepped	-11.0837
▁tight	-11.0838
▁neck	-11.0838
43	-11.0838
▁kick	-11.0839
▁fever	-11.0842
▁finalized	-11.0843
▁attendance	-11.0846
▁gang	-11.0851
▁camera	-11.0852
2000000	-11.0858
▁uk	-11.0866
▁sharply	-11.0871
amp	-11.0879
van	-11.0879
▁lag	-11.0891
▁jia	-11.0895
▁accede	-11.0901
frame	-11.0905
field	-11.0905
group	-11.0905
added	-11.0906
▁abd	-11.0906
with	-11.0914
▁diamond	-11.0915
▁relie	-11.092
▁shek	-11.0924
▁69	-11.095
▁dh	-11.0954
exist	-11.0956
▁50000	-11.096
▁tall	-11.0961
▁editor	-11.0965
▁emergence	-11.0965
▁enemy	-11.0965
▁greece	-11.0965
▁junior	-11.0965
▁kwok	-11.0965
▁orchestra	-11.0965
▁pharmaceutical	-11.0965
▁tanzania	-11.0965
▁typhoon	-11.0965
▁precious	-11.0965
▁underlined	-11.0965
▁disappointed	-11.0966
▁coordinating	-11.0966
▁asean	-11.0967
▁hague	-11.0967
▁classification	-11.0967
▁municipalities	-11.0967
▁67	-11.0969
▁plight	-11.097
▁pack	-11.0972
▁ski	-11.0973
bil	-11.0981
▁mosquito	-11.0982
▁deepen	-11.0984
▁arabic	-11.0986
▁successive	-11.0987
▁kit	-11.099
▁sheet	-11.1021
▁secured	-11.1028
zz	-11.1029
▁kwong	-11.1034
permanent	-11.1038
security	-11.1038
▁tested	-11.1041
▁hsin	-11.1053
▁kim	-11.1064
▁additionally	-11.1093
▁abortion	-11.1098
▁belgium	-11.1098
▁kaohsiung	-11.1098
▁struck	-11.1098
▁officiat	-11.1098
▁imposition	-11.1098
▁glass	-11.1098
▁plus	-11.1098
▁opposite	-11.1098
▁pearl	-11.1098
▁fraud	-11.1099
▁preferred	-11.1099
▁1976	-11.1102
▁carries	-11.1102
▁fred	-11.1109
▁habitat	-11.1138
▁stipulated	-11.114
food	-11.1173
chan	-11.1176
▁await	-11.119
▁mix	-11.1207
▁approve	-11.1211
▁exceeding	-11.1225
▁consume	-11.1226
▁emerge	-11.1229
ography	-11.1233
▁cigarette	-11.1233
▁gambling	-11.1233
▁premium	-11.1233
▁discretion	-11.1233
▁disregard	-11.1233
▁entail	-11.1233
▁generous	-11.1233
▁intensified	-11.1233
▁liberty	-11.1233
▁lusaka	-11.1233
▁pregnant	-11.1233
▁rainfall	-11.1233
▁twenty	-11.1233
▁wisdom	-11.1233
▁excuse	-11.1233
▁unfpa	-11.1233
▁domain	-11.1233
▁spouse	-11.1233
▁entity	-11.1233
▁indirectly	-11.1234
▁drainage	-11.1234
▁classroom	-11.1234
▁readily	-11.1235
▁downturn	-11.1235
▁interfere	-11.1235
▁attractive	-11.1241
▁dare	-11.1241
▁realities	-11.1241
▁excluded	-11.1247
▁skin	-11.1249
▁hunger	-11.1251
▁sorry	-11.1251
▁graduated	-11.1255
▁enforced	-11.1255
▁calculated	-11.1257
visual	-11.1258
▁organis	-11.1259
▁thoroughly	-11.1263
▁succession	-11.1272
▁ignored	-11.1279
interpretation	-11.1281
▁wine	-11.1292
▁slowly	-11.1304
committee	-11.1308
strait	-11.131
▁construct	-11.1325
▁alarming	-11.1326
▁finish	-11.1332
▁restriction	-11.1334
▁enforce	-11.1344
qi	-11.1345
▁update	-11.136
▁optim	-11.137
▁entrepreneurs	-11.137
▁expensive	-11.137
▁feasible	-11.137
▁guangzhou	-11.137
▁impunity	-11.137
▁indictment	-11.137
▁integral	-11.137
▁lebanese	-11.137
▁satisfy	-11.137
▁situated	-11.137
▁souvenir	-11.137
▁taught	-11.137
▁uruguay	-11.137
▁climb	-11.137
▁crack	-11.137
▁breath	-11.137
▁delta	-11.137
▁essence	-11.137
▁tactic	-11.137
▁scholarship	-11.137
▁toilet	-11.1371
▁bought	-11.1371
▁accomplishment	-11.1372
▁choi	-11.1372
▁preference	-11.1372
▁postponed	-11.1385
▁reside	-11.1388
aid	-11.14
npt	-11.1401
▁analysed	-11.1404
yuan	-11.1406
▁constructed	-11.1408
▁printing	-11.1416
▁appreciated	-11.1435
▁retained	-11.1443
national	-11.1465
▁adjust	-11.1468
▁preserv	-11.1481
▁graduate	-11.1484
jung	-11.1488
odd	-11.1488
▁precise	-11.149
▁lifting	-11.1499
▁compensat	-11.1505
▁empower	-11.1506
▁arbitra	-11.1507
▁abolition	-11.1509
▁ammunition	-11.1509
▁constituency	-11.1509
▁contemporary	-11.1509
▁emergencies	-11.1509
▁piracy	-11.1509
▁prejudice	-11.1509
▁spokesperson	-11.1509
▁stretch	-11.1509
▁verify	-11.1509
▁emperor	-11.1509
▁kwun	-11.1509
▁symptom	-11.1509
▁imposing	-11.1509
▁sme	-11.1509
▁ltd	-11.1509
▁boost	-11.1509
▁sponsored	-11.151
aligned	-11.151
▁conformity	-11.1511
▁harmful	-11.1512
▁drew	-11.1513
▁princess	-11.1514
▁auditors	-11.1514
▁2007	-11.1514
▁libyan	-11.1515
▁wise	-11.1516
▁herself	-11.1517
▁81	-11.1519
▁nato	-11.1526
▁mouth	-11.1532
▁joy	-11.1533
▁confronted	-11.1543
▁recruited	-11.1553
▁lake	-11.1554
▁painful	-11.156
▁ox	-11.1562
▁ngo	-11.1565
▁mor	-11.1568
42	-11.157
▁maybe	-11.1579
▁romania	-11.1588
▁subscribe	-11.1588
charge	-11.1588
friendly	-11.159
pay	-11.1601
▁rush	-11.1615
▁marginal	-11.1616
▁110	-11.1634
▁absorb	-11.165
▁consultancy	-11.165
▁escort	-11.165
▁exploration	-11.165
▁harmonious	-11.165
▁moratorium	-11.165
▁occurrence	-11.165
▁prerequisite	-11.165
▁referendum	-11.165
▁subsidies	-11.165
▁verbal	-11.165
▁massacre	-11.165
▁empty	-11.165
▁crash	-11.165
▁enactment	-11.1652
▁counselling	-11.1654
▁tied	-11.1656
▁upgrading	-11.1656
▁accessible	-11.1656
sessional	-11.1658
▁complainant	-11.166
▁serbian	-11.1661
ologist	-11.1661
▁xu	-11.1661
▁burst	-11.1662
▁integrate	-11.1662
▁apartment	-11.1663
▁everyday	-11.1665
▁enhancement	-11.1671
65	-11.1672
▁fao	-11.1676
metric	-11.1678
tai	-11.1681
▁printed	-11.1682
▁weigh	-11.1682
▁promised	-11.1689
position	-11.1694
come	-11.1705
▁economically	-11.1718
dom	-11.1722
▁indicat	-11.173
appointment	-11.1733
▁originat	-11.1745
▁pri	-11.1761
▁accelerate	-11.177
▁remedi	-11.1789
▁abstain	-11.1793
▁degradation	-11.1793
▁lantau	-11.1793
▁tendency	-11.1793
▁unusual	-11.1793
▁volatile	-11.1793
▁estonia	-11.1793
▁binding	-11.1793
▁inviting	-11.1793
▁italian	-11.1793
▁refine	-11.1793
▁dress	-11.1794
▁recourse	-11.1797
▁weekend	-11.1799
▁villagers	-11.18
▁edge	-11.1803
▁harvest	-11.1803
▁span	-11.1805
▁bureaux	-11.1809
▁branches	-11.1811
▁plain	-11.1812
▁servicing	-11.1814
▁bro	-11.1823
employment	-11.1873
▁reaffirmed	-11.1875
gged	-11.1883
400000000	-11.1891
600000000	-11.1891
▁zhou	-11.1894
▁lei	-11.1909
▁sand	-11.1917
▁subregion	-11.1929
▁ambulance	-11.1938
▁appropriation	-11.1938
▁arriving	-11.1938
▁divorce	-11.1938
▁enquiry	-11.1938
▁philosophy	-11.1938
▁replies	-11.1938
▁robust	-11.1938
▁subsistence	-11.1938
▁virtue	-11.1938
▁coincide	-11.1938
▁macau	-11.1938
▁meteorolog	-11.1938
generating	-11.1938
▁congratulations	-11.1938
▁contractual	-11.1938
▁corner	-11.1938
▁annum	-11.1938
▁cssa	-11.1938
▁optimistic	-11.1938
▁contradiction	-11.194
▁illustrat	-11.1942
range	-11.1947
▁weaken	-11.1952
▁scar	-11.1958
▁accomplished	-11.1962
▁20%	-11.1965
item	-11.1971
▁abolished	-11.1974
▁upward	-11.1975
▁abandoned	-11.1984
39	-11.1998
▁tun	-11.2005
operate	-11.2023
▁plac	-11.2025
first	-11.2025
▁teach	-11.2029
27	-11.2065
▁yo	-11.2066
▁albania	-11.2074
▁worship	-11.2082
▁mtr	-11.2083
▁adjudicat	-11.2085
▁congestion	-11.2085
▁franchise	-11.2085
▁inappropriate	-11.2085
▁laboratory	-11.2085
▁nowadays	-11.2085
▁predecessor	-11.2085
▁respirator	-11.2085
▁silence	-11.2085
▁subsidy	-11.2085
▁vulnerability	-11.2085
▁england	-11.2085
▁jean	-11.2085
▁zero	-11.2085
▁horse	-11.2085
▁automatically	-11.2086
▁methodology	-11.2086
▁dramatically	-11.2086
▁sat	-11.2087
▁councillor	-11.2087
▁unpaid	-11.2088
▁harsh	-11.2088
▁exert	-11.2089
▁offset	-11.209
▁1978	-11.2091
▁oau	-11.2094
▁artistic	-11.2094
▁guid	-11.2095
▁victoria	-11.2102
▁poorest	-11.2106
▁encouragement	-11.2109
▁timetable	-11.2123
▁cutting	-11.2133
establish	-11.2136
▁peng	-11.2147
tung	-11.216
▁enthusiastic	-11.2165
▁addresses	-11.2169
conflict	-11.2174
drug	-11.2174
speaking	-11.2174
100000	-11.2175
but	-11.2199
▁fairly	-11.2202
▁reservation	-11.2203
▁supportive	-11.2203
▁arrange	-11.2208
▁advocacy	-11.2234
▁benchmark	-11.2234
▁constituencies	-11.2234
▁continual	-11.2234
▁fabric	-11.2234
▁harassment	-11.2234
▁maternity	-11.2234
▁observance	-11.2234
▁procedural	-11.2234
▁slogan	-11.2234
▁2000-2001	-11.2234
▁unesco	-11.2234
▁solving	-11.2234
▁conservative	-11.2234
▁tough	-11.2234
▁medal	-11.2235
▁checkpoint	-11.2235
▁geo	-11.2236
▁extraordinary	-11.2236
▁mtrc	-11.2242
▁fairness	-11.2246
▁stem	-11.2247
than	-11.2252
▁incorporate	-11.2254
▁circulated	-11.2256
▁alive	-11.2257
▁rarely	-11.2262
ez	-11.2267
▁speeches	-11.227
▁developers	-11.2277
stop	-11.228
▁regulated	-11.2295
54	-11.23
▁shut	-11.2314
▁dab	-11.2314
▁pier	-11.2316
tude	-11.2322
roots	-11.2326
▁detect	-11.2343
▁makers	-11.2352
▁soldier	-11.2358
▁destin	-11.2368
49	-11.237
▁committ	-11.2371
new	-11.2376
▁concentrate	-11.2379
▁accuracy	-11.2385
▁conversion	-11.2385
▁escalation	-11.2385
▁expeditious	-11.2385
▁frustration	-11.2385
▁literacy	-11.2385
▁offensive	-11.2385
▁prosecuted	-11.2385
▁syndicate	-11.2385
▁urgency	-11.2385
▁vaccine	-11.2385
▁varied	-11.2385
▁malaria	-11.2385
▁surrender	-11.2385
▁convening	-11.2385
▁delighted	-11.2385
▁profile	-11.2385
▁tsai	-11.2386
duced	-11.2387
▁programming	-11.2387
▁timing	-11.2387
▁terminate	-11.2388
▁complementary	-11.2388
▁suppression	-11.2389
▁underground	-11.2393
▁engagement	-11.2393
▁rome	-11.2393
minded	-11.2399
▁decent	-11.2399
▁accumulated	-11.2399
▁plead	-11.2399
▁rating	-11.2407
▁roman	-11.2416
▁taxation	-11.2421
▁outset	-11.2422
▁comparable	-11.2425
▁rob	-11.2429
▁desired	-11.2442
▁traders	-11.2443
lab	-11.245
lac	-11.2466
▁jin	-11.2472
turn	-11.2478
february	-11.2479
▁luk	-11.2481
▁canton	-11.2489
scribed	-11.2495
▁abolish	-11.2501
▁criticiz	-11.2501
elect	-11.2506
04	-11.2515
▁divide	-11.2516
organi	-11.2519
▁vigorous	-11.252
▁rear	-11.2524
▁automatic	-11.2538
exploded	-11.2539
▁adjacent	-11.2539
▁bottom	-11.2539
▁convenient	-11.2539
▁faculty	-11.2539
▁inevitable	-11.2539
▁intensify	-11.2539
▁jamaica	-11.2539
▁malnutrition	-11.2539
▁prudent	-11.2539
▁avenue	-11.2539
▁zaire	-11.2539
▁dispatch	-11.2539
▁prolonged	-11.2539
▁centuries	-11.2539
▁corps	-11.2539
▁shortcomings	-11.2539
▁tanks	-11.2539
▁arbitrary	-11.254
▁crude	-11.2542
▁mineral	-11.2542
▁leong	-11.2543
▁returnees	-11.2544
▁elementary	-11.2545
▁southeast	-11.255
▁hom	-11.2554
▁taste	-11.2554
▁fruitful	-11.2561
▁chien	-11.2563
▁controlling	-11.2568
▁liberian	-11.257
▁ignore	-11.2574
uous	-11.2576
▁continental	-11.2592
▁underway	-11.2611
▁deleted	-11.2621
▁owe	-11.2632
intensive	-11.2635
▁correspond	-11.2637
where	-11.2645
▁hire	-11.2646
1000000	-11.2668
established	-11.2676
▁uncertain	-11.2694
▁abkhaz	-11.2695
▁convenience	-11.2695
▁curfew	-11.2695
▁currencies	-11.2695
▁dedication	-11.2695
▁destabiliz	-11.2695
▁engaging	-11.2695
▁equat	-11.2695
▁furniture	-11.2695
▁ministries	-11.2695
▁radiation	-11.2695
▁sophisticated	-11.2695
▁supposed	-11.2695
▁sympathy	-11.2695
▁threshold	-11.2695
▁jeopardiz	-11.2695
▁prestig	-11.2695
▁superior	-11.2695
▁atlantic	-11.2696
▁gulf	-11.2696
▁inventory	-11.2696
▁reopen	-11.2696
▁anxious	-11.2696
▁abode	-11.2696
▁pertain	-11.2696
▁copyright	-11.2696
▁sugar	-11.2697
▁motorists	-11.2697
-1997	-11.2697
▁scarce	-11.2698
▁simultaneously	-11.2703
▁relieve	-11.2703
▁authorization	-11.2707
mulating	-11.2717
▁countryside	-11.2717
▁mill	-11.2721
▁trainees	-11.2734
▁investigated	-11.2738
▁1000000000	-11.2755
▁1.5	-11.2756
▁pakistani	-11.276
▁bare	-11.2765
▁planet	-11.2767
▁pet	-11.2773
finding	-11.2794
british	-11.2794
▁confront	-11.2807
▁encounter	-11.2816
▁suspend	-11.2816
▁prof	-11.2839
▁serbia	-11.2847
▁altogether	-11.2854
▁athlete	-11.2854
▁cancelled	-11.2854
▁confiscated	-11.2854
▁expectancy	-11.2854
▁impressive	-11.2854
▁purchasing	-11.2854
▁reintegration	-11.2854
▁remedy	-11.2854
▁resolute	-11.2854
▁unexpected	-11.2854
▁worries	-11.2854
▁confidential	-11.2854
▁landscape	-11.2854
▁persuade	-11.2854
▁milk	-11.2854
▁belgrade	-11.2854
▁summarize	-11.2854
▁thick	-11.2854
lina	-11.2856
▁wales	-11.2856
▁sustainability	-11.2856
▁electors	-11.2856
▁cry	-11.286
▁thai	-11.2862
▁nominated	-11.2864
▁downward	-11.2865
▁70%	-11.2865
▁workplace	-11.2867
▁jet	-11.2867
▁disappeared	-11.2877
▁accelerated	-11.2879
▁openness	-11.2887
▁seriousness	-11.2894
▁attained	-11.2906
▁fleet	-11.291
▁lion	-11.2939
media	-11.2948
▁kuwaiti	-11.295
profit	-11.2956
▁utiliz	-11.2973
▁successor	-11.2975
800000000	-11.2975
▁mount	-11.2981
serving	-11.2985
▁initiate	-11.301
▁suppress	-11.3012
▁clarified	-11.3016
▁evolve	-11.3016
▁immense	-11.3016
▁kilometers	-11.3016
▁magistracy	-11.3016
▁modalities	-11.3016
▁petroleum	-11.3016
▁premature	-11.3016
▁pretext	-11.3016
▁relocation	-11.3016
▁testimony	-11.3016
▁troupe	-11.3016
▁unrwa	-11.3016
▁humankind	-11.3016
▁swiss	-11.3016
▁rico	-11.3016
▁outlets	-11.3016
▁ecological	-11.3016
▁unops	-11.3016
▁citizenship	-11.3017
▁proactive	-11.3017
▁pipeline	-11.3017
▁tangible	-11.3017
▁fulfilled	-11.3019
▁mpfa	-11.3025
▁boxes	-11.3026
▁confirmation	-11.3027
▁deliberately	-11.304
▁perpetrated	-11.3048
▁sincerely	-11.305
▁inject	-11.3061
▁governed	-11.3071
▁emotion	-11.308
▁gather	-11.3085
▁yue	-11.3117
country	-11.312
including	-11.312
market	-11.3122
▁oversee	-11.3127
link	-11.3142
hwa	-11.315
▁supplier	-11.3164
▁volunteer	-11.3164
▁chiu	-11.3172
▁croat	-11.3178
▁aggregate	-11.3179
▁california	-11.3179
▁detriment	-11.3179
▁drastic	-11.3179
▁eliminating	-11.3179
▁illiteracy	-11.3179
▁incumbent	-11.3179
▁legislator	-11.3179
▁lithuania	-11.3179
▁mozambique	-11.3179
▁perceived	-11.3179
▁unnecessary	-11.3179
▁1974	-11.3179
▁administered	-11.3179
▁finland	-11.3179
▁summon	-11.318
▁sfc	-11.318
▁albert	-11.318
▁stake	-11.318
▁abide	-11.318
▁float	-11.318
▁yemen	-11.3181
▁globe	-11.3182
▁endorsement	-11.3182
▁township	-11.3183
▁setback	-11.3186
▁freeze	-11.319
▁merger	-11.3191
midst	-11.3195
▁pipe	-11.3213
plan	-11.3235
▁layer	-11.3241
rong	-11.3257
talled	-11.3278
grade	-11.3282
void	-11.3287
sharing	-11.3289
elecommunication	-11.3312
hsi	-11.3317
▁allocate	-11.3324
▁client	-11.3333
▁autonomous	-11.3346
▁confusion	-11.3346
▁contingency	-11.3346
▁immunity	-11.3346
▁legitimacy	-11.3346
▁michael	-11.3346
▁orientation	-11.3346
▁qatar	-11.3346
▁scenario	-11.3346
autumn	-11.3346
▁cessation	-11.3346
▁patriot	-11.3346
▁silver	-11.3346
▁hinder	-11.3346
▁undertook	-11.3346
▁peking	-11.3346
▁spiritual	-11.3346
▁robert	-11.3347
▁osce	-11.3347
▁demobilization	-11.3347
81	-11.3349
▁preside	-11.3352
▁repatriated	-11.3354
▁guam	-11.3355
▁duck	-11.3359
▁attraction	-11.3362
▁belt	-11.3367
▁ethiopian	-11.3375
▁optional	-11.3378
▁dili	-11.3381
▁psycho	-11.3383
▁learnt	-11.34
▁advocated	-11.3403
chih	-11.3403
▁print	-11.3423
verse	-11.3435
0.5	-11.3437
taking	-11.3449
minute	-11.3455
shek	-11.3456
▁alleviat	-11.3475
chun	-11.3475
▁readers	-11.3485
▁exact	-11.35
locked	-11.3501
▁device	-11.3506
▁ticket	-11.3506
▁unlike	-11.3509
▁assassination	-11.3516
▁brigade	-11.3516
▁conscience	-11.3516
▁corridor	-11.3516
▁encompass	-11.3516
▁experiencing	-11.3516
▁influx	-11.3516
▁kyrgyzstan	-11.3516
▁observatory	-11.3516
▁recession	-11.3516
▁scientists	-11.3516
▁supplied	-11.3516
▁symposium	-11.3516
▁indefinite	-11.3516
▁sensing	-11.3516
▁imf	-11.3517
▁hir	-11.3517
▁hazardous	-11.3517
▁precedent	-11.352
surge	-11.3522
▁anywhere	-11.3525
▁deteriorated	-11.3527
▁fortunately	-11.3531
▁viable	-11.3535
lessness	-11.3535
▁brain	-11.3535
▁vigorously	-11.3537
expend	-11.3539
▁bold	-11.3541
▁importation	-11.3543
▁30%	-11.3543
seung	-11.3545
post	-11.3547
:00	-11.3581
session	-11.3602
▁900	-11.3605
chairman	-11.3628
discrimination	-11.363
child	-11.3631
price	-11.3634
kang	-11.3636
83	-11.3657
▁favor	-11.3661
▁fei	-11.3674
step	-11.368
tou	-11.3683
▁cultivat	-11.3684
▁indicator	-11.3685
▁adherence	-11.3688
▁astronaut	-11.3688
▁caution	-11.3688
▁cornerstone	-11.3688
▁diversification	-11.3688
▁evacuation	-11.3688
▁inception	-11.3688
▁intercepted	-11.3688
▁irregular	-11.3688
▁jakarta	-11.3688
▁leaflet	-11.3688
▁stringent	-11.3688
▁substitute	-11.3688
▁zimbabwe	-11.3688
curricula	-11.3688
▁defect	-11.3688
▁fragment	-11.3688
▁implies	-11.3688
▁ohchr	-11.3688
▁packaging	-11.3688
▁streamline	-11.3688
▁entries	-11.3688
▁zoning	-11.3688
▁coach	-11.3688
▁notify	-11.3688
ola	-11.369
▁interactive	-11.369
▁impair	-11.3691
▁tired	-11.3692
▁cleansing	-11.3693
risk	-11.3695
▁remedies	-11.3696
▁universality	-11.3705
▁ration	-11.3712
▁chest	-11.3713
▁arch	-11.3715
▁cup	-11.375
service	-11.3804
fai	-11.3808
▁10000000	-11.3812
section	-11.3825
▁distinguish	-11.3825
84	-11.3852
▁operator	-11.3861
communica	-11.3861
▁drama	-11.3862
▁amnesty	-11.3863
▁balkans	-11.3863
▁cautious	-11.3863
▁decolonization	-11.3863
▁disparity	-11.3863
▁fluctuation	-11.3863
▁intimidation	-11.3863
▁phenomena	-11.3863
▁slovak	-11.3863
▁spectrum	-11.3863
▁stimulate	-11.3863
▁aroused	-11.3863
▁completing	-11.3863
▁deplore	-11.3863
▁palace	-11.3863
▁forensic	-11.3863
▁swift	-11.3863
▁(2001)	-11.3863
▁minimal	-11.3863
▁bolivia	-11.3863
▁minimize	-11.3864
▁fireworks	-11.3864
▁paramount	-11.3864
▁pray	-11.3864
▁embrace	-11.3864
▁radioactive	-11.3864
▁airspace	-11.3865
▁customary	-11.3865
▁native	-11.3866
▁patent	-11.3867
▁roof	-11.3869
▁1975	-11.3869
▁redevelopment	-11.3869
▁bulletin	-11.387
logical	-11.3874
▁mediation	-11.3875
▁roadside	-11.3876
▁jail	-11.3877
▁dpp	-11.3878
▁condemnation	-11.3881
▁clinical	-11.3881
▁expectation	-11.3882
5,000	-11.3887
▁moon	-11.3893
▁agent	-11.3894
article	-11.3905
72	-11.3923
▁tape	-11.395
▁injur	-11.4023
▁bangkok	-11.4042
▁challenging	-11.4042
▁controversy	-11.4042
▁facilitator	-11.4042
▁genetic	-11.4042
▁irrespective	-11.4042
▁juncture	-11.4042
▁nairobi	-11.4042
▁neighbor	-11.4042
▁overview	-11.4042
▁petrol	-11.4042
▁refusal	-11.4042
▁routine	-11.4042
▁stadium	-11.4042
▁voluntarily	-11.4042
▁ambition	-11.4042
▁smart	-11.4042
▁depict	-11.4043
▁secretaries	-11.4043
ozp	-11.4043
▁egyptian	-11.4046
▁loud	-11.4052
▁seng	-11.4062
▁tower	-11.4081
▁interrupt	-11.4091
azi	-11.4091
▁tolerate	-11.4115
▁incorporat	-11.4134
official	-11.4164
specific	-11.4164
▁devote	-11.4201
▁republi	-11.4206
▁refuge	-11.4206
▁disrupt	-11.422
▁maxim	-11.4223
▁cannabis	-11.4224
▁deficiencies	-11.4224
▁examining	-11.4224
▁joseph	-11.4224
▁montenegro	-11.4224
▁motivated	-11.4224
▁reclamation	-11.4224
▁shortfall	-11.4224
▁uzbekistan	-11.4224
▁disorder	-11.4224
▁vicious	-11.4224
▁radical	-11.4224
▁stephen	-11.4224
▁wfp	-11.4224
▁soccer	-11.4224
▁justify	-11.4224
▁ladies	-11.4224
▁inherit	-11.4224
▁marginalized	-11.4225
▁regrettable	-11.4226
▁hsiao	-11.4226
▁correspondent	-11.4226
▁1981	-11.4228
▁strain	-11.4228
▁widening	-11.4233
huang	-11.4236
▁retired	-11.4237
▁guest	-11.4239
▁paul	-11.4242
▁unep	-11.4253
▁deng	-11.4264
▁optic	-11.4288
▁laugh	-11.4311
ground	-11.4337
sheung	-11.434
6000	-11.4345
▁advise	-11.4347
makers	-11.4349
▁audio	-11.4358
▁1.6	-11.4377
▁woo	-11.4383
▁sunni	-11.4385
▁chose	-11.4399
▁yam	-11.44
lou	-11.4407
▁teenage	-11.4409
▁antarctic	-11.4409
▁authentic	-11.4409
▁disclosure	-11.4409
▁discriminatory	-11.4409
▁excellence	-11.4409
▁george	-11.4409
▁hidden	-11.4409
▁imminent	-11.4409
▁influenza	-11.4409
▁interdependence	-11.4409
▁monument	-11.4409
▁opponents	-11.4409
▁practicable	-11.4409
▁pronounce	-11.4409
▁srpska	-11.4409
▁suspicion	-11.4409
▁cameroon	-11.4409
▁intensity	-11.4409
▁propriet	-11.4409
▁macao	-11.4409
▁subsidiz	-11.4409
▁warehouse	-11.4409
▁warfare	-11.4409
▁ceiling	-11.4409
▁conceal	-11.4409
▁lobby	-11.4409
▁underscore	-11.4409
▁fault	-11.4409
▁redress	-11.4409
▁debris	-11.4409
▁isolation	-11.4409
▁slaughter	-11.4411
▁brazilian	-11.4414
▁cheap	-11.4414
▁migrant	-11.4415
▁hurt	-11.4416
▁trail	-11.4417
▁80%	-11.442
▁bitter	-11.4424
▁pap	-11.4434
▁violate	-11.4455
▁seller	-11.4498
▁mou	-11.4513
▁extract	-11.4513
▁measur	-11.4513
borne	-11.4538
700000000	-11.4571
▁eventual	-11.4579
▁atrocities	-11.4598
▁confiscation	-11.4598
▁demographic	-11.4598
▁deterrent	-11.4598
▁duplication	-11.4598
▁eliza	-11.4598
▁enthusiasm	-11.4598
▁fishermen	-11.4598
▁freight	-11.4598
▁hurricane	-11.4598
▁mexican	-11.4598
▁milestone	-11.4598
▁navigat	-11.4598
▁cheuk	-11.4598
▁hostile	-11.4598
▁fujian	-11.4598
▁undergone	-11.4598
▁smile	-11.4598
▁trauma	-11.4598
▁instant	-11.4599
▁football	-11.4599
▁patten	-11.4599
▁slowdown	-11.4599
jeou	-11.46
▁nationwide	-11.46
▁confidentiality	-11.4601
▁1972	-11.4601
▁empowerment	-11.4602
▁2008	-11.4602
▁allegation	-11.4608
▁solicitor	-11.4613
▁hide	-11.4616
▁complexion	-11.4625
▁rebuild	-11.4633
kai	-11.4677
photo	-11.473
▁perpetrat	-11.4751
skilled	-11.4764
▁convene	-11.4769
deficiency	-11.479
▁arusha	-11.479
▁chernobyl	-11.479
▁creativity	-11.479
▁disturbing	-11.479
▁entitlement	-11.479
▁handicapped	-11.479
▁inflicted	-11.479
▁mechanical	-11.479
▁motivation	-11.479
▁portuguese	-11.479
▁promising	-11.479
▁syndrome	-11.479
▁vacant	-11.479
▁wheel	-11.479
▁knife	-11.479
▁dominica	-11.479
▁homepage	-11.479
▁livestock	-11.479
▁modification	-11.479
▁welcoming	-11.479
▁textbooks	-11.479
▁loyal	-11.479
▁contend	-11.479
▁latvia	-11.479
▁carriageway	-11.479
▁circulation	-11.4793
▁guardian	-11.4795
▁regulat	-11.4795
▁hungary	-11.4796
▁yung	-11.4797
▁fulfilment	-11.4801
▁investor	-11.4817
▁undu	-11.4832
▁decid	-11.485
▁mobiliz	-11.4879
▁separat	-11.4885
▁roma	-11.4896
57	-11.4908
development	-11.492
quarter	-11.4926
type	-11.4936
▁depriv	-11.4942
▁combine	-11.4964
▁infectio	-11.4976
▁champion	-11.4986
▁casual	-11.4986
▁battalion	-11.4986
▁calendar	-11.4986
▁carnival	-11.4986
▁catastrophe	-11.4986
▁cholera	-11.4986
▁composite	-11.4986
▁fertility	-11.4986
▁mauritius	-11.4986
▁miscellan	-11.4986
▁retention	-11.4986
▁thrust	-11.4986
▁uranium	-11.4986
bissau	-11.4986
▁advent	-11.4986
▁cotton	-11.4986
▁batch	-11.4986
▁studio	-11.4986
▁desertification	-11.4986
▁marginalization	-11.4988
▁birthday	-11.499
▁modernization	-11.4994
erick	-11.4996
▁defenders	-11.5003
▁evaluat	-11.5004
▁delegate	-11.5004
▁angle	-11.5005
▁characteristic	-11.5007
▁40%	-11.5007
natal	-11.501
▁ignor	-11.5074
roving	-11.5089
employed	-11.5122
contract	-11.5126
bank	-11.5147
▁endorse	-11.5161
▁disclose	-11.5164
▁solicit	-11.517
▁ensu	-11.5174
▁bullet	-11.5179
▁arafat	-11.5186
▁auspices	-11.5186
▁bottle	-11.5186
▁disappointing	-11.5186
▁irrigation	-11.5186
▁libraries	-11.5186
▁precarious	-11.5186
▁privacy	-11.5186
▁specify	-11.5186
▁mirror	-11.5186
▁peasant	-11.5186
▁abilities	-11.5186
▁absent	-11.5186
▁curtail	-11.5186
▁mortar	-11.5186
▁kcrc	-11.5186
▁penetrat	-11.5186
negotia	-11.5186
▁denial	-11.5186
▁breakthrough	-11.5186
▁demining	-11.5187
▁icac	-11.5187
▁clinic	-11.5187
▁nominal	-11.5188
▁surgery	-11.5188
▁lifestyle	-11.5189
▁fought	-11.519
▁yourself	-11.5191
▁attainment	-11.5191
▁passive	-11.5201
▁sau	-11.5206
▁fdi	-11.521
▁ample	-11.5217
▁integrat	-11.5298
▁shin	-11.5306
claim	-11.533
firm	-11.5331
cheng	-11.5349
▁distribute	-11.5368
▁avail	-11.5387
▁basket	-11.539
▁artillery	-11.539
▁carpark	-11.539
▁catholic	-11.539
▁constituent	-11.539
▁deteriorating	-11.539
▁exercising	-11.539
▁mobility	-11.539
▁repercussions	-11.539
▁revival	-11.539
▁substantiate	-11.539
▁tuberculosis	-11.539
▁flagrant	-11.539
▁dominant	-11.539
▁silent	-11.539
▁robbed	-11.539
▁dawn	-11.539
▁orphan	-11.539
▁renovat	-11.539
▁inequality	-11.539
sharif	-11.5391
waiting	-11.5392
▁resettlement	-11.5392
▁unclear	-11.5392
ctbt	-11.5392
▁elaboration	-11.5392
▁toxic	-11.5393
▁split	-11.5393
▁monuc	-11.5393
▁tiger	-11.5394
▁tackl	-11.5394
▁fiji	-11.5394
▁northeast	-11.5396
▁irre	-11.5397
▁turnover	-11.5398
▁deprivation	-11.5398
▁custom	-11.5402
▁hoping	-11.5404
▁illnesses	-11.5404
▁60%	-11.5407
▁castle	-11.541
▁parade	-11.5433
departmental	-11.5437
active	-11.5505
900000000	-11.5514
course	-11.5532
driven	-11.5538
▁enact	-11.556
▁postpone	-11.5576
▁1965	-11.558
paid	-11.5591
▁concur	-11.5597
circuit	-11.5599
▁abundant	-11.5599
▁ambitious	-11.5599
▁automobile	-11.5599
▁cumulative	-11.5599
▁cyclone	-11.5599
▁disturbance	-11.5599
▁doctrine	-11.5599
▁hussein	-11.5599
▁kinshasa	-11.5599
▁motorcycle	-11.5599
▁stabilization	-11.5599
▁stanley	-11.5599
▁sydney	-11.5599
▁terrible	-11.5599
▁timber	-11.5599
▁unreasonable	-11.5599
▁unwilling	-11.5599
▁valuation	-11.5599
▁embodie	-11.5599
▁ghana	-11.5599
▁interchange	-11.5599
▁okay	-11.5599
decentralization	-11.5599
▁lpg	-11.5599
▁navy	-11.5599
▁levy	-11.5599
▁retraining	-11.5599
▁shelf	-11.5599
▁mature	-11.5599
▁giant	-11.5599
▁lantern	-11.5599
▁architecture	-11.5599
▁golf	-11.5599
▁kids	-11.5601
▁occurring	-11.5602
▁overlap	-11.5604
▁tighten	-11.5604
▁jury	-11.5604
▁forestry	-11.5605
▁trick	-11.5605
▁shih	-11.561
▁stir	-11.5616
▁forged	-11.5622
▁sfor	-11.5623
▁recipient	-11.5629
▁barrier	-11.5629
▁chop	-11.564
▁faithful	-11.5717
graduate	-11.5751
amendment	-11.5751
system	-11.5752
judicial	-11.5752
▁initiat	-11.5753
▁occupy	-11.5755
style	-11.5759
▁calculat	-11.5769
▁impede	-11.5784
▁fortunate	-11.5792
▁bamboo	-11.5811
▁cancellation	-11.5811
▁frankfurt	-11.5811
▁honduras	-11.5811
▁madrid	-11.5811
▁ombudsman	-11.5811
▁procurator	-11.5811
▁stakeholders	-11.5811
▁unfounded	-11.5811
▁verdict	-11.5811
▁compelled	-11.5811
▁funeral	-11.5811
▁disney	-11.5811
▁poppy	-11.5811
▁uneven	-11.5811
▁overnight	-11.5811
▁algeria	-11.5811
▁invoke	-11.5811
▁mosque	-11.5811
▁grey	-11.5811
▁youngsters	-11.5812
▁unstable	-11.5812
▁arose	-11.5812
▁conform	-11.5812
▁neighbourhood	-11.5812
▁plum	-11.5812
▁compact	-11.5813
▁plot	-11.5813
▁accumulation	-11.5813
▁solar	-11.5814
zhen	-11.5814
▁settlers	-11.5815
▁elite	-11.5817
▁firemen	-11.5823
▁judg	-11.5837
▁devise	-11.5839
▁colleague	-11.5847
▁hydro	-11.5858
talling	-11.5861
▁qian	-11.5951
effectiveness	-11.5973
▁restrain	-11.6009
spot	-11.6017
▁desert	-11.6028
▁aborigin	-11.6029
▁appraisal	-11.6029
▁buddhist	-11.6029
▁default	-11.6029
▁defining	-11.6029
▁deputies	-11.6029
▁disparities	-11.6029
▁economist	-11.6029
▁fertilizer	-11.6029
▁mediterranean	-11.6029
▁merchant	-11.6029
▁ottawa	-11.6029
▁pragmatic	-11.6029
▁prostitute	-11.6029
▁scrutiny	-11.6029
▁senegal	-11.6029
▁aggressive	-11.6029
▁ethical	-11.6029
▁knock	-11.6029
▁theoretical	-11.6029
hearted	-11.6029
▁descend	-11.6029
▁cinema	-11.6029
▁drift	-11.6029
▁withdrew	-11.6029
▁bidding	-11.6029
▁random	-11.6029
▁fellowship	-11.603
▁pirated	-11.603
▁dictat	-11.6031
▁offshore	-11.6032
dustrialization	-11.6032
▁enrol	-11.6032
▁desk	-11.6033
▁revolutionary	-11.6034
▁benin	-11.6034
▁depositary	-11.6036
▁tenure	-11.6039
▁fax	-11.6039
▁finger	-11.6041
▁mentality	-11.6041
▁pact	-11.6048
▁campus	-11.6053
▁consul	-11.6055
▁servant	-11.6069
▁sahara	-11.6071
▁striv	-11.6102
abad	-11.6104
▁featur	-11.611
▁conserv	-11.6117
terrorist	-11.6191
kuang	-11.6194
▁execut	-11.6206
▁exclude	-11.6228
mitted	-11.6242
grading	-11.6246
▁coffee	-11.6251
▁conspiracy	-11.6251
▁continuity	-11.6251
▁definitive	-11.6251
▁extremist	-11.6251
▁gallery	-11.6251
▁jamahiriya	-11.6251
▁patience	-11.6251
▁securing	-11.6251
▁fierce	-11.6251
▁flourish	-11.6251
▁ratify	-11.6251
▁fifty	-11.6251
▁landfill	-11.6251
▁termination	-11.6251
▁sweet	-11.6251
▁affirmative	-11.6252
▁telecom	-11.6252
▁afore	-11.6252
▁loose	-11.6253
▁revert	-11.6253
▁idf	-11.6255
▁disruption	-11.6256
▁drain	-11.6256
▁sharon	-11.6257
▁echo	-11.6259
▁mask	-11.626
▁bias	-11.6261
▁bless	-11.6267
▁cruel	-11.6281
▁remov	-11.6305
generation	-11.6418
wood	-11.6419
cutting	-11.6422
▁accomplish	-11.6438
60000000	-11.6439
▁libya	-11.6468
▁academia	-11.6478
▁antibiotic	-11.6478
▁apparatus	-11.6478
▁cocaine	-11.6478
▁countermeasures	-11.6478
▁criterion	-11.6478
▁dissatisfied	-11.6478
▁excited	-11.6478
▁guerrilla	-11.6478
▁instalment	-11.6478
▁kuomintang	-11.6478
▁macroeconomic	-11.6478
▁mitigate	-11.6478
▁pandemic	-11.6478
▁proposing	-11.6478
▁receivable	-11.6478
▁variations	-11.6478
▁whatsoever	-11.6478
▁thirty	-11.6478
▁module	-11.6478
▁unjust	-11.6478
▁malta	-11.6478
▁solemn	-11.6478
▁compiled	-11.6478
▁inquiries	-11.6478
▁racist	-11.6478
officio	-11.6478
gress	-11.6478
▁recycling	-11.6478
▁championship	-11.6479
▁cantonese	-11.6479
▁edward	-11.648
▁consulate	-11.648
▁optimism	-11.648
▁burned	-11.6481
▁1949	-11.6483
▁erode	-11.6483
hsiung	-11.6534
▁forcibl	-11.6556
▁install	-11.6587
life	-11.664
productive	-11.6644
parent	-11.665
compliance	-11.6651
japanese	-11.6651
africa	-11.6651
office	-11.6652
▁consequent	-11.6692
▁advisor	-11.6701
▁migrat	-11.6708
▁applaud	-11.6711
▁artificial	-11.6711
▁coexistence	-11.6711
▁commensurate	-11.6711
▁destructive	-11.6711
▁distress	-11.6711
▁djibouti	-11.6711
▁enshrine	-11.6711
▁erosion	-11.6711
▁francisco	-11.6711
▁gentlemen	-11.6711
▁incompatible	-11.6711
▁invalid	-11.6711
▁invaluable	-11.6711
▁jewish	-11.6711
▁medication	-11.6711
▁ordnance	-11.6711
▁qualify	-11.6711
▁reservoir	-11.6711
▁rigorous	-11.6711
▁literary	-11.6711
▁repression	-11.6711
▁babies	-11.6711
▁indices	-11.6711
▁parameters	-11.6711
▁pretty	-11.6711
▁urging	-11.6711
▁garment	-11.6711
▁hatred	-11.6711
▁aftermath	-11.6711
▁martyr	-11.6711
▁uncertainties	-11.6711
▁slack	-11.6711
▁diplomats	-11.6712
▁enrolled	-11.6712
▁wholly	-11.6712
▁trapped	-11.6712
▁armour	-11.6713
▁interrogation	-11.6714
▁quest	-11.6714
▁laden	-11.6715
▁frontier	-11.6715
▁confession	-11.6716
▁mood	-11.6716
4.5	-11.6766
▁congratulat	-11.6855
▁0.2	-11.6872
represented	-11.6889
▁rehabilitat	-11.6945
▁blueprint	-11.6949
▁brussels	-11.6949
▁conciliation	-11.6949
▁contamination	-11.6949
▁convergence	-11.6949
▁hemisphere	-11.6949
▁imagination	-11.6949
▁impressed	-11.6949
▁mercenaries	-11.6949
▁physician	-11.6949
▁puppet	-11.6949
▁solomon	-11.6949
▁surrounded	-11.6949
▁trousers	-11.6949
▁grasp	-11.6949
▁cherish	-11.6949
▁copper	-11.6949
▁forefront	-11.6949
consuming	-11.6949
▁shortened	-11.6949
▁feedback	-11.6949
▁preamb	-11.695
▁blockade	-11.6951
▁varies	-11.6952
▁legend	-11.6952
▁obstruction	-11.6952
▁faso	-11.6954
▁flash	-11.6958
assuming	-11.6965
loving	-11.6969
▁tube	-11.697
▁bret	-11.6974
chuen	-11.6975
▁2.5	-11.6989
▁offender	-11.701
▁squa	-11.7027
funded	-11.7047
▁outreach	-11.7076
▁0.1	-11.7123
felt	-11.7133
▁envisage	-11.717
▁bun	-11.7174
▁inhabit	-11.7192
▁aggressor	-11.7193
▁botswana	-11.7193
▁compassion	-11.7193
▁complementarity	-11.7193
▁controversial	-11.7193
▁dictatorship	-11.7193
▁dissatisfaction	-11.7193
▁diversified	-11.7193
▁gravity	-11.7193
▁happiness	-11.7193
▁istanbul	-11.7193
▁koizumi	-11.7193
▁laboratories	-11.7193
▁liabilities	-11.7193
▁mitigation	-11.7193
▁philateli	-11.7193
▁renminbi	-11.7193
▁residual	-11.7193
▁sarajevo	-11.7193
▁vacuum	-11.7193
▁cattle	-11.7193
▁midnight	-11.7193
▁carbon	-11.7193
▁eager	-11.7193
▁settling	-11.7193
▁buried	-11.7193
▁tibet	-11.7193
▁visibility	-11.7193
▁liais	-11.7195
▁sunny	-11.7196
▁pump	-11.7198
▁flor	-11.7205
space	-11.7383
evaluation	-11.7383
developed	-11.7383
▁detain	-11.7405
▁homosexual	-11.7443
▁abducted	-11.7443
▁abstract	-11.7443
▁accreditation	-11.7443
▁advancing	-11.7443
▁analyze	-11.7443
▁behavior	-11.7443
▁catalogue	-11.7443
▁clinton	-11.7443
▁deterrence	-11.7443
▁dilemma	-11.7443
▁emirates	-11.7443
▁exciting	-11.7443
▁frozen	-11.7443
▁impasse	-11.7443
▁incursion	-11.7443
▁inequalities	-11.7443
▁litigation	-11.7443
▁millimetres	-11.7443
▁necessitat	-11.7443
▁predominant	-11.7443
▁rostrum	-11.7443
▁simplified	-11.7443
▁slovenia	-11.7443
▁tokelau	-11.7443
▁unprofor	-11.7443
▁variable	-11.7443
▁enlighten	-11.7443
▁forfeit	-11.7443
▁provocati	-11.7443
▁tribal	-11.7443
▁zheng	-11.7443
▁polish	-11.7443
▁sword	-11.7443
▁travellers	-11.7443
▁depot	-11.7443
finite	-11.7443
▁berlin	-11.7443
▁grace	-11.7443
▁multicultural	-11.7444
▁pricing	-11.7444
▁zhong	-11.7444
▁plaza	-11.7444
▁mapping	-11.7445
▁managerial	-11.7445
▁shiite	-11.7447
▁plea	-11.7449
▁technique	-11.7517
▁recogniz	-11.7553
2001	-11.7598
▁constitut	-11.7639
2.2	-11.7644
value	-11.7644
▁circulat	-11.7657
▁allege	-11.7682
▁applause	-11.7699
▁blanket	-11.7699
▁communiqu	-11.7699
▁credentials	-11.7699
▁denounce	-11.7699
▁diabetes	-11.7699
▁discourage	-11.7699
▁disintegrat	-11.7699
▁expedite	-11.7699
▁footwear	-11.7699
▁ghost	-11.7699
▁immunization	-11.7699
▁kisangani	-11.7699
▁leather	-11.7699
▁memories	-11.7699
▁plenty	-11.7699
▁pneumonia	-11.7699
▁propaganda	-11.7699
▁scattered	-11.7699
▁stabilize	-11.7699
▁vaccination	-11.7699
▁cctv	-11.7699
▁concurrently	-11.7699
▁residing	-11.7699
▁charity	-11.7699
▁dutch	-11.7699
▁queries	-11.7699
▁oecd	-11.7699
▁pioneer	-11.7699
▁counsellor	-11.7699
▁bread	-11.7699
▁regain	-11.7699
▁senate	-11.7699
▁stockpile	-11.7699
▁biotechnology	-11.7699
▁rotation	-11.7699
▁ancestr	-11.7699
▁conceptual	-11.77
▁dragg	-11.77
▁shrink	-11.77
▁emanat	-11.7718
▁0.4	-11.7783
interrupted	-11.7891
cultural	-11.7902
chinese	-11.7903
bearing	-11.7903
treated	-11.7939
▁locate	-11.794
▁revise	-11.7951
▁contradict	-11.7958
▁rigid	-11.7962
▁addiction	-11.7962
▁argentine	-11.7962
▁compatible	-11.7962
▁compatriots	-11.7962
▁culminate	-11.7962
▁demolition	-11.7962
▁earmarked	-11.7962
▁enlargement	-11.7962
▁exploring	-11.7962
▁foodstuffs	-11.7962
▁inspired	-11.7962
▁legacy	-11.7962
▁liquor	-11.7962
▁logistical	-11.7962
▁mutilation	-11.7962
▁overcrowding	-11.7962
▁participatory	-11.7962
▁stomach	-11.7962
▁substituting	-11.7962
▁twentieth	-11.7962
▁unhappy	-11.7962
▁unomig	-11.7962
▁vigilant	-11.7962
▁wheat	-11.7962
▁vacation	-11.7962
▁flew	-11.7962
▁shuttle	-11.7962
▁plunge	-11.7962
▁vendor	-11.7962
▁brown	-11.7962
▁looting	-11.7962
▁bacteria	-11.7962
recycl	-11.7963
▁(5)	-11.7963
▁dividend	-11.7963
▁tuition	-11.7964
▁hsieh	-11.7965
▁kof	-11.8008
▁scholar	-11.8049
▁violat	-11.8091
storey	-11.8095
ammed	-11.8122
▁geographic	-11.817
control	-11.8172
regulation	-11.8173
efficient	-11.8173
hksar	-11.8173
▁disappear	-11.8191
▁anticipate	-11.821
▁obstruct	-11.8229
▁cyber	-11.8232
▁synthe	-11.8233
▁anxiety	-11.8233
▁apartheid	-11.8233
▁captain	-11.8233
▁consignment	-11.8233
▁cubic	-11.8233
▁evacuated	-11.8233
▁gibraltar	-11.8233
▁graduation	-11.8233
▁homicide	-11.8233
▁injustice	-11.8233
▁majesty	-11.8233
▁rainstorm	-11.8233
▁rubber	-11.8233
▁script	-11.8233
▁striking	-11.8233
▁triumph	-11.8233
▁wireless	-11.8233
▁zhao	-11.8233
▁digest	-11.8233
▁ambush	-11.8233
▁interface	-11.8233
▁archives	-11.8233
▁tribes	-11.8233
▁heaven	-11.8233
▁cyberport	-11.8233
▁gambia	-11.8233
▁steal	-11.8233
▁icrc	-11.8233
▁samoa	-11.8233
▁hiding	-11.8233
abiding	-11.8234
chancellor	-11.8234
▁discriminate	-11.8262
resistant	-11.8277
▁dominate	-11.8321
▁oppos	-11.8389
appointed	-11.8449
congolese	-11.845
which	-11.8451
▁victor	-11.8468
▁infrastructur	-11.8478
▁convince	-11.8488
▁interrogat	-11.8506
ographic	-11.851
▁metropoli	-11.851
adequacy	-11.851
subscription	-11.851
▁apologize	-11.851
▁apparel	-11.851
▁armaments	-11.851
▁bicycle	-11.851
▁democracies	-11.851
▁despair	-11.851
▁dioxide	-11.851
▁provoke	-11.851
▁qualitative	-11.851
▁reimbursed	-11.851
▁savimbi	-11.851
▁spontaneous	-11.851
▁tianjin	-11.851
▁zhejiang	-11.851
▁ancestor	-11.851
▁deduction	-11.851
▁gesture	-11.851
▁goodwill	-11.851
▁modified	-11.851
▁untaet	-11.851
▁widow	-11.851
▁interpol	-11.851
▁rifle	-11.851
▁unfold	-11.851
▁verified	-11.851
esteem	-11.851
▁acclaim	-11.851
▁sincerity	-11.851
▁pitch	-11.8511
▁alumin	-11.8511
▁conferr	-11.8511
▁guesthouse	-11.8511
▁grassroots	-11.8511
▁wives	-11.8511
▁dense	-11.8511
▁festiv	-11.8514
▁aspiration	-11.8613
▁cooperat	-11.8694
present	-11.873
prince	-11.8736
tribution	-11.8769
▁diploma	-11.8793
▁entertain	-11.8793
▁investigati	-11.8793
▁horizon	-11.8796
▁cordial	-11.8796
▁diagnose	-11.8796
▁hawker	-11.8796
▁improper	-11.8796
▁intermediate	-11.8796
▁loophole	-11.8796
▁mandarin	-11.8796
▁mercenary	-11.8796
▁nuisance	-11.8796
▁presiding	-11.8796
▁proximity	-11.8796
▁putonghua	-11.8796
▁refresh	-11.8796
▁smuggle	-11.8796
▁speculative	-11.8796
▁statue	-11.8796
▁surpass	-11.8796
▁unconscious	-11.8796
▁undeniabl	-11.8796
▁unrealistic	-11.8796
▁virgin	-11.8796
▁bubble	-11.8796
▁credible	-11.8796
▁headache	-11.8796
▁szeto	-11.8796
▁violin	-11.8796
▁reliability	-11.8796
▁stroke	-11.8796
▁unifil	-11.8796
▁zedong	-11.8796
▁nightmare	-11.8796
▁invisible	-11.8796
▁activist	-11.8796
▁restoring	-11.8796
▁updating	-11.8796
▁kitchen	-11.8796
▁exile	-11.8811
▁deadlock	-11.8815
▁participant	-11.8908
4,000	-11.8936
dominated	-11.9
regional	-11.9029
israeli	-11.903
finance	-11.903
front	-11.9034
large	-11.9035
▁villa	-11.9077
misunderstanding	-11.909
▁abduction	-11.909
▁bachelor	-11.909
▁barbados	-11.909
▁buddha	-11.909
▁circular	-11.909
▁corporal	-11.909
▁deception	-11.909
▁decreasing	-11.909
▁depreciation	-11.909
▁desperate	-11.909
▁fissile	-11.909
▁impediment	-11.909
▁kabila	-11.909
▁merchandise	-11.909
▁miracle	-11.909
▁newsletter	-11.909
▁reinforcing	-11.909
▁stockpiling	-11.909
▁technician	-11.909
▁ventilation	-11.909
▁compilation	-11.909
▁formidable	-11.909
▁overthrow	-11.909
▁straw	-11.909
▁problematic	-11.909
rink	-11.9147
▁unrest	-11.916
▁constraint	-11.9211
▁replac	-11.932
quality	-11.9331
interest	-11.9333
affected	-11.9333
management	-11.9333
▁eradicat	-11.9368
▁obligat	-11.9389
▁corrupt	-11.9389
▁altitude	-11.9393
▁calligraphy	-11.9393
▁celebrating	-11.9393
▁coherence	-11.9393
▁columbia	-11.9393
▁divoire	-11.9393
▁episode	-11.9393
▁infringement	-11.9393
▁nurture	-11.9393
▁ozone	-11.9393
▁reluctant	-11.9393
▁responsive	-11.9393
▁resurgence	-11.9393
▁secrecy	-11.9393
▁sporadic	-11.9393
▁unmibh	-11.9393
▁xenophobia	-11.9393
▁(1999)	-11.9393
▁charles	-11.9393
▁malawi	-11.9393
▁tentative	-11.9393
▁jenin	-11.9393
▁assemblies	-11.9393
▁discard	-11.9393
▁rival	-11.9393
▁distant	-11.9393
▁looted	-11.9393
▁steep	-11.9393
▁traffickers	-11.9393
▁tennis	-11.9394
▁tailor	-11.9394
▁admire	-11.9394
▁foregoing	-11.9394
▁insured	-11.9394
▁guess	-11.9395
▁analog	-11.9399
habitat	-11.9646
credit	-11.9657
▁retreat	-11.9662
▁retire	-11.968
▁equip	-11.9702
▁abstention	-11.9706
▁aforesaid	-11.9706
▁analytical	-11.9706
▁biodiversity	-11.9706
▁collision	-11.9706
▁contravene	-11.9706
▁discontent	-11.9706
▁discontinu	-11.9706
▁ecomog	-11.9706
▁forbidden	-11.9706
▁identifies	-11.9706
▁jockey	-11.9706
▁modify	-11.9706
▁nervous	-11.9706
▁preclude	-11.9706
▁preferential	-11.9706
▁prescription	-11.9706
▁reconsider	-11.9706
▁renounce	-11.9706
▁rhetoric	-11.9706
▁susceptible	-11.9706
▁turtle	-11.9706
▁unfavourable	-11.9706
▁afflict	-11.9706
▁banquet	-11.9706
▁clarity	-11.9706
▁holistic	-11.9706
▁gabon	-11.9706
▁nursing	-11.9706
▁portray	-11.9706
▁queensway	-11.9706
▁repeal	-11.9706
▁siege	-11.9706
▁hello	-11.9707
▁outrage	-11.9707
afcd	-11.9708
▁refute	-11.9708
digit	-11.971
▁qualification	-11.9845
▁narcotic	-11.9846
5.5	-11.9936
occupied	-11.9968
traditional	-11.9968
executive	-11.9969
growing	-11.9969
▁paramilitar	-12.0016
▁rwand	-12.0018
▁uncle	-12.0026
▁accompli	-12.0027
qaeda	-12.0028
▁aberdeen	-12.0028
▁anybody	-12.0028
▁bermuda	-12.0028
▁bethlehem	-12.0028
▁blatant	-12.0028
▁categorical	-12.0028
▁demarcation	-12.0028
▁demonstrating	-12.0028
▁devastation	-12.0028
▁expatriate	-12.0028
▁expulsion	-12.0028
▁inspiration	-12.0028
▁invoice	-12.0028
▁marshall	-12.0028
▁memorial	-12.0028
▁pitcairn	-12.0028
▁revitalization	-12.0028
▁taxpayers	-12.0028
▁underestimate	-12.0028
▁undesirable	-12.0028
▁unequivocal	-12.0028
▁unresolved	-12.0028
▁unsatisfactory	-12.0028
▁unsuccessful	-12.0028
▁xinjiang	-12.0028
▁delicate	-12.0028
▁depression	-12.0028
▁signatory	-12.0028
▁yeoh	-12.0028
▁scandal	-12.0028
▁seoul	-12.0028
▁sorrow	-12.0028
▁complications	-12.0028
▁compartment	-12.0028
equities	-12.0028
▁disarm	-12.0029
▁unconditional	-12.0029
▁seabed	-12.0029
▁belize	-12.0029
▁knee	-12.0031
▁simulat	-12.0091
▁refund	-12.0144
▁philippine	-12.0179
▁declar	-12.0232
▁0.7	-12.0243
western	-12.0302
disproportionate	-12.0358
▁abnormal	-12.0362
▁accredited	-12.0362
▁brahimi	-12.0362
▁chongqing	-12.0362
▁convoy	-12.0362
▁deplorable	-12.0362
▁discern	-12.0362
▁fraudulent	-12.0362
▁fugitive	-12.0362
▁furnish	-12.0362
▁influential	-12.0362
▁reluctance	-12.0362
▁sampling	-12.0362
▁streamlining	-12.0362
▁sunshine	-12.0362
▁thomas	-12.0362
▁ukrainian	-12.0362
▁vibrant	-12.0362
▁caledonia	-12.0362
▁coherent	-12.0362
▁dismantle	-12.0362
▁dispens	-12.0362
▁flavor	-12.0362
▁luncheon	-12.0362
▁sulphur	-12.0362
column	-12.0362
▁daunting	-12.0362
▁hakka	-12.0362
▁vague	-12.0362
▁crystal	-12.0362
▁horizontal	-12.0362
▁renowned	-12.0362
enforcing	-12.0362
▁iceland	-12.0362
▁throughput	-12.0362
▁deported	-12.0362
▁radar	-12.0362
▁unmee	-12.0362
▁queue	-12.0362
entrepreneurship	-12.0362
▁choy	-12.0362
jacket	-12.0362
▁heroic	-12.0362
▁cleric	-12.0363
▁aspire	-12.0368
▁eligib	-12.0369
breaking	-12.042
6.6	-12.0499
laughter	-12.0545
standard	-12.0647
qualified	-12.0647
business	-12.0647
amount	-12.0648
authorized	-12.066
▁deteriorate	-12.0684
▁attribute	-12.0684
communal	-12.0706
▁architectural	-12.0706
▁beneficiary	-12.0706
▁blossom	-12.0706
▁bombardment	-12.0706
▁ceramic	-12.0706
▁choosing	-12.0706
▁complacent	-12.0706
▁conversation	-12.0706
▁cosmetic	-12.0706
▁custodia	-12.0706
▁describing	-12.0706
▁disastrous	-12.0706
▁disinfect	-12.0706
▁emphasizing	-12.0706
▁energetic	-12.0706
▁erected	-12.0706
▁identical	-12.0706
▁jewellery	-12.0706
▁lumpur	-12.0706
▁malicious	-12.0706
▁protracted	-12.0706
▁qualities	-12.0706
▁reconcile	-12.0706
▁recurrence	-12.0706
▁resentment	-12.0706
▁sandwich	-12.0706
▁semiconductor	-12.0706
▁sluggish	-12.0706
▁spectacular	-12.0706
▁subvented	-12.0706
▁umbrella	-12.0706
▁unequal	-12.0706
▁veteran	-12.0706
▁worthwhile	-12.0706
▁alternate	-12.0706
▁mandela	-12.0706
▁privy	-12.0706
▁somebody	-12.0706
▁trillion	-12.0706
▁unifem	-12.0706
▁xiamen	-12.0706
▁cayman	-12.0706
▁muscle	-12.0706
▁vivid	-12.0706
▁heightened	-12.0706
▁naval	-12.0706
▁steam	-12.0707
▁complied	-12.0707
▁revenge	-12.0707
▁maimed	-12.0707
▁hunting	-12.0707
▁foreseen	-12.0707
▁pretend	-12.0708
▁versa	-12.071
1.2%	-12.0785
▁elaborat	-12.0866
▁deliberation	-12.0881
fledg	-12.0898
▁commenc	-12.0992
resident	-12.0996
structure	-12.1004
budget	-12.1004
third	-12.1004
money	-12.1004
▁nominate	-12.1041
▁acquiring	-12.1064
▁articulat	-12.1064
▁cervical	-12.1064
▁consistency	-12.1064
▁consortium	-12.1064
▁constrained	-12.1064
▁contraceptive	-12.1064
▁corroborat	-12.1064
▁demilitarized	-12.1064
▁diligent	-12.1064
▁electorate	-12.1064
▁facilitation	-12.1064
▁falkland	-12.1064
▁fatigue	-12.1064
%	-13.4049
(	-13.405
